{"<pad>":0,"<unk>":1,"<s>":2,"</s>":3,"<mask>":4,"!":5,"\"":6,"#":7,"$":8,"%":9,"&":10,"'":11,"(":12,")":13,"*":14,"+":15,",":16,"-":17,".":18,"/":19,"0":20,"1":21,"2":22,"3":23,"4":24,"5":25,"6":26,"7":27,"8":28,"9":29,":":30,";":31,"<":32,"=":33,">":34,"?":35,"@":36,"A":37,"B":38,"C":39,"D":40,"E":41,"F":42,"G":43,"H":44,"I":45,"J":46,"K":47,"L":48,"M":49,"N":50,"O":51,"P":52,"Q":53,"R":54,"S":55,"T":56,"U":57,"V":58,"W":59,"X":60,"Y":61,"Z":62,"[":63,"\\":64,"]":65,"^":66,"_":67,"`":68,"a":69,"b":70,"c":71,"d":72,"e":73,"f":74,"g":75,"h":76,"i":77,"j":78,"k":79,"l":80,"m":81,"n":82,"o":83,"p":84,"q":85,"r":86,"s":87,"t":88,"u":89,"v":90,"w":91,"x":92,"y":93,"z":94,"{":95,"|":96,"}":97,"~":98,"¡":99,"¢":100,"£":101,"¤":102,"¥":103,"¦":104,"§":105,"¨":106,"©":107,"ª":108,"«":109,"¬":110,"®":111,"¯":112,"°":113,"±":114,"²":115,"³":116,"´":117,"µ":118,"¶":119,"·":120,"¸":121,"¹":122,"º":123,"»":124,"¼":125,"½":126,"¾":127,"¿":128,"À":129,"Á":130,"Â":131,"Ã":132,"Ä":133,"Å":134,"Æ":135,"Ç":136,"È":137,"É":138,"Ê":139,"Ë":140,"Ì":141,"Í":142,"Î":143,"Ï":144,"Ð":145,"Ñ":146,"Ò":147,"Ó":148,"Ô":149,"Õ":150,"Ö":151,"×":152,"Ø":153,"Ù":154,"Ú":155,"Û":156,"Ü":157,"Ý":158,"Þ":159,"ß":160,"à":161,"á":162,"â":163,"ã":164,"ä":165,"å":166,"æ":167,"ç":168,"è":169,"é":170,"ê":171,"ë":172,"ì":173,"í":174,"î":175,"ï":176,"ð":177,"ñ":178,"ò":179,"ó":180,"ô":181,"õ":182,"ö":183,"÷":184,"ø":185,"ù":186,"ú":187,"û":188,"ü":189,"ý":190,"þ":191,"ÿ":192,"Ā":193,"ā":194,"Ă":195,"ă":196,"Ą":197,"ą":198,"Ć":199,"ć":200,"Ĉ":201,"ĉ":202,"Ċ":203,"ċ":204,"Č":205,"č":206,"Ď":207,"ď":208,"Đ":209,"đ":210,"Ē":211,"ē":212,"Ĕ":213,"ĕ":214,"Ė":215,"ė":216,"Ę":217,"ę":218,"Ě":219,"ě":220,"Ĝ":221,"ĝ":222,"Ğ":223,"ğ":224,"Ġ":225,"ġ":226,"Ģ":227,"ģ":228,"Ĥ":229,"ĥ":230,"Ħ":231,"ħ":232,"Ĩ":233,"ĩ":234,"Ī":235,"ī":236,"Ĭ":237,"ĭ":238,"Į":239,"į":240,"İ":241,"ı":242,"Ĳ":243,"ĳ":244,"Ĵ":245,"ĵ":246,"Ķ":247,"ķ":248,"ĸ":249,"Ĺ":250,"ĺ":251,"Ļ":252,"ļ":253,"Ľ":254,"ľ":255,"Ŀ":256,"ŀ":257,"Ł":258,"ł":259,"Ń":260,"Ġt":261,"Ġa":262,"in":263,"on":264,"er":265,"ti":266,"en":267,"Ġth":268,"es":269,"Ġs":270,"Ġp":271,"an":272,"Ġc":273,"Ġd":274,"Ġo":275,"Ġthe":276,"ed":277,"al":278,"is":279,"at":280,"Ġm":281,"re":282,"čĊ":283,"Ġin":284,"or":285,"ar":286,"Ġan":287,"Ġof":288,"as":289,"ro":290,"Ġf":291,"Ġw":292,"tion":293,"it":294,"Ġb":295,"ic":296,"el":297,"Ġand":298,"ing":299,"ent":300,"Ġe":301,"ec":302,"Ġl":303,"ul":304,"Ġh":305,"th":306,"Ġn":307,"ation":308,"un":309,"Ġto":310,"ac":311,"Ġr":312,"os":313,"Ġg":314,"om":315,"il":316,"tr":317,"Ġde":318,"id":319,"im":320,"ur":321,"ol":322,"us":323,"ter":324,"Ġcon":325,"am":326,"ve":327,"le":328,"Ġre":329,"em":330,"ig":331,"Ġpro":332,"ad":333,"si":334,"ly":335,"ver":336,"ts":337,"qu":338,"uc":339,"Ġbe":340,"ut":341,"ce":342,"ith":343,"tic":344,"Ġex":345,"Ġfor":346,"tu":347,"Ġwith":348,"âĢ":349,"Ġis":350,"od":351,"op":352,"Ġthat":353,"ag":354,"Ġcom":355,"Ġres":356,"di":357,"ff":358,"ow":359,"ys":360,"ap":361,"Ġon":362,"Ġv":363,"um":364,"Ġì":365,"ity":366,"ir":367,"ab":368,"Ġy":369,"the":370,"Ġun":371,"Ġare":372,"ant":373,"ated":374,"Ġal":375,"et":376,"per":377,"Ġas":378,"and":379,"oc":380,"og":381,"ang":382,"ain":383,"ak":384,"up":385,"Ġk":386,"sion":387,"ment":388,"res":389,"ati":390,"iz":391,"Ġdis":392,"ate":393,"ere":394,"ch":395,"ot":396,"ign":397,"Ġcomp":398,"ib":399,"ine":400,"Ġsh":401,"Ġac":402,"Ġwas":403,"ion":404,"Ġtr":405,"ical":406,"ay":407,"ect":408,"tem":409,"vel":410,"Ġen":411,"Ġus":412,"Ġst":413,"ans":414,"if":415,"igh":416,"Ġim":417,"est":418,"Ġor":419,"Ġad":420,"Ġdi":421,"ort":422,"Ġby":423,"Ġqu":424,"Ġch":425,"Ġcons":426,"Ġthis":427,"Ġwh":428,"ip":429,"ob":430,"ence":431,"ess":432,"Ġpar":433,"ĠčĊ":434,"Ġse":435,"ase":436,"ers":437,"Ġsys":438,"Ġne":439,"Ġsystem":440,"iti":441,"pl":442,"ìĿ":443,"Ġsu":444,"Ġë":445,"Ġab":446,"Ġar":447,"Ġstr":448,"Ġco":449,"rom":450,"Ġrel":451,"tions":452,"ah":453,"Ġit":454,"tive":455,"Ġpre":456,"Ġdes":457,"Ġwere":458,"ents":459,"Ġgen":460,"Ġresul":461,"cl":462,"Ġel":463,"Ġap":464,"ach":465,"ten":466,"ĠâĢ":467,"Ġsp":468,"Ġpl":469,"anc":470,"Ġinter":471,"Ġeff":472,"Ġgro":473,"ies":474,"eng":475,"Ġstu":476,"Ġcar":477,"Ġwe":478,"Ġcont":479,"ial":480,"ous":481,"ure":482,"ance":483,"Ġmod":484,"ill":485,"Ġimp":486,"ave":487,"bj":488,"ations":489,"âĢĻ":490,"ting":491,"Ġat":492,"Ġsign":493,"ari":494,"Ġle":495,"ding":496,"les":497,"se":498,"ines":499,"ese":500,"Ġanal":501,"Ġfrom":502,"olog":503,"ik":504,"val":505,"íķ":506,"Ġpr":507,"Ġmat":508,"ork":509,"ros":510,"Ġtrans":511,"Ġmodel":512,"ge":513,"vid":514,"Ġph":515,"Ġper":516,"Ġdat":517,"Ġme":518,"Ġdesign":519,"Ġresults":520,"duc":521,"Ġj":522,"Ġam":523,"Ġcol":524,"Ġnot":525,"und":526,"age":527,"der":528,"ia":529,"tur":530,"we":531,"Ġcan":532,"orm":533,"ell":534,"ular":535,"able":536,"Ġgroup":537,"de":538,"pres":539,"ri":540,"te":541,"Ġes":542,"Ġpres":543,"ath":544,"Ġmo":545,"ich":546,"ech":547,"ects":548,"Ġhy":549,"Ġhave":550,"ility":551,"ific":552,"con":553,"Âł":554,"Ġê":555,"Ġro":556,"Ġte":557,"enc":558,"all":559,"Ġla":560,"uld":561,"Ġhas":562,"ome":563,"ile":564,"trib":565,"Ġexper":566,"ma":567,"mis":568,"our":569,"ra":570,"Ġtim":571,"Ġcl":572,"Ġop":573,"ard":574,"rol":575,"Ġhigh":576,"ther":577,"act":578,"acion":579,"Ġshow":580,"velop":581,"Ġstud":582,"gor":583,"iver":584,"to":585,"ved":586,"tim":587,"Ġpos":588,"educ":589,"Ġinv":590,"Ġfol":591,"ely":592,"this":593,"acter":594,"Ġproc":595,"Ġform":596,"ization":597,"Ġdise":598,"Ġdata":599,"are":600,"gh":601,"ph":602,"port":603,"ìĹ":604,"Ġag":605,"enti":606,"Ġob":607,"ally":608,"Ġman":609,"ary":610,"ased":611,"Ġbut":612,"ectr":613,"ung":614,"Ġdevelop":615,"ative":616,"out":617,"pro":618,"so":619,"str":620,"ue":621,"uid":622,"ist":623,"Ġem":624,"ull":625,"ado":626,"Ġbet":627,"pression":628,"Ġdisease":629,"ear":630,"tain":631,"vi":632,"ven":633,"yp":634,"£o":635,"Â±":636,"Ã£o":637,"one":638,"tig":639,"Ġpu":640,"Ġpen":641,"Ġcal":642,"reat":643,"ose":644,"ide":645,"Ġalgor":646,"Ġwhich":647,"clu":648,"Ġcontrol":649,"Ġsignific":650,"Ġstudy":651,"gr":652,"kan":653,"ould":654,"par":655,"st":656,"yl":657,"ĠÂ±":658,"ens":659,"Ġthese":660,"Ġsim":661,"Ġma":662,"Ġinver":663,"ective":664,"Ġhe":665,"unc":666,"ace":667,"Ġreduc":668,"amp":669,"Ġresp":670,"ized":671,"Ġuse":672,"Ġelectr":673,"Ġcardi":674,"bjn":675,"ross":676,"Ġpresent":677,"Ġexperim":678,"Ġtime":679,"uidel":680,"Ġsignificant":681,"dic":682,"gg":683,"min":684,"ution":685,"Ã§":686,"ê³":687,"Ġi":688,"Ġpati":689,"Ġdo":690,"edi":691,"asi":692,"ast":693,"Ġequ":694,"Ġrec":695,"tical":696,"Ġybjn":697,"Ġass":698,"Ġdistrib":699,"Ġused":700,"Ġque":701,"Ġpartic":702,"Ġeffects":703,"ological":704,"ween":705,"Ġhyper":706,"Ġbetween":707,"ms":708,"ted":709,"ues":710,"ugh":711,"ÃŃ":712,"Ġup":713,"inc":714,"tiv":715,"Ġsc":716,"Ġso":717,"Ġpor":718,"Ġdn":719,"Ġdan":720,"atter":721,"Ġmy":722,"Ġmay":723,"arg":724,"Ġfl":725,"Ġfr":726,"itma":727,"ica":728,"Ġlas":729,"Ġguidel":730,"omy":731,"ture":732,"opath":733,"dition":734,"Ġvari":735,"oci":736,"Ġacc":737,"Ġnew":738,"Ġmater":739,"Ġgroups":740,"Ġinversion":741,"aus":742,"ble":743,"ew":744,"eter":745,"form":746,"ient":747,"ks":748,"ne":749,"ning":750,"yn":751,"Ġu":752,"int":753,"ond":754,"tir":755,"end":756,"Ġsur":757,"Ġsome":758,"Ġpe":759,"ants":760,"Ġda":761,"iss":762,"Ġmob":763,"Ġinc":764,"Ġinclu":765,"ors":766,"ory":767,"Ġfin":768,"Ġfunc":769,"thod":770,"Ġno":771,"Ġbeen":772,"âĢĿ":773,"ffic":774,"Ġval":775,"Ġìł":776,"Ġall":777,"Ġalso":778,"ight":779,"plic":780,"Ġsugg":781,"Ġits":782,"ĠâĢĺ":783,"ĠâĢľ":784,"Ġspec":785,"ìĹĲ":786,"Ġalgoritma":787,"Ġsignificantly":788,"ail":789,"cul":790,"ex":791,"hanc":792,"io":793,"ov":794,"ves":795,"ìķ":796,"Ġve":797,"Ġver":798,"Ġest":799,"ľë":800,"Ġter":801,"Ġtreat":802,"Ġser":803,"Ġsuc":804,"anti":805,"Ġcur":806,"Ġcell":807,"Ġover":808,"alth":809,"ise":810,"ish":811,"Ġmin":812,"Ġmar":813,"Ġmic":814,"aracter":815,"Ġwork":816,"itu":817,"Ġbo":818,"ection":819,"Ġlow":820,"ost":821,"tras":822,"ural":823,"lex":824,"adar":825,"Ġunder":826,"ogen":827,"Ġconsid":828,"Ġstruc":829,"Ġplant":830,"Ġimpro":831,"Ġpred":832,"ential":833,"Ġdevelopment":834,"Ġcardiomy":835,"Ã§Ã£o":836,"opathy":837,"Ġtreatment":838,"Ġcardiomyopathy":839,"avel":840,"bon":841,"cr":842,"led":843,"lam":844,"me":845,"mon":846,"¸°":847,"ìł":848,"eral":849,"til":850,"esis":851,"Ġsol":852,"Ġsah":853,"Ġpo":854,"Ġpol":855,"Ġpap":856,"Ġdec":857,"Ġout":858,"Ġmal":859,"Ġmach":860,"Ġindic":861,"ardi":862,"astic":863,"Ġfi":864,"ite":865,"Ġbr":866,"ental":867,"Ġland":868,"these":869,"Ġnum":870,"ational":871,"Ġrad":872,"Ġgl":873,"ement":874,"cep":875,"ability":876,"Ġshould":877,"Ġacid":878,"ected":879,"Ġusing":880,"Ġorg":881,"Ġsever":882,"ìĿ´":883,"ìĿĦ":884,"Ġplan":885,"Ġstudi":886,"Ġsignal":887,"Ġanalys":888,"Ġtransport":889,"Ġmethod":890,"Ġcoll":891,"Ġoptim":892,"Ġmany":893,"Ġguidelines":894,"Ġmaterial":895,"Ġmobile":896,"Ġsuggest":897,"Ġconsider":898,"bin":899,"fer":900,"gen":901,"lin":902,"lic":903,"ns":904,"ore":905,"pd":906,"sity":907,"work":908,"ê²":909,"ìĦ":910,"Ġz":911,"Ġsel":912,"Ġcor":913,"Ġcross":914,"isang":915,"ates":916,"Ġmas":917,"Ġmul":918,"Ġmet":919,"Ġmain":920,"ree":921,"rel":922,"Ġfo":923,"Ġwill":924,"Ġbased":925,"eliti":926,"Ġeval":927,"Ġlim":928,"Ġna":929,"osed":930,"Ġreg":931,"Ġprop":932,"Ġprovid":933,"own":934,"Ġone":935,"Ġuniver":936,"ocardi":937,"ogr":938,"angan":939,"Ġcompar":940,"Ġstand":941,"Ġaddition":942,"Ġdiff":943,"Ġconstr":944,"Ġneed":945,"ìĿĺ":946,"Ġabout":947,"Ġappro":948,"engan":949,"Ġmodels":950,"Ġinvol":951,"Ġobtain":952,"Ġrespon":953,"Ġpatients":954,"Ġmyocardi":955,"ause":956,"Ġincluding":957,"hanced":958,"Ġsuch":959,"Ġsaham":960,"Ġpaper":961,"Ġorgan":962,"Ġevalu":963,"Ġmyocardial":964,"av":965,"ber":966,"ban":967,"ct":968,"cur":969,"du":970,"ep":971,"gy":972,"hib":973,"ias":974,"ienc":975,"ked":976,"lor":977,"low":978,"ric":979,"ses":980,"uan":981,"vis":982,"wo":983,"µ¬":984,"¶Ħ":985,"ë°":986,"Ġí":987,"Ġent":988,"Ġum":989,"ĭ¤":990,"Ġtem":991,"Ġaff":992,"erent":993,"Ġthan":994,"Ġset":995,"Ġsup":996,"Ġsch":997,"Ġpot":998,"Ġdel":999,"Ġdil":1000,"Ġtheir":1001,"ature":1002,"Ġmut":1003,"orter":1004,"ases":1005,"astr":1006,"Ġfil":1007,"Ġwor":1008,"ente":1009,"econd":1010,"Ġligh":1011,"ulation":1012,"Ġhom":1013,"Ġnet":1014,"ack":1015,"Ġgpd":1016,"Ġdep":1017,"urp":1018,"Ġprof":1019,"ade":1020,"sib":1021,"Ġexpression":1022,"agn":1023,"Ġonly":1024,"iron":1025,"Ġunit":1026,"sions":1027,"Ġener":1028,"Ġadv":1029,"ortant":1030,"Ġë¶Ħ":1031,"Ġpreval":1032,"Ġgene":1033,"Ġgenes":1034,"Ġeffect":1035,"Ġlevel":1036,"duction":1037,"Ġê¸°":1038,"Ġshown":1039,"Ġfold":1040,"earch":1041,"ype":1042,"Ġpuiss":1043,"Ġpeneliti":1044,"Ġhealth":1045,"Ġelectron":1046,"Ġassoci":1047,"Ġdna":1048,"Ġlaser":1049,"ìķ¼":1050,"ìłģ":1051,"Ġstandard":1052,"Ġnetwork":1053,"Ġpuissance":1054,"Ġpenelitian":1055,"aw":1056,"air":1057,"cer":1058,"cop":1059,"ders":1060,"equ":1061,"ft":1062,"hy":1063,"ie":1064,"ied":1065,"ld":1066,"oh":1067,"ox":1068,"over":1069,"pung":1070,"rent":1071,"uk":1072,"uter":1073,"vo":1074,"ìĪ":1075,"ìľ":1076,"ĮĢ":1077,"ong":1078,"ties":1079,"titu":1080,"Ġsans":1081,"Ġpisang":1082,"Ġpurp":1083,"Ġdari":1084,"Ġobj":1085,"ism":1086,"isis":1087,"isten":1088,"ating":1089,"atur":1090,"arge":1091,"rough":1092,"Ġfact":1093,"Ġbi":1094,"eld":1095,"elastic":1096,"ecti":1097,"Ġline":1098,"ula":1099,"Ġharg":1100,"Ġnon":1101,"Ġnorm":1102,"Ġnull":1103,"unt":1104,"Ġge":1105,"Ġdeter":1106,"urther":1107,"ustr":1108,"Ġcontras":1109,"Ġproj":1110,"Ġprogr":1111,"sia":1112,"Ġexpl":1113,"tud":1114,"ode":1115,"ages":1116,"Ġresearch":1117,"Ġìŀ":1118,"Ġyear":1119,"Ġalan":1120,"Ġkn":1121,"Ġkull":1122,"Ġkadar":1123,"Ġcompos":1124,"Ġcharacter":1125,"Ġwhere":1126,"Ġsequ":1127,"Ġsystems":1128,"itis":1129,"ities":1130,"Ġreli":1131,"Ġrelated":1132,"ength":1133,"Ġimportant":1134,"ology":1135,"íķľ":1136,"Ġprinc":1137,"tures":1138,"Ġmore":1139,"Ġtepung":1140,"mission":1141,"Ġclin":1142,"Ġfollow":1143,"Ġproced":1144,"Ġprocess":1145,"Ġmai":1146,"Ġhyperelastic":1147,"Ġincre":1148,"Ġspecies":1149,"Ġboth":1150,"Ġfield":1151,"Ġradi":1152,"Ġtransportation":1153,"Ġoptimization":1154,"Ġlimit":1155,"Ġproposed":1156,"Ġobtained":1157,"ìĪł":1158,"Ġharga":1159,"Ġkullan":1160,"Ġprincip":1161,"affic":1162,"br":1163,"ded":1164,"ever":1165,"fy":1166,"fic":1167,"face":1168,"ition":1169,"ke":1170,"land":1171,"nal":1172,"nic":1173,"sc":1174,"sl":1175,"ser":1176,"sor":1177,"ty":1178,"tro":1179,"wh":1180,"¡°":1181,"¼ë":1182,"ëĲ":1183,"ìļ":1184,"Ġid":1185,"Ġur":1186,"ĬĶ":1187,"ĺģ":1188,"Ġtech":1189,"Ġtwo":1190,"Ġau":1191,"Ġaut":1192,"ins":1193,"ination":1194,"inif":1195,"ering":1196,"erob":1197,"Ġther":1198,"Ġthose":1199,"estig":1200,"Ġsen":1201,"Ġsing":1202,"Ġpow":1203,"Ġcir":1204,"Ġdos":1205,"Ġdown":1206,"Ġdengan":1207,"Ġox":1208,"ality":1209,"alah":1210,"ater":1211,"Ġmem":1212,"Ġmeng":1213,"Ġmade":1214,"Ġinto":1215,"arly":1216,"asil":1217,"Ġfail":1218,"Ġbel":1219,"els":1220,"Ġlit":1221,"Ġlos":1222,"Ġhand":1223,"Ġhct":1224,"Ġnar":1225,"Ġrat":1226,"osis":1227,"Ġcondi":1228,"ameter":1229,"vement":1230,"Ġrem":1231,"Ġrequ":1232,"Ġprote":1233,"Ġproble":1234,"ada":1235,"ados":1236,"ute":1237,"Ġexamp":1238,"tuk":1239,"ape":1240,"Ġì°":1241,"ĠìĤ":1242,"ĠìĿ":1243,"irst":1244,"Ġyang":1245,"Ġuntuk":1246,"Ġareas":1247,"etary":1248,"ocus":1249,"ange":1250,"akt":1251,"atis":1252,"Ġdist":1253,"ible":1254,"vely":1255,"Ġeng":1256,"Ġstate":1257,"Ġdiagn":1258,"Ġquanti":1259,"Ġabl":1260,"Ġartig":1261,"Ġstrain":1262,"Ġstress":1263,"tenhanced":1264,"ĠâĢĵ":1265,"iksi":1266,"íķĺ":1267,"mistir":1268,"Ġshowed":1269,"Ġinvestig":1270,"Ġpub":1271,"Ġelectrical":1272,"Ġpresented":1273,"Ġparticip":1274,"Ġvariab":1275,"Ġfunction":1276,"Ġestab":1277,"Ġcells":1278,"Ġpoint":1279,"Ġmachines":1280,"Ġstudies":1281,"ê²½":1282,"Ġcrosslin":1283,"Ġmulti":1284,"Ġcompared":1285,"Ġdifferent":1286,"Ġapproach":1287,"hibit":1288,"Ġdilated":1289,"Ġlighting":1290,"Ġenergy":1291,"Ġë¶Ħìķ¼":1292,"Ġprevalence":1293,"istenc":1294,"Ġnormal":1295,"ĠìŀĪ":1296,"¡°ê²½":1297,"Ġtechn":1298,"Ġsingle":1299,"Ġconditions":1300,"Ġexample":1301,"Ġartigos":1302,"az":1303,"atic":1304,"aitu":1305,"bs":1306,"fl":1307,"for":1308,"ful":1309,"ix":1310,"ian":1311,"iqu":1312,"ived":1313,"ler":1314,"lak":1315,"lish":1316,"mun":1317,"more":1318,"ood":1319,"po":1320,"por":1321,"rat":1322,"uy":1323,"utions":1324,"ukan":1325,"ving":1326,"yz":1327,"§Ģ":1328,"©°":1329,"´ë":1330,"íĺģ":1331,"Ġts":1332,"Ġage":1333,"onal":1334,"eration":1335,"ene":1336,"Ġthrough":1337,"Ġsa":1338,"Ġsl":1339,"Ġsoc":1340,"Ġsinif":1341,"Ġpat":1342,"Ġpde":1343,"Ġcy":1344,"Ġdr":1345,"Ġdur":1346,"Ġdech":1347,"Ġol":1348,"Ġtheory":1349,"istic":1350,"ision":1351,"isting":1352,"ately":1353,"Ġmg":1354,"Ġmap":1355,"Ġmill":1356,"Ġmech":1357,"Ġmedi":1358,"ream":1359,"Ġinde":1360,"arm":1361,"rop":1362,"Ġfirst":1363,"Ġfocus":1364,"Ġwell":1365,"ital":1366,"Ġbw":1367,"Ġbuc":1368,"Ġbone":1369,"Ġback":1370,"ice":1371,"ently":1372,"Ġet":1373,"Ġevid":1374,"ults":1375,"acts":1376,"Ġray":1377,"ilar":1378,"usion":1379,"Ġproper":1380,"Ġprodu":1381,"Ġbeam":1382,"uted":1383,"uting":1384,"Ġext":1385,"Ġexam":1386,"tum":1387,"Ġwithin":1388,"ody":1389,"Ġcombin":1390,"Ġresistenc":1391,"owever":1392,"ument":1393,"Ġì¡°ê²½":1394,"anding":1395,"angg":1396,"ake":1397,"Ġke":1398,"ches":1399,"Ġcomport":1400,"Ġacross":1401,"Ġactiv":1402,"Ġtraffic":1403,"Ġwhen":1404,"Ġpart":1405,"Ġparameter":1406,"Ġsubj":1407,"Ġcour":1408,"Ġcould":1409,"Ġprevi":1410,"Ġapplic":1411,"ouse":1412,"Ġimpacts":1413,"Ġmatri":1414,"Ġperform":1415,"Ġambon":1416,"Ġcoli":1417,"tural":1418,"ÂłÂł":1419,"Ġteach":1420,"ences":1421,"struc":1422,"stream":1423,"Ġexperiments":1424,"mined":1425,"ê³ł":1426,"Ġii":1427,"atterns":1428,"Ġfrag":1429,"Ġacces":1430,"ney":1431,"Ġfinding":1432,"Ġfunctions":1433,"expression":1434,"Ġstructures":1435,"avelength":1436,"Ġmalay":1437,"Ġindicate":1438,"Ġseveral":1439,"Ġanalysis":1440,"Ġfound":1441,"Ġuniversity":1442,"Ġconstrain":1443,"Ġuma":1444,"Ġsetting":1445,"Ġschem":1446,"Ġpotential":1447,"Ġworld":1448,"Ġdepend":1449,"sibility":1450,"Ġê¸°ìĪł":1451,"Ġassociated":1452,"ìľ¼ë":1453,"ectively":1454,"Ġcontrastenhanced":1455,"Ġprogram":1456,"Ġreliability":1457,"Ġclinical":1458,"Ġradiation":1459,"Ġurban":1460,"Ġì°¨":1461,"Ġdiagnosis":1462,"Ġdechlor":1463,"Ġmechan":1464,"Ġmatrix":1465,"ai":1466,"ao":1467,"based":1468,"cm":1469,"cent":1470,"cle":1471,"dl":1472,"fter":1473,"ha":1474,"however":1475,"jor":1476,"los":1477,"mer":1478,"medi":1479,"masi":1480,"off":1481,"other":1482,"ough":1483,"pr":1484,"pare":1485,"ry":1486,"ron":1487,"rip":1488,"tp":1489,"tal":1490,"uj":1491,"xim":1492,"¡ľ":1493,"ªħ":1494,"°ìĹ":1495,"Ã¡":1496,"êµ¬":1497,"ëł":1498,"ëĭ¤":1499,"ëªħ":1500,"íĻ":1501,"Ġx":1502,"Ġil":1503,"Ġill":1504,"Ġiron":1505,"Ħë":1506,"ħíĺģ":1507,"Ġtb":1508,"Ġtest":1509,"Ġtype":1510,"ino":1511,"inin":1512,"erical":1513,"erles":1514,"Ġthesis":1515,"Ġsm":1516,"Ġsed":1517,"Ġsis":1518,"Ġsle":1519,"Ġsyn":1520,"Ġsitu":1521,"Ġpc":1522,"Ġpul":1523,"Ġpem":1524,"Ġpers":1525,"Ġpanc":1526,"Ġcd":1527,"Ġcap":1528,"Ġcase":1529,"Ġcause":1530,"Ġdam":1531,"Ġdue":1532,"Ġoc":1533,"Ġosl":1534,"Ġthem":1535,"istr":1536,"isecond":1537,"atal":1538,"atory":1539,"Ġmd":1540,"Ġms":1541,"Ġmen":1542,"Ġmid":1543,"Ġmost":1544,"Ġmorter":1545,"reg":1546,"Ġinf":1547,"Ġintr":1548,"Ġindi":1549,"Ġinhibit":1550,"Ġany":1551,"Ġfour":1552,"Ġwater":1553,"Ġwavelength":1554,"itr":1555,"Ġever":1556,"ecause":1557,"ult":1558,"Ġha":1559,"Ġhan":1560,"Ġhid":1561,"Ġhad":1562,"thog":1563,"there":1564,"Ġnitr":1565,"une":1566,"unak":1567,"action":1568,"Ġrati":1569,"Ġrate":1570,"Ġrural":1571,"osph":1572,"Ġgi":1573,"Ġgam":1574,"Ġdet":1575,"Ġdemission":1576,"ido":1577,"imen":1578,"Ġconf":1579,"Ġconduc":1580,"Ġcontrib":1581,"amente":1582,"veal":1583,"Ġrecon":1584,"Ġrevis":1585,"Ġreveal":1586,"Ġproduction":1587,"sive":1588,"ucle":1589,"tica":1590,"Ġexp":1591,"âĢĲ":1592,"âĢĵ":1593,"oph":1594,"Ġcomo":1595,"ysical":1596,"Ġyaitu":1597,"Ġyerles":1598,"Ġalter":1599,"perature":1600,"anges":1601,"aining":1602,"aktu":1603,"Ġdisper":1604,"Ġcomputing":1605,"ineering":1606,"Ġtravel":1607,"Ġorthog":1608,"Ġadalah":1609,"Ġchem":1610,"Ġsub":1611,"Ġë³":1612,"ĠëĮĢ":1613,"Ġartic":1614,"Ġcoup":1615,"Ġprec":1616,"Ġdescr":1617,"clusion":1618,"Ġele":1619,"Ġeffective":1620,"Ġgrow":1621,"Ġlead":1622,"Ġanalisis":1623,"Ġanalyz":1624,"íķĻ":1625,"roscop":1626,"vidu":1627,"Ġphen":1628,"Ġphosph":1629,"Ġdesigns":1630,"Ġamino":1631,"Ġestud":1632,"Ġroom":1633,"Ġroles":1634,"raul":1635,"phic":1636,"Ġcalcul":1637,"Ġsimulation":1638,"Ġsimilar":1639,"Ġexperiment":1640,"Ġexperimental":1641,"Ġrecent":1642,"Ġdistribution":1643,"Ġdistributions":1644,"Ġparticular":1645,"Ġhypertro":1646,"Ġscatter":1647,"Ġsoil":1648,"Ġflu":1649,"Ġvarious":1650,"Ġutil":1651,"Ġsurface":1652,"Ġpeels":1653,"plicit":1654,"Ġterms":1655,"Ġmars":1656,"Ġlower":1657,"Ġplantain":1658,"Ġprediksi":1659,"Ġglob":1660,"ception":1661,"Ġmaterials":1662,"Ġcorrel":1663,"Ġprovide":1664,"ogrul":1665,"ograp":1666,"Ġevaluation":1667,"Ġtemperature":1668,"Ġmutant":1669,"Ġhomogen":1670,"Ġprofes":1671,"Ġunits":1672,"oxy":1673,"Ġobjective":1674,"Ġdetermined":1675,"Ġprojects":1676,"Ġyears":1677,"Ġcharacteristic":1678,"Ġsequence":1679,"Ġkullanim":1680,"Ġprincipal":1681,"ëĲĺ":1682,"ìļ©":1683,"Ġfailure":1684,"Ġhandoff":1685,"Ġrats":1686,"Ġremn":1687,"Ġrequir":1688,"ĠìĤ°ìĹ":1689,"Ġparticipants":1690,"Ġvariables":1691,"Ġestablish":1692,"Ġcrosslinks":1693,"Ġmultip":1694,"Ġë¶Ħìķ¼ìĹĲ":1695,"azi":1696,"Ġpatches":1697,"Ġduring":1698,"Ġmillisecond":1699,"Ġbucks":1700,"Ġevidence":1701,"Ġrayon":1702,"Ġì¡°ê²½íķĻ":1703,"anggangan":1704,"Ġcomportam":1705,"Ġcourse":1706,"Ġprevious":1707,"Ġteaching":1708,"Ġfragment":1709,"Ġfindings":1710,"Ġscheme":1711,"Ġdechlorination":1712,"pareil":1713,"ripe":1714,"ħíĺģëªħ":1715,"Ġsistem":1716,"Ġindividu":1717,"Ġevery":1718,"unakan":1719,"Ġratio":1720,"Ġconducted":1721,"ĠrevisÃ£o":1722,"Ġorthogonal":1723,"Ġhypertrophic":1724,"Ġcharacteristics":1725,"ĠìĤ°ìĹħíĺģëªħ":1726,"Ġmilliseconds":1727,"au":1728,"ais":1729,"bu":1730,"bers":1731,"cd":1732,"com":1733,"col":1734,"cence":1735,"da":1736,"dro":1737,"fi":1738,"fica":1739,"further":1740,"gn":1741,"gin":1742,"ges":1743,"gative":1744,"hasil":1745,"iod":1746,"ka":1747,"kg":1748,"kadar":1749,"line":1750,"lers":1751,"man":1752,"mely":1753,"ness":1754,"nise":1755,"national":1756,"ok":1757,"ply":1758,"pair":1759,"pital":1760,"rit":1761,"rad":1762,"rys":1763,"stitu":1764,"ton":1765,"tard":1766,"ui":1767,"vol":1768,"vated":1769,"vist":1770,"viron":1771,"wave":1772,"ym":1773,"yra":1774,"yme":1775,"zin":1776,"µes":1777,"Ãµes":1778,"ÄĽ":1779,"Î¼":1780,"ê°":1781,"ëĬĶ":1782,"Ġer":1783,"ĠÂłÂł":1784,"ĭľë":1785,"Ķêµ¬":1786,"Ġtiss":1787,"Ġav":1788,"Ġair":1789,"inant":1790,"ont":1791,"erin":1792,"tis":1793,"tific":1794,"enal":1795,"enis":1796,"endi":1797,"Ġthere":1798,"Ġthree":1799,"ester":1800,"Ġsom":1801,"Ġsam":1802,"Ġsob":1803,"Ġpan":1804,"Ġpine":1805,"Ġpage":1806,"Ġpath":1807,"Ġpatterns":1808,"Ġpyra":1809,"Ġcer":1810,"Ġcat":1811,"Ġcre":1812,"Ġcle":1813,"Ġcop":1814,"Ġdoc":1815,"Ġdyn":1816,"Ġdune":1817,"Ġdogrul":1818,"Ġour":1819,"Ġthey":1820,"isk":1821,"ised":1822,"atan":1823,"Ġmis":1824,"Ġmac":1825,"Ġmol":1826,"rec":1827,"remely":1828,"Ġind":1829,"Ġinj":1830,"Ġiniti":1831,"Ġinten":1832,"ord":1833,"ass":1834,"ascul":1835,"Ġfer":1836,"Ġfib":1837,"Ġflex":1838,"Ġfurther":1839,"Ġfarm":1840,"Ġwould":1841,"Ġwaktu":1842,"Ġbed":1843,"Ġbio":1844,"Ġbecause":1845,"ico":1846,"icag":1847,"ecular":1848,"Ġles":1849,"Ġlang":1850,"Ġliver":1851,"Ġlarg":1852,"Ġlarge":1853,"ulated":1854,"ultural":1855,"Ġhel":1856,"Ġhum":1857,"Ġnor":1858,"Ġnative":1859,"Ġnucle":1860,"unun":1861,"active":1862,"acao":1863,"Ġring":1864,"Ġrap":1865,"Ġrtp":1866,"Ġrisk":1867,"ospital":1868,"Ġgra":1869,"Ġgood":1870,"ominant":1871,"Ġdemon":1872,"idas":1873,"idad":1874,"idney":1875,"ury":1876,"ures":1877,"uratan":1878,"olic":1879,"olom":1880,"ust":1881,"Ġcondition":1882,"Ġconcer":1883,"ama":1884,"amic":1885,"amide":1886,"Ġreception":1887,"Ġretard":1888,"Ġrevist":1889,"Ġprob":1890,"siological":1891,"sible":1892,"Ġbeha":1893,"Ġextr":1894,"Ġexisting":1895,"Ġwithout":1896,"odies":1897,"agne":1898,"Ġresour":1899,"apes":1900,"Ġvi":1901,"Ġvascul":1902,"Ġì§Ģ":1903,"Ġìĭľë":1904,"Ġuna":1905,"Ġunders":1906,"Ġunripe":1907,"Ġarea":1908,"andom":1909,"akes":1910,"aking":1911,"akukan":1912,"akuratan":1913,"Ġkidney":1914,"sional":1915,"izing":1916,"Ġdisc":1917,"Ġcomplex":1918,"Ġtraining":1919,"ector":1920,"Ġenviron":1921,"Ġstatis":1922,"Ġadmin":1923,"Ġdietary":1924,"Ġchicag":1925,"Ġconsist":1926,"Ġconsequ":1927,"Ġwhile":1928,"Ġpara":1929,"Ġparall":1930,"Ġnegative":1931,"itive":1932,"Ġsuper":1933,"Ġëĵ":1934,"Ġabr":1935,"Ġstrate":1936,"Ġstrong":1937,"Ġcovid":1938,"Ġrelations":1939,"Ġprepar":1940,"Ġpregn":1941,"Ġgeneral":1942,"Ġresulted":1943,"Ġplay":1944,"Ġinterval":1945,"Ġcarbon":1946,"Ġcontex":1947,"ially":1948,"ureum":1949,"Ġleast":1950,"rosis":1951,"Ġtransit":1952,"Ġphase":1953,"Ġperiod":1954,"Ġjcm":1955,"Ġjenis":1956,"derived":1957,"Ġpresence":1958,"Ġê²":1959,"Ġêµ¬":1960,"alled":1961,"Ġhigher":1962,"Ġpositive":1963,"Ġformation":1964,"Ġformula":1965,"ghg":1966,"Ġago":1967,"Ġobser":1968,"Ġdeveloped":1969,"prop":1970,"vior":1971,"ypes":1972,"Ġpennise":1973,"Ġalgorith":1974,"yla":1975,"ampung":1976,"Ġrespectively":1977,"Ġuseful":1978,"ê³¼":1979,"Ġequality":1980,"Ġporos":1981,"iento":1982,"Ġvalor":1983,"Ġvalue":1984,"Ġvalues":1985,"Ġìłķ":1986,"Ġvery":1987,"Ġcurrent":1988,"Ġoverexpression":1989,"Ġminim":1990,"Ġmicroscop":1991,"Ġstructure":1992,"Ġplantation":1993,"Ġimprove":1994,"Ġimproved":1995,"lamm":1996,"Ġsolution":1997,"Ġpoly":1998,"Ġdecision":1999,"Ġmale":2000,"Ġbright":2001,"Ġlandsc":2002,"Ġnumber":2003,"Ġnumerical":2004,"Ġstudied":2005,"Ġmethods":2006,"Ġconsidered":2007,"ference":2008,"genic":2009,"Ġze":2010,"Ġself":2011,"Ġmass":2012,"Ġmetal":2013,"Ġmetab":2014,"Ġfoi":2015,"Ġconstruc":2016,"Ġneeded":2017,"Ġinvolved":2018,"Ġinvolving":2019,"Ġresponses":2020,"avans":2021,"iency":2022,"Ġaffect":2023,"Ġsupport":2024,"Ġdeliver":2025,"astral":2026,"Ġlevels":2027,"Ġpurpureum":2028,"Ġfactor":2029,"Ġcomposition":2030,"Ġprocedure":2031,"Ġlimitations":2032,"sorb":2033,"Ġidenti":2034,"Ġauth":2035,"Ġauto":2036,"erobic":2037,"Ġsensi":2038,"Ġpower":2039,"Ġcircle":2040,"Ġbelie":2041,"Ġliter":2042,"Ġproblem":2043,"Ġengineering":2044,"Ġquantify":2045,"Ġablation":2046,"Ġinvestigate":2047,"Ġpublic":2048,"Ġtechnology":2049,"lakuan":2050,"Ġsiniflam":2051,"Ġindex":2052,"Ġproperties":2053,"ĠproduÃ§Ã£o":2054,"Ġextremely":2055,"Ġresistencias":2056,"Ġkeakuratan":2057,"Ġparameters":2058,"Ġaccessibility":2059,"Ġmalaysia":2060,"Ġsettings":2061,"Ġprograms":2062,"íĻĶ":2063,"Ġsmall":2064,"Ġsedim":2065,"Ġpemanggangan":2066,"Ġpancre":2067,"Ġcdcd":2068,"Ġmorteros":2069,"Ġgiven":2070,"Ġgamm":2071,"Ġrevealed":2072,"Ġdispersion":2073,"Ġarticle":2074,"Ġdescrib":2075,"Ġelevated":2076,"Ġgrowth":2077,"raulic":2078,"Ġscattering":2079,"Ġglobal":2080,"Ġë¶Ħìķ¼ìĹĲìĦ":2081,"Ġpreviously":2082,"furthermore":2083,"Ġtissues":2084,"Ġsobre":2085,"Ġpyrazin":2086,"Ġcatastral":2087,"Ġdynamic":2088,"Ġinitial":2089,"Ġfibrosis":2090,"Ġfarmland":2091,"Ġrapid":2092,"Ġrtpcr":2093,"Ġdemonstr":2094,"Ġretardation":2095,"Ġrevistas":2096,"Ġbehavior":2097,"Ġvasculitis":2098,"Ġunderst":2099,"Ġenvironment":2100,"Ġchicago":2101,"Ġparallel":2102,"Ġpregnanc":2103,"Ġcontext":2104,"Ġpennisetum":2105,"aan":2106,"aff":2107,"auter":2108,"be":2109,"bi":2110,"bo":2111,"by":2112,"co":2113,"ces":2114,"can":2115,"cal":2116,"cts":2117,"cess":2118,"cular":2119,"day":2120,"dogen":2121,"draulic":2122,"eel":2123,"eth":2124,"etiv":2125,"fort":2126,"fact":2127,"gi":2128,"gle":2129,"guy":2130,"hd":2131,"hic":2132,"hol":2133,"hip":2134,"hghg":2135,"iy":2136,"ire":2137,"iyla":2138,"ji":2139,"jac":2140,"ken":2141,"kem":2142,"la":2143,"len":2144,"lica":2145,"mine":2146,"not":2147,"nov":2148,"of":2149,"ouc":2150,"ount":2151,"pa":2152,"pg":2153,"ps":2154,"pen":2155,"pec":2156,"put":2157,"rus":2158,"rage":2159,"rastr":2160,"sw":2161,"sed":2162,"ta":2163,"tan":2164,"tus":2165,"tle":2166,"tase":2167,"tors":2168,"take":2169,"ua":2170,"ud":2171,"ug":2172,"utic":2173,"uage":2174,"va":2175,"vice":2176,"vhd":2177,"wn":2178,"ware":2179,"xt":2180,"xes":2181,"zyme":2182,"¥¼":2183,"§¸":2184,"©ìķ":2185,"±ìĿ´":2186,"´ê":2187,"´ìĹĲ":2188,"¸ëł":2189,"Ãº":2190,"Ã½":2191,"Å¯":2192,"ë©°":2193,"ì¶":2194,"ìĨ":2195,"ìĸ":2196,"ì§¸":2197,"ĠÃ":2198,"Ġul":2199,"Ġeduc":2200,"ĢíĻĶ":2201,"ģìļ©":2202,"ļĶêµ¬":2203,"Ġta":2204,"Ġtec":2205,"Ġtun":2206,"Ġafter":2207,"Ġaerobic":2208,"Ġaxes":2209,"ink":2210,"inv":2211,"ining":2212,"onen":2213,"eras":2214,"erated":2215,"tib":2216,"tik":2217,"ena":2218,"enz":2219,"Ġthen":2220,"estions":2221,"Ġson":2222,"Ġsus":2223,"Ġsay":2224,"Ġsour":2225,"Ġsection":2226,"Ġpg":2227,"Ġpel":2228,"Ġpop":2229,"Ġpeng":2230,"Ġpair":2231,"ana":2232,"anation":2233,"Ġci":2234,"Ġcs":2235,"Ġcent":2236,"Ġcaus":2237,"Ġcient":2238,"Ġcement":2239,"Ġcrat":2240,"Ġcultural":2241,"Ġdu":2242,"Ġdas":2243,"Ġdig":2244,"Ġdup":2245,"Ġdens":2246,"Ġdolom":2247,"Ġou":2248,"Ġoper":2249,"Ġother":2250,"eded":2251,"alam":2252,"also":2253,"ising":2254,"ists":2255,"isms":2256,"ator":2257,"Ġmel":2258,"Ġmec":2259,"Ġmig":2260,"Ġmri":2261,"reen":2262,"read":2263,"Ġinh":2264,"Ġini":2265,"Ġint":2266,"Ġinstr":2267,"Ġinform":2268,"Ġinclusion":2269,"Ġinstitu":2270,"oring":2271,"art":2272,"arles":2273,"arning":2274,"arazi":2275,"Ġanother":2276,"Ġansw":2277,"aster":2278,"row":2279,"round":2280,"Ġfa":2281,"Ġfed":2282,"Ġfis":2283,"Ġfim":2284,"Ġfem":2285,"Ġfab":2286,"Ġfung":2287,"Ġfew":2288,"Ġfakt":2289,"Ġwad":2290,"Ġwave":2291,"Ġwide":2292,"Ġwrit":2293,"tional":2294,"itable":2295,"Ġbody":2296,"icos":2297,"icont":2298,"ele":2299,"eloc":2300,"elerin":2301,"ento":2302,"entric":2303,"Ġep":2304,"Ġeach":2305,"Ġeven":2306,"Ġevol":2307,"Ġehghg":2308,"ections":2309,"Ġlo":2310,"Ġlu":2311,"Ġlap":2312,"Ġlum":2313,"Ġlif":2314,"Ġlik":2315,"Ġlamp":2316,"Ġloci":2317,"Ġliqu":2318,"ulations":2319,"ulose":2320,"Ġhl":2321,"Ġhu":2322,"Ġher":2323,"Ġhol":2324,"Ġhow":2325,"Ġhost":2326,"Ġhospital":2327,"throp":2328,"Ġnod":2329,"Ġnacion":2330,"uns":2331,"Ġtom":2332,"actions":2333,"acyl":2334,"Ġrd":2335,"Ġrates":2336,"Ġrange":2337,"Ġrenal":2338,"Ġrandom":2339,"osine":2340,"Ġgor":2341,"Ġgreat":2342,"Ġgula":2343,"Ġgrad":2344,"ily":2345,"ilib":2346,"trast":2347,"Ġdeuter":2348,"idos":2349,"idity":2350,"idence":2351,"ime":2352,"imeras":2353,"olam":2354,"olism":2355,"terity":2356,"Ġconn":2357,"Ġconver":2358,"Ġconcep":2359,"Ġconcent":2360,"Ġconges":2361,"amew":2362,"lete":2363,"Ġreport":2364,"Ġrepro":2365,"Ġrefl":2366,"ements":2367,"Ġproduc":2368,"adas":2369,"adation":2370,"verage":2371,"que":2372,"ucture":2373,"Ġbeing":2374,"ither":2375,"tically":2376,"Ġexten":2377,"tual":2378,"tudi":2379,"Ġiss":2380,"optical":2381,"ophy":2382,"agen":2383,"agation":2384,"Ġcommon":2385,"Ġcommun":2386,"apat":2387,"apil":2388,"Ġveloc":2389,"Ġìľ":2390,"ĠìļĶêµ¬":2391,"irm":2392,"irlen":2393,"Ġyapil":2394,"ante":2395,"etah":2396,"Ġasp":2397,"Ġaspar":2398,"och":2399,"Ġkar":2400,"Ġkoh":2401,"Ġkampung":2402,"results":2403,"iza":2404,"ize":2405,"character":2406,"oton":2407,"oted":2408,"Ġcompre":2409,"Ġcomplete":2410,"Ġshe":2411,"Ġshif":2412,"Ġshort":2413,"Ġshorter":2414,"Ġacute":2415,"ions":2416,"ically":2417,"ectrom":2418,"Ġens":2419,"Ġenhanced":2420,"Ġendogen":2421,"Ġenzyme":2422,"Ġstop":2423,"Ġstaff":2424,"ified":2425,"Ġimag":2426,"Ġimplicit":2427,"esta":2428,"Ġorder":2429,"Ġadsorb":2430,"Ġadjac":2431,"Ġdiet":2432,"Ġdiffic":2433,"Ġqui":2434,"Ġquim":2435,"Ġquestions":2436,"Ġchron":2437,"Ġconst":2438,"Ġconstitu":2439,"iph":2440,"obj":2441,"Ġpartir":2442,"Ġneural":2443,"plo":2444,"ples":2445,"ìĿĢ":2446,"Ġsuas":2447,"Ġsuitable":2448,"Ġë§":2449,"ĠëĶ":2450,"Ġabund":2451,"Ġarg":2452,"Ġarter":2453,"Ġarch":2454,"Ġartific":2455,"Ġrelative":2456,"Ġrelacao":2457,"Ġgender":2458,"Ġgeneration":2459,"Ġresult":2460,"clical":2461,"Ġappl":2462,"Ġappar":2463,"Ġapply":2464,"Ġspac":2465,"Ġspace":2466,"Ġspread":2467,"Ġplans":2468,"ancangan":2469,"Ġinteraction":2470,"Ġinternational":2471,"Ġground":2472,"Ġcaracter":2473,"Ġweight":2474,"Ġcontin":2475,"Ġcontent":2476,"Ġlearning":2477,"inescence":2478,"Ġanaliz":2479,"íķł":2480,"Ġprac":2481,"Ġmatter":2482,"Ġperlakuan":2483,"Ġmeas":2484,"Ġmejor":2485,"Ġdesigning":2486,"Ġamong":2487,"Ġcolle":2488,"iais":2489,"tura":2490,"Ġcanavans":2491,"tegr":2492,"Ġester":2493,"Ġestudi":2494,"Ġpresents":2495,"Ġmovement":2496,"Ġhybr":2497,"Ġhydro":2498,"encia":2499,"Ġexpert":2500,"Ġtiming":2501,"Ġoptical":2502,"Ġhighly":2503,"Ġstudents":2504,"toacyl":2505,"Ġpost":2506,"Ġpossible":2507,"Ġposterity":2508,"Ġfolding":2509,"Ġproces":2510,"Ġages":2511,"Ġagent":2512,"Ġemb":2513,"Ġemplo":2514,"Ġbetter":2515,"vival":2516,"cluded":2517,"Ġcontrols":2518,"Ġcontrollers":2519,"ylas":2520,"Ġmaxim":2521,"Ġreduce":2522,"Ġreductase":2523,"Ġcardiac":2524,"ê³µ":2525,"Ġpatient":2526,"asive":2527,"Ġequal":2528,"Ġequilib":2529,"Ġdistributed":2530,"ÃŃtic":2531,"ÃŃfica":2532,"Ġuptake":2533,"inct":2534,"Ġscan":2535,"Ġsou":2536,"Ġframew":2537,"icao":2538,"Ġguideline":2539,"Ġmaternal":2540,"Ġuz":2541,"Ġuji":2542,"Ġsurvival":2543,"Ġpeguy":2544,"Ġdays":2545,"Ġincidence":2546,"Ġfind":2547,"ĠìłĦë":2548,"Ġìłģìļ©":2549,"Ġalloptical":2550,"Ġspecific":2551,"ailable":2552,"Ġestes":2553,"Ġserum":2554,"antib":2555,"Ġcura":2556,"Ġcurado":2557,"Ġcellulose":2558,"although":2559,"ishing":2560,"Ġmineral":2561,"Ġmarrow":2562,"Ġmicro":2563,"Ġbook":2564,"Ġimprovement":2565,"Ġpredic":2566,"Ġpredominant":2567,"monary":2568,"Ġdecid":2569,"Ġfive":2570,"Ġbrasil":2571,"Ġglouc":2572,"Ġseverity":2573,"Ġplane":2574,"Ġsignalized":2575,"Ġanalyses":2576,"Ġsuggested":2577,"Ġselection":2578,"Ġmasa":2579,"Ġregion":2580,"Ġprovided":2581,"Ġresponse":2582,"Ġorganization":2583,"Ġorganizing":2584,"Ġevaluate":2585,"current":2586,"ë°Ģ":2587,"ë°ĺ":2588,"ë°©ìķ":2589,"ĠíĶ":2590,"Ġentre":2591,"Ġenterob":2592,"Ġaffected":2593,"Ġhomens":2594,"Ġadvant":2595,"Ġadvice":2596,"Ġfoldpair":2597,"Ġstandards":2598,"Ġpurpose":2599,"Ġfactors":2600,"Ġgeoph":2601,"Ġgeograp":2602,"ustry":2603,"Ġproject":2604,"Ġexplor":2605,"Ġexplanation":2606,"Ġknow":2607,"Ġknown":2608,"Ġcomposite":2609,"Ġfollowing":2610,"Ġincreased":2611,"Ġlimited":2612,"nicos":2613,"Ġtherape":2614,"Ġdownstream":2615,"Ġmengetah":2616,"Ġbelirlen":2617,"Ġlittle":2618,"Ġprotein":2619,"Ġproteins":2620,"ĠìĿ´ìĹĲ":2621,"Ġdistinct":2622,"Ġquantit":2623,"Ġablated":2624,"Ġstrains":2625,"íķĺê³ł":2626,"Ġpublica":2627,"ĠìŀĪìľ¼ë":2628,"Ġtechniqu":2629,"Ġsocial":2630,"Ġsociais":2631,"Ġdrain":2632,"Ġtheoryaw":2633,"Ġmgdl":2634,"Ġmaps":2635,"Ġbackprop":2636,"Ġcombined":2637,"Ġsubject":2638,"Ġapplication":2639,"Ġperformed":2640,"Ġconstraint":2641,"Ġconstraints":2642,"Ġdependent":2643,"ìľ¼ë¡ľ":2644,"merc":2645,"Ġillustr":2646,"Ġtbk":2647,"Ġpcbs":2648,"Ġpulmonary":2649,"Ġoccur":2650,"Ġmss":2651,"Ġmidage":2652,"Ġinfrastr":2653,"Ġintrauter":2654,"Ġnitrate":2655,"imensions":2656,"Ġconfirm":2657,"Ġreconstruc":2658,"Ġaltern":2659,"Ġchemical":2660,"Ġcoupled":2661,"Ġleads":2662,"Ġanalyzed":2663,"Ġphenot":2664,"Ġphosphate":2665,"Ġestudo":2666,"Ġprofessions":2667,"Ġremnants":2668,"Ġmultiple":2669,"Ġcomportamiento":2670,"Ġfragmentation":2671,"Ġindividual":2672,"Ġavailable":2673,"Ġcertain":2674,"Ġcreated":2675,"Ġclearly":2676,"Ġmolecular":2677,"Ġindustry":2678,"Ġinjury":2679,"Ġintensity":2680,"Ġlanguage":2681,"Ġhelp":2682,"agnetic":2683,"Ġresources":2684,"Ġview":2685,"ĠìĭľëĮĢ":2686,"Ġstatistical":2687,"Ġadministr":2688,"Ġstrateg":2689,"Ġstrongly":2690,"Ġalgorithms":2691,"Ġìłķë°Ģ":2692,"lammatory":2693,"Ġdelivery":2694,"Ġauthoring":2695,"Ġautoantib":2696,"Ġbelieve":2697,"Ġsediment":2698,"Ġpancreatic":2699,"Ġgammah":2700,"Ġpyrazinamide":2701,"Ġdemonstrated":2702,"iyle":2703,"¸ëł¥":2704,"ìĸ´":2705,"Ġsource":2706,"ĠcientÃŃfica":2707,"Ġcraters":2708,"Ġdigunakan":2709,"Ġdensity":2710,"Ġdolomi":2711,"Ġmecan":2712,"Ġmigr":2713,"Ġinstrument":2714,"Ġinstituicao":2715,"Ġanswer":2716,"Ġfabric":2717,"Ġfaktor":2718,"entricular":2719,"Ġevolution":2720,"Ġlappareil":2721,"Ġluminescence":2722,"Ġlife":2723,"Ġliquidity":2724,"Ġdeuteron":2725,"Ġcongestion":2726,"Ġreproduc":2727,"Ġaspartoacyl":2728,"Ġkohonen":2729,"Ġshift":2730,"Ġendogenous":2731,"Ġadjacent":2732,"Ġchronic":2733,"Ġconstitutive":2734,"Ġabundant":2735,"Ġartificial":2736,"Ġhybrid":2737,"Ġframework":2738,"Ġìłģìļ©ë°©ìķ":2739,"Ġgloucester":2740,"Ġenterobacter":2741,"Ġgeophysical":2742,"Ġgeography":2743,"Ġtherapeutic":2744,"Ġmengetahui":2745,"ĠìŀĪìľ¼ë©°":2746,"Ġbackpropagation":2747,"Ġinfrastructure":2748,"Ġintrauterine":2749,"Ġaspartoacylase":2750,"Ġìłģìļ©ë°©ìķĪ":2751,"aun":2752,"aut":2753,"ays":2754,"after":2755,"bc":2756,"bre":2757,"bate":2758,"bri":2759,"boh":2760,"ca":2761,"cin":2762,"cel":2763,"cion":2764,"come":2765,"coh":2766,"cwh":2767,"ccan":2768,"dg":2769,"ds":2770,"den":2771,"des":2772,"dis":2773,"das":2774,"dos":2775,"dem":2776,"dqu":2777,"drom":2778,"dengan":2779,"ez":2780,"eti":2781,"eed":2782,"ets":2783,"eous":2784,"eatur":2785,"fin":2786,"fil":2787,"fet":2788,"fik":2789,"func":2790,"fied":2791,"flammatory":2792,"gl":2793,"go":2794,"gil":2795,"get":2796,"guidel":2797,"guan":2798,"greg":2799,"gunakan":2800,"ground":2801,"ho":2802,"har":2803,"ham":2804,"had":2805,"hance":2806,"house":2807,"iff":2808,"ium":2809,"ience":2810,"itical":2811,"iological":2812,"ives":2813,"irel":2814,"iitis":2815,"jar":2816,"jection":2817,"km":2818,"kn":2819,"kat":2820,"kle":2821,"kles":2822,"kens":2823,"kelerin":2824,"lv":2825,"lan":2826,"lar":2827,"ling":2828,"lines":2829,"lamp":2830,"law":2831,"ml":2832,"mp":2833,"mal":2834,"mar":2835,"mic":2836,"mol":2837,"met":2838,"mak":2839,"mend":2840,"makt":2841,"mene":2842,"mophy":2843,"mccan":2844,"na":2845,"net":2846,"nment":2847,"natal":2848,"nÄĽ":2849,"oes":2850,"oid":2851,"oke":2852,"ping":2853,"pity":2854,"pati":2855,"path":2856,"pective":2857,"peter":2858,"pisang":2859,"patterns":2860,"qman":2861,"ral":2862,"rid":2863,"rim":2864,"rated":2865,"rup":2866,"rati":2867,"rence":2868,"rcts":2869,"rising":2870,"sus":2871,"sle":2872,"some":2873,"sely":2874,"syn":2875,"stud":2876,"sections":2877,"tt":2878,"tation":2879,"tos":2880,"top":2881,"tment":2882,"tatis":2883,"uh":2884,"uz":2885,"uÅ":2886,"uit":2887,"ually":2888,"uble":2889,"ww":2890,"way":2891,"xin":2892,"xis":2893,"yr":2894,"yt":2895,"ysiological":2896,"zed":2897,"zar":2898,"zation":2899,"¥¸":2900,"¬¸":2901,"°ë":2902,"°ê³¼":2903,"³´ë":2904,"´í":2905,"¸¡":2906,"¸ī":2907,"¾iti":2908,"Â®":2909,"Ã©":2910,"Ãª":2911,"ÅĻ":2912,"ëŀ":2913,"ì²":2914,"ìħ":2915,"ìĭ":2916,"ìĽ":2917,"ìŀ":2918,"ì§Ģ":2919,"Ġed":2920,"Ġut":2921,"Ġif":2922,"Ġess":2923,"Ġide":2924,"Ġíķĺ":2925,"ĠÎ¼":2926,"Ħíķľ":2927,"ħ¸ëł¥":2928,"Ĩµ":2929,"Īĺ":2930,"İ´ë":2931,"ıĦ":2932,"ĸ¥":2933,"ĸĳ":2934,"ľìĿĦ":2935,"łìĿĦ":2936,"Ġti":2937,"Ġtw":2938,"Ġtes":2939,"Ġtit":2940,"Ġting":2941,"Ġtam":2942,"Ġtum":2943,"Ġtab":2944,"Ġtaking":2945,"Ġtypes":2946,"Ġtele":2947,"Ġaf":2948,"Ġaim":2949,"Ġasi":2950,"Ġaere":2951,"Ġakan":2952,"Ġaustr":2953,"Ġaverage":2954,"inves":2955,"inda":2956,"inderived":2957,"inflammatory":2958,"inham":2959,"oning":2960,"onth":2961,"onom":2962,"ontem":2963,"onents":2964,"onov":2965,"era":2966,"eric":2967,"erce":2968,"tian":2969,"tiap":2970,"tide":2971,"tially":2972,"tiinflammatory":2973,"eni":2974,"enous":2975,"ending":2976,"enyl":2977,"ennal":2978,"Ġthus":2979,"Ġthres":2980,"Ġthough":2981,"Ġthym":2982,"Ġthink":2983,"ests":2984,"esqu":2985,"esalah":2986,"Ġsy":2987,"Ġsap":2988,"Ġsum":2989,"Ġstim":2990,"Ġsoci":2991,"Ġsecond":2992,"Ġsatur":2993,"Ġsfl":2994,"Ġswave":2995,"Ġpp":2996,"Ġpod":2997,"Ġpwave":2998,"Ġpesqu":2999,"ani":3000,"ano":3001,"anish":3002,"anked":3003,"antum":3004,"Ġca":3005,"Ġcam":3006,"Ġcet":3007,"Ġcate":3008,"Ġcanc":3009,"Ġcare":3010,"Ġcases":3011,"Ġcuj":3012,"Ġcrys":3013,"Ġcalled":3014,"Ġcpg":3015,"Ġdf":3016,"Ġder":3017,"Ġdit":3018,"Ġdqu":3019,"Ġdog":3020,"Ġdib":3021,"Ġdans":3022,"Ġdose":3023,"Ġdalam":3024,"Ġdapat":3025,"Ġdimensions":3026,"Ġoe":3027,"Ġoth":3028,"Ġown":3029,"Ġott":3030,"ediksi":3031,"ales":3032,"alia":3033,"alisis":3034,"alities":3035,"isa":3036,"isi":3037,"ison":3038,"isation":3039,"isant":3040,"istik":3041,"ato":3042,"atu":3043,"atacion":3044,"ators":3045,"atural":3046,"Ġmer":3047,"Ġmine":3048,"Ġmight":3049,"Ġmental":3050,"Ġmagn":3051,"Ġmix":3052,"Ġmaking":3053,"Ġmlv":3054,"Ġmonth":3055,"reu":3056,"rece":3057,"rect":3058,"reference":3059,"Ġintras":3060,"Ġinduction":3061,"Ġinequ":3062,"Ġinser":3063,"Ġintro":3064,"Ġinnov":3065,"Ġintegr":3066,"orage":3067,"orpor":3068,"orreu":3069,"arth":3070,"aram":3071,"arding":3072,"aride":3073,"arked":3074,"aruh":3075,"Ġantic":3076,"Ġanten":3077,"Ġangle":3078,"Ġanthrop":3079,"Ġantiinflammatory":3080,"asa":3081,"asis":3082,"asing":3083,"assi":3084,"roid":3085,"role":3086,"roph":3087,"Ġfut":3088,"Ġfase":3089,"Ġfill":3090,"Ġfund":3091,"Ġfree":3092,"Ġfases":3093,"Ġfeatur":3094,"Ġwom":3095,"Ġwet":3096,"Ġwood":3097,"Ġwirel":3098,"itas":3099,"itro":3100,"itec":3101,"itting":3102,"Ġbu":3103,"Ġber":3104,"Ġbre":3105,"Ġbro":3106,"Ġbus":3107,"Ġbond":3108,"Ġbenz":3109,"Ġbsle":3110,"ication":3111,"icable":3112,"icens":3113,"iciency":3114,"elo":3115,"electr":3116,"entukan":3117,"Ġearly":3118,"Ġeither":3119,"Ġejection":3120,"Ġearth":3121,"ecra":3122,"eclamp":3123,"ecmene":3124,"Ġlp":3125,"Ġlin":3126,"Ġled":3127,"Ġlost":3128,"Ġlives":3129,"ules":3130,"ulate":3131,"ulse":3132,"ulating":3133,"Ġht":3134,"Ġhis":3135,"Ġhar":3136,"thus":3137,"thesis":3138,"three":3139,"Ġnac":3140,"Ġnil":3141,"Ġnam":3142,"Ġnow":3143,"Ġnone":3144,"Ġnational":3145,"Ġnode":3146,"Ġnatural":3147,"untr":3148,"unch":3149,"unately":3150,"unfort":3151,"Ġtool":3152,"Ġtoge":3153,"Ġtoler":3154,"Ġtopr":3155,"Ġtotal":3156,"aci":3157,"acch":3158,"acological":3159,"Ġrus":3160,"Ġranges":3161,"Ġruns":3162,"Ġrancangan":3163,"oster":3164,"ospor":3165,"Ġgun":3166,"Ġgly":3167,"Ġgover":3168,"Ġgdl":3169,"Ġgau":3170,"Ġgreen":3171,"Ġgerce":3172,"omer":3173,"ommend":3174,"ild":3175,"ilities":3176,"ilmistir":3177,"trand":3178,"Ġdev":3179,"Ġdepar":3180,"Ġdefic":3181,"Ġdeoxy":3182,"Ġdebate":3183,"Ġdefin":3184,"Ġdemar":3185,"ida":3186,"imia":3187,"imiyla":3188,"ured":3189,"ole":3190,"oly":3191,"olys":3192,"use":3193,"using":3194,"ustur":3195,"ters":3196,"tered":3197,"teristik":3198,"Ġcontem":3199,"Ġcongenic":3200,"Ġcontrast":3201,"Ġconcluded":3202,"amental":3203,"amento":3204,"lets":3205,"Ġreal":3206,"Ġread":3207,"Ġrever":3208,"Ġreach":3209,"Ġretur":3210,"Ġreact":3211,"Ġrefer":3212,"emb":3213,"igu":3214,"Ġprove":3215,"Ġpromis":3216,"Ġproven":3217,"Ġpromin":3218,"Ġproses":3219,"ades":3220,"adir":3221,"adiological":3222,"adna":3223,"sities":3224,"sized":3225,"lying":3226,"verse":3227,"uch":3228,"Ġbeet":3229,"Ġbeach":3230,"utes":3231,"ceeded":3232,"Ġexc":3233,"Ġexop":3234,"Ġexpres":3235,"Ġexhibit":3236,"Ġexplicit":3237,"Ġistatis":3238,"odo":3239,"oper":3240,"opes":3241,"ople":3242,"optim":3243,"opdg":3244,"ague":3245,"agement":3246,"Ġcommerc":3247,"Ġreson":3248,"Ġresist":3249,"dir":3250,"diri":3251,"ysic":3252,"apies":3253,"appa":3254,"Ġont":3255,"Ġvs":3256,"Ġvir":3257,"Ġviz":3258,"Ġvess":3259,"Ġvill":3260,"Ġvia":3261,"Ġvary":3262,"Ġventricular":3263,"Ġvitro":3264,"Ġvida":3265,"umin":3266,"umpeter":3267,"umsized":3268,"ĠìĦ":3269,"ĠìĪĺ":3270,"Ġìĸĳ":3271,"abstr":3272,"Ġyes":3273,"Ġyard":3274,"Ġyontem":3275,"they":3276,"their":3277,"Ġuncon":3278,"Ġuncer":3279,"antes":3280,"Ġalge":3281,"Ġalcoh":3282,"Ġalgil":3283,"etylas":3284,"Ġash":3285,"Ġasked":3286,"anded":3287,"ock":3288,"ocated":3289,"ocene":3290,"ogra":3291,"anging":3292,"angiitis":3293,"ained":3294,"aken":3295,"akteristik":3296,"Ġkesalah":3297,"Ġkimia":3298,"Ġkappa":3299,"mente":3300,"resp":3301,"resent":3302,"ativo":3303,"ativa":3304,"atizar":3305,"izar":3306,"izations":3307,"Ġdisch":3308,"chlor":3309,"Ġcompres":3310,"Ġcomplic":3311,"Ġcomputer":3312,"Ġcompeti":3313,"Ġcomponents":3314,"iber":3315,"Ġshape":3316,"Ġshaun":3317,"Ġactu":3318,"ayment":3319,"Ġenc":3320,"Ġenrol":3321,"Ġenhance":3322,"Ġusually":3323,"Ġstar":3324,"Ġstable":3325,"Ġstep":3326,"Ġsteel":3327,"Ġstorage":3328,"ifest":3329,"Ġimine":3330,"Ġimages":3331,"Ġimmedi":3332,"estar":3333,"Ġorders":3334,"Ġortus":3335,"Ġadop":3336,"Ġadap":3337,"Ġadverse":3338,"Ġdiver":3339,"Ġdirec":3340,"Ġdiets":3341,"orte":3342,"Ġquas":3343,"Ġquality":3344,"Ġquoted":3345,"Ġquantum":3346,"Ġchall":3347,"Ġchange":3348,"Ġchanges":3349,"Ġchrys":3350,"Ġcharles":3351,"Ġchimeras":3352,"Ġchanging":3353,"Ġwhe":3354,"obiph":3355,"esse":3356,"essor":3357,"essment":3358,"Ġsee":3359,"Ġseem":3360,"Ġsets":3361,"Ġseep":3362,"Ġnear":3363,"Ġnearly":3364,"Ġnext":3365,"itiz":3366,"plan":3367,"pled":3368,"plac":3369,"ìĿĳ":3370,"Ġsuatu":3371,"Ġëª":3372,"Ġëħ¸ëł¥":3373,"Ġability":3374,"Ġabsor":3375,"Ġart":3376,"Ġcoast":3377,"Ġcountr":3378,"rometer":3379,"Ġrelat":3380,"Ġrelacion":3381,"Ġrelating":3382,"ahan":3383,"Ġpremis":3384,"Ġpreeclamp":3385,"Ġgenech":3386,"Ġresulting":3387,"cline":3388,"Ġelement":3389,"Ġelements":3390,"Ġelectrom":3391,"Ġappareil":3392,"Ġapresent":3393,"tenance":3394,"Ġspeed":3395,"Ġspanish":3396,"Ġplace":3397,"anca":3398,"anced":3399,"Ġinterest":3400,"Ġinterstr":3401,"Ġinternal":3402,"Ġinteractions":3403,"Ġintersections":3404,"Ġefficiency":3405,"Ġcarri":3406,"Ġcarbin":3407,"Ġcarry":3408,"Ġcarcin":3409,"Ġcontents":3410,"ials":3411,"illing":3412,"Ġattrib":3413,"ariant":3414,"Ġleg":3415,"Ġleft":3416,"Ġlebi":3417,"sequ":3418,"ĠanalÃŃtic":3419,"ologists":3420,"ikan":3421,"ikal":3422,"Ġmatang":3423,"Ġtransform":3424,"Ġtransfer":3425,"Ġtransmission":3426,"Ġmodelo":3427,"geinv":3428,"Ġpharm":3429,"Ġphysical":3430,"Ġphoton":3431,"Ġphysiological":3432,"Ġperpen":3433,"Ġdatab":3434,"Ġdatang":3435,"Ġmean":3436,"Ġdesigned":3437,"duced":3438,"Ġjul":3439,"Ġjun":3440,"Ġjecmene":3441,"Ġameric":3442,"Ġamicable":3443,"Ġcolocated":3444,"Ġcannot":3445,"ellular":3446,"develop":3447,"rium":3448,"Ġescop":3449,"Ġespec":3450,"Ġmotion":3451,"Ġmove":3452,"Ġmotil":3453,"conn":3454,"cons":3455,"conclusion":3456,"Ġê°":3457,"Ġroc":3458,"Ġrole":3459,"Ġround":3460,"Ġteeth":3461,"Ġtekn":3462,"ency":3463,"Ġhasil":3464,"ometr":3465,"Ġexperienc":3466,"Ġtimes":3467,"ĠclÃŃ":3468,"Ġclass":3469,"Ġcliff":3470,"Ġclassi":3471,"Ġopin":3472,"Ġopen":3473,"thern":3474,"actable":3475,"time":3476,"Ġpossib":3477,"Ġposible":3478,"Ġpossibility":3479,"Ġdiseases":3480,"Ġagvhd":3481,"Ġagency":3482,"entially":3483,"Ġobrus":3484,"Ġmann":3485,"Ġmanagement":3486,"Ġmanifest":3487,"Ġdevelops":3488,"view":3489,"ventional":3490,"Ġcales":3491,"Ġcalism":3492,"Ġcontrolled":3493,"gras":3494,"partic":3495,"Ġsimulations":3496,"Ġmajor":3497,"Ġinversely":3498,"Ġheat":3499,"Ġhead":3500,"Ġreduced":3501,"Ġreduction":3502,"Ġreductive":3503,"Ġreducible":3504,"dicular":3505,"Ã§Ãµes":3506,"Ġie":3507,"Ġdoes":3508,"Ġequation":3509,"Ġrecommend":3510,"Ġparticle":3511,"Ġupra":3512,"Ġupgr":3513,"Ġupstream":3514,"tivity":3515,"Ġsoft":3516,"Ġdnap":3517,"Ġdnadna":3518,"Ġmyel":3519,"Ġflow":3520,"Ġflakes":3521,"Ġfrac":3522,"Ġfraction":3523,"opathological":3524,"Ġaccur":3525,"Ġaccord":3526,"Ġaccount":3527,"ientes":3528,"intro":3529,"Ġpeak":3530,"Ġpeople":3531,"Ġmobility":3532,"Ġincorpor":3533,"ĠincluÃŃ":3534,"ightly":3535,"Ġsuggests":3536,"culating":3537,"Ġvehic":3538,"Ġveget":3539,"ľëĭ¤":3540,"ľëıĦ":3541,"Ġterhad":3542,"Ġterdiri":3543,"Ġservice":3544,"Ġsuccess":3545,"Ġovercome":3546,"Ġmartian":3547,"Ġmice":3548,"Ġmicrometer":3549,"Ġworked":3550,"Ġlowering":3551,"uralsl":3552,"Ġundergo":3553,"Ġunderlying":3554,"Ġstructural":3555,"Ġplantations":3556,"Ġtreatments":3557,"ledge":3558,"¸°ìĪł":3559,"tilisant":3560,"Ġsolar":3561,"Ġsoluble":3562,"ĠpouÅ":3563,"Ġpola":3564,"Ġpolitical":3565,"Ġmachining":3566,"Ġindices":3567,"Ġbrain":3568,"Ġnumbers":3569,"ceptib":3570,"Ġacids":3571,"Ġplanning":3572,"Ġplanetary":3573,"Ġcollagen":3574,"generation":3575,"lickens":3576,"ìĦ±":3577,"ìĦĿ":3578,"Ġselected":3579,"Ġcorrid":3580,"Ġmultic":3581,"Ġmetode":3582,"Ġmainly":3583,"Ġmaintain":3584,"Ġmaintenance":3585,"Ġregarding":3586,"Ġprovides":3587,"Ġunivers":3588,"Ġuniversities":3589,"Ġcomparison":3590,"Ġdiffuse":3591,"Ġneeds":3592,"Ġapproxim":3593,"berikan":3594,"visor":3595,"Ġentry":3596,"Ġsuppres":3597,"Ġsuppression":3598,"Ġschumpeter":3599,"Ġpotentially":3600,"Ġdilakukan":3601,"Ġmutlak":3602,"astric":3603,"Ġwords":3604,"Ġlights":3605,"Ġprofile":3606,"Ġprofessor":3607,"Ġadvanced":3608,"Ġë¶ĦìĦĿ":3609,"Ġê¸°ë°ĺ":3610,"Ġfolds":3611,"Ġassociation":3612,"ìłģìľ¼ë¡ľ":3613,"awa":3614,"hydraulic":3615,"overy":3616,"atura":3617,"Ġbiop":3618,"Ġbiennal":3619,"Ġgeometr":3620,"Ġdetermine":3621,"Ġcontrasts":3622,"Ġprogradation":3623,"Ġsequential":3624,"Ġreliable":3625,"Ġclinic":3626,"Ġfollows":3627,"Ġfollowed":3628,"Ġprocede":3629,"Ġprocesses":3630,"Ġmaior":3631,"Ġhyperelasticity":3632,"Ġincrease":3633,"Ġincreasing":3634,"Ġfields":3635,"Ġkullanilmistir":3636,"Ġprinciple":3637,"bras":3638,"fying":3639,"scienc":3640,"when":3641,"what":3642,"Ġaudi":3643,"Ġautom":3644,"insic":3645,"Ġthermophy":3646,"Ġtherapies":3647,"Ġsense":3648,"Ġpowders":3649,"Ġcirculating":3650,"Ġdoses":3651,"Ġdownreg":3652,"Ġoxc":3653,"Ġoxid":3654,"Ġmembers":3655,"Ġmemberikan":3656,"Ġmenggunakan":3657,"Ġfailures":3658,"Ġnarrati":3659,"Ġproblems":3660,"ĠìĤ´í":3661,"ĠìĿ´ë":3662,"aktan":3663,"Ġdistance":3664,"Ġelectricalhydraulic":3665,"Ġvariably":3666,"Ġfunctional":3667,"Ġfunctionally":3668,"Ġapproaches":3669,"Ġë¶Ħìķ¼ìĿĺ":3670,"Ġnormalized":3671,"Ġnormalitas":3672,"ĠìŀĪëĭ¤":3673,"ĠìŀĪëĬĶ":3674,"moreover":3675,"ratacion":3676,"Ġthroughout":3677,"Ġsaid":3678,"ĠsaÃº":3679,"Ġslopes":3680,"Ġslightly":3681,"Ġcyclical":3682,"Ġdrilling":3683,"Ġolustur":3684,"Ġmgkg":3685,"Ġmediated":3686,"Ġmediate":3687,"Ġmediumsized":3688,"Ġindeks":3689,"Ġbwday":3690,"ultslickens":3691,"Ġproperty":3692,"Ġextinc":3693,"Ġexamines":3694,"Ġexamination":3695,"Ġcombinations":3696,"Ġresistencia":3697,"andingkan":3698,"Ġkey":3699,"Ġactivity":3700,"Ġactivities":3701,"Ġsubjects":3702,"Ġapplications":3703,"Ġperformance":3704,"Ġworldw":3705,"Ġdependencia":3706,"Ġmechanical":3707,"Ġmechanisms":3708,"prediksi":3709,"Ħë¡ľ":3710,"Ġsyndrom":3711,"Ġsituations":3712,"Ġpcb":3713,"Ġpulse":3714,"Ġperson":3715,"Ġperspective":3716,"Ġcapture":3717,"Ġocorreu":3718,"istry":3719,"Ġinhibitor":3720,"Ġhidratacion":3721,"Ġnitrates":3722,"Ġdetector":3723,"imensional":3724,"Ġexpanded":3725,"Ġyerleske":3726,"Ġyerleskelerin":3727,"Ġchemistry":3728,"Ġsubpatterns":3729,"Ġë³´ê":3730,"Ġë³ĢíĻĶ":3731,"ĠëĮĢìĿĳ":3732,"Ġprecis":3733,"Ġcalculation":3734,"Ġcalculate":3735,"Ġparticularly":3736,"Ġflux":3737,"Ġcorrelation":3738,"Ġcorrelated":3739,"Ġhomogeneous":3740,"Ġhomogenisation":3741,"Ġprofessional":3742,"Ġkullanimarazi":3743,"ëĲĺë©°":3744,"ëĲĺìĸ´":3745,"Ġremnant":3746,"Ġrequires":3747,"Ġrequired":3748,"Ġestablished":3749,"Ġfragmented":3750,"five":3751,"many":3752,"Î¼m":3753,"ê°Ģ":3754,"Ġerr":3755,"endipity":3756,"Ġsampled":3757,"Ġcopies":3758,"Ġdocument":3759,"Ġdoctors":3760,"Ġdogruluk":3761,"Ġmissions":3762,"Ġferment":3763,"Ġflexuralsl":3764,"Ġbedding":3765,"Ġbiofil":3766,"Ġlesion":3767,"Ġlarger":3768,"Ġhuman":3769,"Ġnorthern":3770,"Ġgrav":3771,"Ġgraft":3772,"Ġconcerning":3773,"Ġprobability":3774,"Ġì§ĢìĨ":3775,"Ġconsistently":3776,"Ġconsequence":3777,"Ġsupervisor":3778,"Ġëĵ±ìĿ´":3779,"Ġabril":3780,"Ġabrasive":3781,"Ġrelationship":3782,"Ġprepared":3783,"Ġcarbonatacion":3784,"Ġêµ¬ì¶":3785,"Ġobserved":3786,"Ġporosidad":3787,"Ġvaloracion":3788,"Ġmicroscopy":3789,"Ġpolyangiitis":3790,"Ġlandscape":3791,"Ġlandscapes":3792,"Ġmetabolism":3793,"Ġconstruction":3794,"Ġaffecting":3795,"Ġidentified":3796,"Ġsensitive":3797,"Ġsensitivity":3798,"Ġliterature":3799,"Ġliteratura":3800,"Ġsiniflama":3801,"Ġsiniflamas":3802,"Ġsmallcal":3803,"Ġdescribed":3804,"Ġë¶Ħìķ¼ìĹĲìĦľ":3805,"Ġdynamics":3806,"Ġrapidamente":3807,"Ġunderstand":3808,"Ġunderstanding":3809,"Ġpregnancy":3810,"Ġpregnancies":3811,"etivo":3812,"hold":3813,"tanmasi":3814,"Ã½ch":3815,"ĠÃĹ":3816,"Ġeducational":3817,"Ġtaqman":3818,"Ġtecnic":3819,"Ġtunable":3820,"Ġsusceptib":3821,"Ġpellets":3822,"Ġpopulation":3823,"Ġcaused":3824,"Ġduplex":3825,"Ġmelakukan":3826,"Ġinherent":3827,"Ġintact":3828,"Ġinformation":3829,"artz":3830,"Ġfaultslickens":3831,"Ġfederal":3832,"Ġfisik":3833,"Ġfimbri":3834,"Ġfemales":3835,"Ġfungus":3836,"Ġwavefunc":3837,"Ġwritten":3838,"Ġlutilisant":3839,"Ġlikely":3840,"Ġholocene":3841,"Ġnodes":3842,"Ġnacionais":3843,"Ġtomograp":3844,"Ġgorunt":3845,"Ġgrading":3846,"imetr":3847,"olamine":3848,"Ġconnect":3849,"Ġconcept":3850,"Ġreported":3851,"Ġreflect":3852,"Ġproduct":3853,"Ġissue":3854,"Ġcommunication":3855,"Ġvelocity":3856,"ĠìľĦíķľ":3857,"ĠìļĶêµ¬ëĲĺë©°":3858,"Ġyapilmasi":3859,"Ġaspect":3860,"Ġkarakteristik":3861,"characterization":3862,"Ġcompreend":3863,"Ġimagine":3864,"Ġadsorbing":3865,"Ġdifficult":3866,"Ġquimica":3867,"Ġconstant":3868,"objective":3869,"ĠëĶ°ë":3870,"Ġargues":3871,"Ġarchitec":3872,"Ġapplied":3873,"Ġapparent":3874,"Ġspacecra":3875,"Ġcontinues":3876,"Ġmeasured":3877,"Ġmejores":3878,"Ġcolleague":3879,"Ġestudiado":3880,"Ġhydrogen":3881,"Ġpostnatal":3882,"Ġembayment":3883,"Ġemploys":3884,"Ġmaximum":3885,"Ġequilibrium":3886,"Ġscanning":3887,"Ġsouthe":3888,"Ġuzaktan":3889,"ĠìłĦë¬¸":3890,"Ġmineralog":3891,"Ġmarrowderived":3892,"Ġimprovements":3893,"Ġpredominantly":3894,"ĠíĶĦë¡ľ":3895,"Ġadvantage":3896,"Ġknowledge":3897,"Ġbelirlenmistir":3898,"Ġquantitative":3899,"ĠpublicaÃ§Ã£o":3900,"Ġtechnique":3901,"Ġtheoryaware":3902,"Ġillustrated":3903,"Ġalternativo":3904,"Ġphenotypes":3905,"ĠìĭľëĮĢìĹĲ":3906,"Ġstrategies":3907,"Ġautoantibody":3908,"Ġgammahopdg":3909,"Ġdolomitica":3910,"Ġmigrants":3911,"Ġinstrumentation":3912,"Ġreproductive":3913,"Ġframeworks":3914,"Ġìłģìļ©ë°©ìķĪìĿĦ":3915,"cwhich":3916,"disc":3917,"dquo":3918,"guidelines":3919,"guanosine":3920,"gregation":3921,"kley":3922,"klestir":3923,"metode":3924,"maktadir":3925,"mccann":3926,"ruption":3927,"syncline":3928,"tosecond":3929,"ìĽĲ":3930,"Ġedades":3931,"Ġutama":3932,"Ġideological":3933,"ĠÎ¼l":3934,"Ġtestis":3935,"Ġtinggi":3936,"Ġaustralia":3937,"investig":3938,"Ġthreshold":3939,"Ġsaptanmasi":3940,"Ġsaturated":3941,"Ġcame":3942,"Ġcategor":3943,"Ġcancer":3944,"Ġdquoc":3945,"Ġdibandingkan":3946,"Ġothers":3947,"Ġottawa":3948,"Ġmonths":3949,"Ġintrastrand":3950,"Ġinequalities":3951,"Ġinsert":3952,"Ġinnovation":3953,"Ġanticline":3954,"Ġantenatal":3955,"roleinderived":3956,"Ġfuture":3957,"Ġfundamental":3958,"Ġfeatures":3959,"Ġwetted":3960,"Ġwireless":3961,"icensure":3962,"Ġnacetylas":3963,"Ġnilai":3964,"unfortunately":3965,"Ġtools":3966,"Ġtogether":3967,"Ġtolerance":3968,"Ġtopranked":3969,"accharide":3970,"osporium":3971,"Ġgovernment":3972,"Ġgaugeinv":3973,"Ġgerceklestir":3974,"Ġdepartment":3975,"Ġdeficiency":3976,"Ġdemarrage":3977,"olysaccharide":3978,"Ġcontempor":3979,"Ġreached":3980,"Ġreturn":3981,"Ġpromising":3982,"Ġbeetles":3983,"Ġexopolysaccharide":3984,"Ġexpressed":3985,"Ġexhibits":3986,"Ġexplicitly":3987,"Ġresistance":3988,"Ġvirgin":3989,"Ġvessels":3990,"abstract":3991,"Ġyardimiyla":3992,"Ġyontemiyle":3993,"Ġuncertain":3994,"Ġalgebras":3995,"Ġalcoholic":3996,"Ġalgilama":3997,"Ġkesalahan":3998,"Ġdischarge":3999,"Ġcomplicated":4000,"Ġimmediately":4001,"Ġortusunun":4002,"Ġchalleng":4003,"Ġchrysosporium":4004,"obiphenyl":4005,"Ġseepage":4006,"Ġabsorps":4007,"Ġcoastal":4008,"Ġrelacionados":4009,"Ġpremise":4010,"Ġpreeclampsia":4011,"Ġgenechip":4012,"Ġelectromagnetic":4013,"Ġinterstrand":4014,"Ġcarried":4015,"Ġcarbinolamine":4016,"Ġlebih":4017,"ĠanalÃŃtico":4018,"Ġpharmacological":4019,"Ġperpendicular":4020,"Ġamerican":4021,"development":4022,"Ġescopo":4023,"Ġespecially":4024,"Ġmotility":4025,"Ġexperiencias":4026,"Ġclifford":4027,"Ġclassifying":4028,"Ġpossibilities":4029,"Ġobrusov":4030,"Ġcalismada":4031,"Ġsoftware":4032,"Ġaccordance":4033,"Ġvehicular":4034,"Ġvegetation":4035,"Ġterhadap":4036,"Ġsuccessful":4037,"Ġmicrometers":4038,"ĠpouÅ¾iti":4039,"Ġcorridor":4040,"Ġapproximately":4041,"Ġschumpeterian":4042,"Ġbiennale":4043,"Ġthermophysiological":4044,"Ġnarratives":4045,"ĠìĤ´íİ´ë":4046,"ĠsaÃºde":4047,"Ġolusturul":4048,"Ġsyndrome":4049,"Ġë³´ê¸ī":4050,"ëĲĺìĸ´ìķ¼":4051,"Ġflexuralslip":4052,"Ġbiofilm":4053,"Ġì§ĢìĨį":4054,"Ġêµ¬ì¶ķ":4055,"Ġsmallcaliber":4056,"Ġsusceptibility":4057,"Ġfimbriation":4058,"Ġwavefunction":4059,"ĠëĶ°ë¥¸":4060,"Ġarchitecture":4061,"Ġspacecraft":4062,"Ġnacetylaspartic":4063,"Ġgaugeinvariant":4064}