#version: 0.2 - Trained by `huggingface/tokenizers`
Ġ t
Ġ a
i n
o n
h e
r e
t i
e n
e r
Ġ s
Ġ o
Ġt he
Ġ c
Ġ p
a l
e s
a n
Ġ d
e d
o r
a t
i s
Ġo f
Ġa n
Ġ in
Ġ w
ti on
Ġ m
r o
i t
Ġ f
a r
i c
Ġan d
a s
Ġ b
in g
en t
l e
Ġ e
Ġ re
a tion
Ġt o
e l
e c
a c
u s
o m
Ġ l
e t
u l
u n
o s
u r
o l
č Ċ
Ġ h
Ġt h
Ġ n
i m
i d
v e
Ġ (
i l
Ġc on
t r
Ġ g
Ġp ro
Ġd e
i g
Ġ is
c e
a m
Ġf or
t er
T he
it h
l y
o d
e re
u c
. .
u t
Ġw ith
e m
re s
ti c
a d
Ġ v
o w
Ġs t
q u
t s
u m
i f
o t
Ġ on
Ġa s
i on
Ġc om
it y
i r
Ġe x
a b
s t
a g
Ġb e
a p
a ti
m ent
â Ģ
Ġth at
o c
u d
at e
o p
v er
Ġre s
Ġ r
Ġ 1
o g
at ed
a in
Ġ C
Ġa l
es s
u re
Ġw as
Ġb y
Ġa re
p l
Ġ S
Ġa c
an t
i b
Ġ un
he r
u p
Ġ A
a y
ic al
Ġ en
ro m
Ġ us
Ġcom p
Ġw ere
c h
v el
i z
s e
Ġ im
f f
Ġ P
p er
Ġ 2
Ġc h
Ġo r
Ġd is
.. ..
Ġt r
t h
er s
es t
Ġa t
in e
Ġs e
an d
Ġw h
i al
ent s
an g
I n
ec t
Ġ M
or m
el l
i es
o re
ation s
Ġ k
a k
d uc
Ġ le
or t
Ġf rom
u b
Ġs p
i ti
ig h
i p
Ġst ud
Ġp er
Ġa d
Ġp ar
ig n
ic h
Ġs h
u g
t e
i v
an s
Ġin c
i a
Ġth is
i e
as e
ac t
Ġa p
en s
Ġn e
Ġ y
o us
i tion
is t
o un
d er
le c
Ġs y
a re
Ġ T
Ġm et
Ġp re
Ġm od
f orm
Ġ qu
y s
Ġ E
Ġim p
en ce
Ġ he
Ġ B
Ġ D
an ce
Ġ it
Ġcon t
ol og
Ġd es
Ġe ff
0 0
res s
n t
e ar
if ic
Ġ R
if f
Ġd i
a ve
en d
o ur
) .
Ġc an
Ġwh ich
ar y
Ġo b
ti v
Ġcon s
ag e
Ð ¾
Ġ H
Ġd iff
Ġw e
Ġp l
Ġ N
ti ve
Ġan al
Ġc l
ar i
Ġin ter
ab le
as ed
T h
g e
Ġ L
Ġ I
Ġin t
en ti
Ġg ro
en c
Ġs tr
Ġres ul
os t
et w
al l
h od
Ġin d
) ,
st em
Ġc o
or s
Ø §
Ġ 3
ar d
id e
t ed
Ġ G
ec h
il l
Ġa b
Ġg en
Ġh as
Ġh ave
Ġp r
a v
Ġ F
Ġp res
p os
p h
Ġp ati
.... ....
ac h
i ed
t her
tion s
at er
Ġm e
Ġas s
Ġn ot
he n
Ġre l
Ġ ì
c ess
Ġe v
on g
u e
Ġa r
Ġstud y
u al
on s
Ġl a
Ġsy stem
Ġs ign
at a
ati ve
as s
Ġtr ans
Ġdiff ere
er v
Ð ¸
Ġre c
y p
ul ar
Th is
e p
ti m
er m
or k
as t
Ġp h
Ġs c
ro l
Ġd et
Ġsh ow
tic al
Ġap p
âĢ Ļ
Ġmet hod
Ð ½
Ð µ
vel op
Ġmod el
in d
l ow
e en
Ġin v
il ity
or y
Ġs ur
Ð °
i k
Ġpati ents
Ġre g
etw een
ug h
Ġs ub
g r
Ġde velop
Ġb etween
Ġbe en
en g
Ġe m
at es
ac e
on d
s o
Ġm an
p ec
om e
oun d
Ġin f
Ġinc re
Ġc ell
igh t
a h
Ġsp ec
Ġ ro
o ut
i ve
Ġre p
c l
ä ¸
re at
re n
o b
à ¸
t ain
W e
an c
uc h
Ġ 0
Ġd ata
Ġh igh
w o
Ġthe ir
it e
Ġresul ts
Ġfor m
y l
Ġp os
Ġus ed
u tion
Ġ 4
uc t
ro s
Ġa m
or d
Ġn o
Ġ Ð
r i
Ġus ing
at ing
ã ģ
Ġgro up
Ġp ol
Ġun der
Ñ Ĥ
Ġv ari
ul t
Ġ K
n e
re e
u res
Ġsign ific
Ġ 5
i re
al u
Ġanal ys
Ġ Ø
os e
r ap
Â ł
pl ic
Ġt im
Ġthe se
un c
un d
Ġpres ent
d ition
Ġ U
Ġal so
Ġo p
Ġth an
i ent
i qu
Ġ O
ì Ŀ
Ġd ec
Ġpro v
is m
c r
Ð¾ Ð
al ly
on e
ac k
Ġ es
Ġt wo
Ġc or
p le
oc i
i le
ot h
t ing
Ġs im
un g
Ġs up
Ġo ut
l u
ac ter
Ġac c
ech n
a il
ul d
Ġpro cess
Ñ ģ
iz ed
Ġcom m
b er
Ġ j
Ġsignific ant
Ġm ore
at ure
ul ation
Ġc ol
o od
Ġcont rol
0 1
p t
Ñ Ģ
ï ¼
Ġa g
ment s
Ġex per
Ġeff ec
Ġex p
Ġal l
a us
iz ation
ion s
Ġ âĢ
as es
ti g
Ġe t
ur ing
ver s
is s
Ġs ol
s tr
el y
at h
iti es
Ġit s
ec tion
ent r
Ġpro duc
Ġl ow
Ġs am
Ġper form
em ent
Ġ W
Ġ In
Ġt echn
Ġapp ro
Ġp ap
Û Į
vel y
ic e
Ġres p
Ġb ut
Ġm o
Ġe l
t en
y m
Ġo ther
Ġpro b
he m
ã Ģ
Ġs o
tr ib
he s
Ġle vel
Ġanalys is
er g
f ter
ti t
ter n
Ġus e
Ġac tiv
ç ļ
Ġdiffere nt
i o
Ġon e
Ġ V
Ġme as
Ġch ar
Ġinc l
Ġm ed
çļ Ħ
Ġgen er
Ġ ë
Ġtim e
are d
Ġc ar
ation al
Ġo ver
ab ility
r a
ur al
i an
Ġ Ù
Ġcon c
Ġd o
ti l
Ġdis c
Ġ1 9
Ġ 6
olog y
i el
Ġ est
Ġpap er
e x
Ġt reat
u k
in ed
r ic
Ġpar tic
en e
Ġf unc
Ġs uch
olog ical
Ġw ork
re c
ar k
ear ch
Ġf e
Ġf act
Ġstr uct
Ġ J
Ø ±
Ġm ay
Ġincl ud
le m
ac tion
Ġne w
ang e
........ ........
l es
Ġf r
Ġe lec
ro ugh
enc y
Ġb oth
Ġn um
n ing
enti f
Ġde m
ad e
v en
Ġ id
Ġint o
il d
Ġ z
ro p
r y
p ort
c es
Ġh y
í ķ
a j
ress ion
o k
Ġg r
iel d
al ity
Ġcomp le
Ġs ec
Ġob s
es tig
he re
al s
i um
e ver
Ġn on
he d
c on
i or
ect ed
Ġt em
Ġw ell
Ġimp ort
Ġa fter
o x
ay s
Ġf ir
v ed
a tic
Ġinv estig
Ġ up
Ġd er
Ġchar acter
Ġdet erm
Ġb l
Ġp o
form ation
is e
Ġex am
ie w
al e
n ow
i x
Ġm on
im ent
ar g
em b
j ec
âĢ ĵ
Ġm ul
I t
Ġin s
ere d
us t
ib le
Ġt est
Ġimp ro
g an
Ġf ound
is tic
Ġt yp
in al
Ġb ased
Ġqu e
Ġres earch
Ġm ic
Ġv er
in es
Ġb i
Ø§ Ù
Ġobs erv
Ġmeas ure
Ġcell s
Ġtreat ment
Ġc ur
Ġm ost
Ġd uring
Ġdiffere n
ar t
Ġs er
Ġa ut
Ġpro pos
e k
Ġy ear
Ġprob lem
Ġthe re
us s
Ġev alu
t al
Ġth rough
Ġdes ign
g en
duc ed
Ġf ol
an ts
Ġ 7
o v
l ic
ing s
Ġv al
Ġh ad
Ġass oci
a x
al th
rap h
Ġde p
' s
Ġl oc
ow ever
an e
Ġdevelop ment
it s
Ġ 9
Ġfir st
Ġh ig
d e
Ġ The
Ġre f
Ġcon dition
Ġde f
enti al
Ġeff ect
iz e
in ation
Ġfunc tion
Ġd el
y n
Ġcons id
c c
re l
in s
Ġp ot
Ġind ic
Ġid entif
l ed
Ġd r
ag n
in t
o uld
Ġ Ċ
N A
Ġdes cr
o ver
Ġm ain
Ġ 8
Ġs ug
Ġc ap
Ġs ome
p or
iti ve
Ġw ill
am et
Ġre m
Ġ ed
ere n
us ion
ir on
âĢ Ĳ
Ġon ly
Ø§ Ø
ech an
l is
ti es
Ġdis e
Ġg l
Ġc al
Ġanal y
Ġ1 0
ce pt
Ġw hen
f t
Ġ ê
in c
ä º
Ġob tain
re d
ons tr
n ess
it al
os is
a o
Ġb r
it er
Ġm in
Ġ =
i ous
Ð »
f ace
ti vely
Ġ Î
o res
Ġl os
Ġsug g
Ġe qu
Ġc r
Ġs m
Ġ u
Ġcon f
Ġfol low
ag es
Ġpro te
f ul
i er
it ed
c er
Ġa v
re nt
is k
Ġpre d
h ib
Ġimport ant
ã Ĥ
Ġpre v
Ġ2 00
Ġk now
Ġt e
Ġth ree
Ġm ater
Ġmul ti
Ġex pl
Ġre qu
Ġs u
iqu e
ut e
le ment
Ġwh o
Ġh um
p ar
Ġap plic
Ġcomp ared
Ġ2 01
ate g
Ġcl in
Ġstud ies
Ġprov id
h ip
Ġb ec
Ġm echan
Ġy ang
am m
âĢ Ŀ
Ġc y
Ġgro w
Ġeffec ts
Ġb as
Ġd an
og raph
Ġr ate
Ġab out
ak e
Ġen d
Ġhe alth
Ġhig her
Ġan ti
v iew
ol d
Ġshow ed
ad a
ion al
Ġnum ber
i od
Ġin formation
v iron
ic i
iv id
ad i
Ġtem per
Ġex t
å ı
u es
Ġl es
A l
Ġo per
Ġs et
Ġor gan
Ġw here
f ore
on t
Ù ĩ
Ġyear s
ĠC h
Ġcl ass
1 0
Ġp e
Ġpos s
O N
ati s
on ic
Ġconc entr
Ġs ens
oc ial
Ġch ang
Ġincre ased
Ġo ur
aus e
Ġpro per
Ġ [
Ġm at
Ġp ers
Ġne ed
Ġrep ort
ur ther
Ġperform ance
us tr
Ġthe y
Ġf ind
Ġdisc uss
æ ľ
ï¼ Į
ar ge
re qu
Ġo cc
n al
o ugh
o y
at ory
Ġbe h
t ro
Ġf ield
Ġe ach
Ġstruct ure
duc tion
Ġactiv ity
Ġdescr ib
erg y
ì Ĺ
Ġim m
Ġw ater
Ġp ow
Ù Ī
f er
t y
Ġt er
Ġassoci ated
pl es
p tion
Ġsignificant ly
Ġass ess
Ġmater ial
Ġdi rec
Ġcom b
e w
H owever
Ġelec tr
d ro
am ic
Ġa ff
Ð º
Ġr isk
Ġen viron
om ic
The se
å ħ
Ġexper iment
id ence
Ġappro ach
Ġcomm un
o id
Ø ª
ul ts
Ġp op
E S
ĠS t
Ġl im
Ġlevel s
Ġ er
oc k
Ġpr ac
ical ly
Ġre al
ur s
R es
c op
Ġp ub
at or
ĠU n
Ġm en
Ġpar amet
Ġdis trib
A b
i vers
Ġl ong
ar m
1 9
Ġv ol
t he
a f
an n
Ġpropos ed
Ġmethod s
om en
Ñ ĥ
Ø ¯
Ġdise ase
Ġ -
Ã ©
Ù Ĩ
Ġdem onstr
Ġcondition s
et y
t o
Ġinf lu
Ġth ose
Ġt erm
Ġobtain ed
etw ork
c ul
Ġsystem s
Ġl o
l d
Ġobserv ed
Ġpro f
Ġanaly z
Ġ ent
a z
v es
Ġhum an
Ġun d
Ġc oun
a i
Ġk e
Ġh ist
Ġp ath
ar ly
Ġper iod
c om
Ġpred ic
ac ion
Ġman ag
Ġdec re
Ġwith in
ain s
Ġcomple x
Ġfact ors
str act
Ġsur face
as i
Ġbeh av
Ġsec ond
in k
op h
Ġcons tr
Ġor der
Ġse lec
ain ing
Ġad dition
m in
Ġd ie
Ġac id
Ġco uld
Ġcur rent
os p
d u
iv ed
ic ient
og en
er n
Ġs ocial
â Ī
il y
Ġf requ
Ġph ys
Ġsugg est
Ġincre ase
Ġal g
Ġgroup s
Ġresul t
Ð ²
Ġc ases
Ġmic ro
on se
Ġf l
ro und
Ġm ark
is ion
k an
j ect
Ġpro t
Ġ i
Ġpr im
pec tively
Ġrel ations
Ġdi agn
orm al
Ġde v
Ġc ase
c ed
ãĢ Ĥ
Ġen ergy
Ġtemper ature
Ġar tic
å Ī
ac y
m s
Ġgen e
Ġex tr
Ġclin ical
ic ation
Ġpro gr
Ġop tim
Ñ ı
ĠâĢ ľ
om et
Ġimpro ve
A s
The re
Ġdevelop ed
Ġro le
ent ly
Ġes tim
Ġto tal
Ġpot ential
Ġ Â
Ġn etwork
Ġp en
ç »
res ent
Ġf il
Ġdis t
ä »
âĢ ī
Ġh ow
l ine
Ġenviron ment
Ġpow er
Ġle ad
ros s
Ġ .
Ġo x
iv en
s y
ic k
Ġrequ ire
Ġwh ile
el f
Ġl arge
Ġp at
Ġpar t
Ġd ue
Ġed uc
C T
is c
te gr
as ing
Ġch ild
st and
b r
i ver
Ġs erv
s c
Ġam ong
Ġthe rap
ti f
Ġl as
Ġmechan ism
Ġchang es
a u
Ġp ost
it es
Ġgrow th
Ġcon duc
ven tion
Ġsm all
Ab stract
w ard
Ġsup port
Ġcharacter istic
A n
im ens
T o
Ġind ivid
Ġinv ol
Ġad v
Ġspec ific
yn amic
Ġman y
ot her
om m
ç Ķ
a w
% )
Ġa im
i ence
Ġp or
Ġinclud ing
iss ion
Ġle ar
Ġc ult
Ġsh ould
am ent
ä ½
. ,
Ġl ine
ì ł
Ġa ge
if ied
Ġqu ality
Ġv alu
or ith
Ġcomp ar
Ġf low
Ġ2 0
Ġg e
Ġprote in
Ù ħ
Ġres pectively
Ġcor rel
ic es
Ġin hib
a ir
C on
Ġcomp os
Ġe con
2 0
Ġf lu
Ġproper ties
if e
Ġ ve
od e
Ġs ing
Ġst and
il ar
Ð ¼
le v
ã ĥ
Ġ "
b ased
ep end
Ġ Z
Ġmodel s
Ġlow er
ãĢ ģ
ìĿ ĺ
Ġse ver
Ġexp ression
Ġc are
Ġvari ous
5 0
enc es
Ġindivid ual
Ġgener al
Ġd om
Ġstr ateg
g er
Ġalg orith
h y
o f
p ut
Ġf ac
is h
in a
Ġtyp e
Ġad d
ê ³
og n
is tr
aj or
Ġb et
Ġspec ies
Ġprov ide
r m
Ù Ħ
Ġd a
ud e
................ ................
ter s
ol ution
Ñģ ÑĤ
od y
am p
Ġac h
æ ĸ
ì Ħ
Ġm em
Ġpresent ed
Ġconsid er
Ġloc al
it or
m et
er c
it u
Ġcol lec
iqu es
Ġp ur
Ġc aus
Ġrelations hip
Ġare a
å ¤
Ġresp onse
Ġf oc
ik e
Ġe p
å Ĳ
Ġpro m
at ures
p ro
Ġst ate
Ġs uc
ens ity
Ġre view
Ġmanag ement
Ġl ess
Ġpartic ular
m a
Ġval ue
Ġ í
Ġb el
Ġach ie
Ġdep end
Ġcomm on
Ġt um
ad o
ur b
u tions
Res ults
Ġin tr
å ®
Ġin tegr
Ġp ress
Ġcan cer
ab or
tical ly
Ġthe m
hem ical
Ġu til
oun t
Ġstud ents
Ġver y
Ġm ajor
Ġcon tr
re ated
du ce
ific ation
et s
Ġre ve
p r
at al
Ġ1 2
ĠP ro
Ġperform ed
Ġrel ated
Ġsam e
om y
Ġme an
Ġs our
E R
Ġf in
Ġr at
Ġcon trib
ch o
eng an
k e
Ġsing le
Ġwith out
es ts
Ġpati ent
Ġm emb
è ¿
I I
Ġan y
re g
an k
Ġ X
Ġhy dro
Ġstud ied
Ġr ange
Ġin iti
ak an
op er
tic s
Ġsy m
v ing
Ġcont in
Ġimm un
qu e
o u
Ġproduc tion
l er
Ġn ec
Ġs us
Ġmo lec
Ġ čĊ
Ġc ir
Ġparamet ers
Ġa u
m ed
ë Ĭ
Ġrep resent
Ġb u
or ph
F or
Ġv is
1 2
Ġd u
Ġne u
uc le
å ľ
a is
Ġimp lement
Ġsim ilar
Ġartic le
Ġqu es
Ġpar a
Ðµ Ð½
ĠÐ ¿
Ġpub lic
pl ied
om p
ab il
ĭ ¤
al es
pl oy
Ġex ist
Ġcomp on
Ġr ati
íķ ĺ
ak ing
Ø§Ù Ħ
å Ń
Ġne g
Ġvalu es
Ġat t
o ve
c le
m e
on al
x t
Ġfoc us
Ġunder stand
at ely
is ts
Ġthe n
Ġre ce
Ġocc ur
Ġl ay
anc es
E T
an y
um ent
ul ated
âĪ Ĵ
Ġest ab
A R
th s
Ġc ent
0 5
Ñ ĭ
he l
ord ing
ros cop
Ġch ange
Ġcharacteristic s
Ġph ase
iv al
Ġstand ard
c ent
Ġprogr am
tr ic
Ġsever al
ici ency
Ġeffec tive
S T
Ġab s
led ge
Ġinvestig ated
Ġpat tern
ib r
Ġal low
Ġf am
Ġl ife
Ð ´
t or
om a
ut ed
S I
Ġpartic ip
jec ts
Ġf our
Ñ ĸ
Ġint ro
Ġimp act
Ġn ormal
- -
Ġd engan
Ġs k
n d
A T
n a
e g
Ġpro g
% ,
h yl
ëĬ Ķ
Ġg u
æ ĺ
ce p
ic a
Ġposs ible
Ġshow n
Ġof f
n er
ìĹ Ĳ
ain ed
Ġm eng
Ġm ade
ti ce
Ġse qu
Ġv ir
y t
Ġfact or
Ġf urther
M et
Ġsy nt
in ce
Ġl iter
el s
Ġqu an
Ġdistrib ution
Ġpl as
Ġst ress
Ġchild ren
Ġtr a
Ġreve al
Ġbe ing
cl usion
Ġaut h
Ġs ize
ti al
st e
Ġacc ur
ad os
t ure
ĠA l
Ġt arg
jec tive
eren ce
Ġlear ning
Ġexperiment al
Ġbl ood
ti s
1 1
Ġestab lis
Ġg re
Ġresp ons
Ġd id
uc tion
Ġb er
Ġsuc cess
Ġ19 9
Ġapplic ation
Ġen h
Ġincre asing
Ġr adi
Ġav ail
Ġdr ug
Ġcal cul
ag ne
Ġint ere
or ld
Ġpro ced
Ġsam ples
al am
ac tions
ol s
os ph
Ġn an
w are
Ġ Q
Ġis s
Ġproblem s
t a
Ġs l
Ġap plied
Ġprev ious
o le
c ular
Ġin j
Ġreport ed
Ġt iss
Ġg ood
Ġ Y
Ġm ass
Ġcar b
Ġ1 5
Ġd ynamic
ab les
ver age
ac ao
ĠÙ ħ
Ġdirec t
Ġtechn ique
id es
Ġmeasure d
Ġh yp
ur n
Ġknow ledge
Ġ if
A C
l o
å Ĭ
Ġ um
Ġpop ulation
e ff
u le
Ġpos itive
Ġw he
Ð¾Ð ²
tiv ity
Ġg iven
Ġcont ent
Ġconcentr ation
Ġhe l
Ġpress ure
ar a
el iti
Ġbehav ior
ap p
Ġb o
Ġconsid ered
th ough
Ñ Į
Ġw omen
o h
Ġph ot
ìĿ ´
Ġb re
Ġbec ause
d en
Ġdifferen ces
oc h
x im
Ġre t
ul es
at ors
Ġpres ence
ĠE n
Ġstr ong
epend ent
Ġind ustr
ax im
Ñ ĩ
Ġres ist
å Ľ
Ġpre c
Ġreg ion
Ġs em
Ġcons ist
Ġc ri
am e
Ġidentif ied
Ġm y
l as
yp e
è ¯
Ġthe rm
re t
Ġelec tro
D S
se qu
Ġinflu ence
Ġm us
Ġsol ution
Ġ1 8
Ġp hen
m er
l ing
ul ations
e u
Ġalgorith m
pos e
ë ¡
Ġdeterm ine
A S
Ġ ul
k s
and s
Ġthe ory
ivers ity
ìĿ Ħ
Ġc le
Ñ ħ
ĠØ ¨
er ing
Ġbet ter
m on
ial ly
Ġw ould
um e
Ġe arly
Ġ3 0
Ġen g
Ġ Ġ
res p
ar ch
Ġsign al
Ġanalyz ed
Ġc er
id ad
Ġev idence
ĠA r
hes is
Ġfind ings
Ġf em
ib ility
iv ing
ro w
Ġtechn iques
ul l
w e
Ġcoun tr
anc ed
op le
ual ly
Ġrati o
ic s
Ġdeterm ined
Ġag ain
b e
00 0
on es
ic ult
T S
ati vely
Ġ +
Ġpr inc
ograph y
Ġg as
Ġd ig
Ġm ix
le t
a e
ĠIn d
Ġa ir
Ġre duced
Ġl ight
Ġh is
Ġform ation
end ed
eliti an
Ġst atis
Ġex c
ĠT h
Ġin i
Ġ <
Ġs elf
Ġcon n
Ġtr ad
om s
Ġac t
it ro
Ġan g
Î ±
ë ĭ¤
Ġmulti ple
Ġeduc ation
ar s
Ġhy per
Ġem ploy
ag ing
it ation
æ Ģ
Ġfrequ ency
1 5
C L
en ing
_ _
ir d
Ġd os
Ġfollow ing
Ġsp e
sy ch
å ¹
ow n
im ents
Ġm ut
Ġcon te
ĠC O
ĠA n
Ġor ig
I V
ect or
m it
Ġpol ic
it her
Ġun e
v al
ene f
I C
y a
Ġ ,
Ġf ib
at us
u an
Ġm axim
c in
Ġdiscuss ed
è ®
Ġknow n
E N
Ġes pec
Ġs al
ur y
is ing
Ð ·
and om
agne tic
iz ing
Ġex pos
am in
ut ure
Ġch all
Ġlos s
Ġtarg et
Ġprim ary
Ġde g
ver se
Ġspec tr
Ġtherap y
Ġecon omic
Ġprocess es
g et
Ġb ody
in f
osp ital
è ¡
Ġis ol
Ġconduc ted
Ġpos ition
Ġcontin u
Ġcons um
c t
Ġare as
Ġtyp es
Ġr ad
Ġto p
Ġd en
r on
i as
r ay
Ġavail able
ol ic
Ġ ess
Ġn at
u h
Ġ Ã
entr al
Ġd ays
æ ķ
1 3
Ġno vel
ÑĢ Ð°
Ġnec ess
in ing
íķ ľ
Ġf ail
O S
Ġr ates
å ¯
Ġtechn ology
Ġhel p
i h
O ur
Ġfe atures
Ù Ĭ
O R
ä ¹
Ġb enef
pec tive
Ġprovid es
Ġpe ople
am b
Ġ1 4
Met hod
ress ed
Ġpl an
g round
Ġdescrib ed
cl us
Ġintere st
Ġn ucle
ĠÐ ²
Ġc ost
Ġ her
ati v
l or
iti s
y r
our s
or b
Ġidentif y
ĠâĢ ĺ
er ation
Ġpo int
Ġ1 3
Ġm it
Ġd ur
Ġbe fore
Ġres our
Ġso il
Ġterm s
Ġd oc
l ess
ĠâĢ ĵ
Ġsh ort
Ġdifferen ce
ì ľ
Ġc ard
Ġques tion
ren g
Ġcap ac
is ed
Ġreg ard
or ts
Ú ©
Ġcom o
Ġre ad
ition al
A N
Ġpol ym
Ġmin im
E M
Ġpl ant
r ied
u it
Ġeff iciency
Ġr ap
1 4
Ġagain st
ë¡ ľ
Ġapplic ations
ab ly
1 8
Ġy ield
Ġl arg
over n
Ġe in
plic ations
Â ±
Ġev en
Ġs itu
Ġ ill
Ġv ers
r it
Ġke y
Â °
in ary
resp ond
Ġwe ight
Ġp ul
P S
Ġre action
iti v
ane ous
Ġgl ob
Ġreveal ed
æ Ī
u ter
Ġ Ø§ÙĦ
w ay
ê °
Ø ¨
Ġo l
ĠA s
Ġpro p
Ġrec ent
F urther
Ġinclud ed
eng th
Ġcir c
Ġdiagn os
Ġg o
er al
w a
Ġw orld
is on
Ã ³
Ġnum er
Ġsup er
Ġm as
Ġc ross
Ġm el
C R
Ġ1 6
ore d
I S
Ġun t
O n
her s
f act
ä¸ Ģ
ĠÙ Ī
å Į
ry st
Ġc re
ä¸ Ń
Ġ ide
Ġfr am
til l
Ġliter ature
Ġr andom
I N
Ġdet ection
Ġphys ical
Ġm g
Ġ Ñģ
Ġs oci
Ġval id
Ġevalu ated
ang u
Ġre duction
le x
é ĩ
Ġwhe ther
Ġse par
ens ion
Ġlo ad
Ġcomp ound
al ah
Ġh and
Ġsur v
Ġsam ple
Ġof ten
Ġsur ve
Ġd alam
Ġw ay
Ġad min
2 5
z ym
Ġcon cept
Ġb ack
Ġ5 0
å º
Ġst reng
M S
Ġen c
Ġmaterial s
ac es
ĠS c
Ġdemonstr ated
tion al
M P
Ð½ Ð°
Ġe le
Ġanti b
Ġsp ace
Ġd ans
Ġf uture
Ø§ ÛĮ
s p
1 6
ic o
Ġtum or
åŃ ¦
Ġprovid ed
Ġt reated
Ġd ensity
ar b
ĠR e
Ġa verage
Ġs tim
ë ¥
Ġrec ord
Ġcy t
Ġd at
Ġso ft
Ġv iew
in o
ä ¼
R A
Ġim age
ol es
ac tive
or ption
Ġmon ths
av ing
ter m
og ene
Ø ³
Ġimpro ved
Ġshow s
Ġsup p
re ad
Ġapp ear
Ġdecre ased
Ġ ir
t le
igh ts
cr ip
Ġcor respond
Ġan im
is es
cho ol
Ġstruct ures
Ġdiagn osis
Ġhe m
Ġs af
Ġactiv ities
Ġg reat
Ġun a
Ġcult ure
Ġm uch
Ġt ex
Ġinvestig ate
ve re
Ġb ound
at ter
Ġì ł
Ġle g
3 0
Ġexam ined
w n
Ġpol i
m ission
ys is
Ġad ap
Ġref lec
åľ ¨
Ġunderstand ing
Ġsour ce
Ġevalu ation
Ġconf ir
an a
å Ĵ
Ġsym pt
Ġse g
Ġst e
as on
Ġt ak
Ġm al
Ġre cept
Ġst ep
Ġwe ek
ach ing
Ġnat ural
i en
l and
pl ant
in ts
Ġ1 00
Ġpol y
ti d
Ġres id
âĢ Ķ
Ġ x
p ir
as cular
Ġs um
Ġme ans
Ġthe ore
Ġp sych
ì §
Ġcarb on
ap s
ten tion
Ġmark et
g es
Ġevalu ate
Ġcar ried
Ġent re
ve ment
ew ork
Ġh owever
Method s
Ġì Ŀ
Ã ¤
Ġt as
A t
Ġp eng
A L
Ġpl ay
Ġin str
Ġresist ance
ac hes
åĴ Į
Ġle ast
Ġe ither
Ġ Ï
Ġn a
Ġl og
Ġì ŀ
Ġbas is
Ġ2 4
Ġrec ogn
Ġtiss ue
ind ing
å °
Ġrequire d
m an
Ġtrans fer
Ġac cess
Ġto ward
Ġexper iments
Ġfunction al
Ġconcentr ations
Ġacc ording
ly ing
o int
Ġe th
¸ °
A P
at an
Ġad j
ĠR es
Ġac tive
tr uct
j e
Ð ¿
pl ing
ul f
ì ŀ
Ġem b
ren d
Ġph osph
å ¼
Ġsim ple
s tit
Ø§Ù Ĩ
Ġmolec ular
at s
Ġinter n
Ġre duc
en ess
A D
Ġlay er
Ġ :
ap e
Ġinter action
æ Ĺ
ent al
Ġunt uk
Ġw id
Ġgre ater
Ġb est
ar c
Ġmet ab
Ġs il
Ġind ex
in ess
em ic
Ġprinc ip
e h
Ġal tern
Ġ2 5
Ġmeasure ments
u rop
Ġer r
Ġp ada
Ġem erg
1 7
ut es
Ġab ility
Ñ Ĩ
Ġline ar
R NA
ire d
Ġtim es
Ġcri tical
ant e
Ġneg ative
Ġconte xt
Ġ Ð¸
Ġpur pose
Ġprac tice
Ġc ryst
Ġmed ical
ens ive
Ġ $
2 01
% .
ĠUn iversity
ĠØ ¯
Ġv ia
Ġfram ework
om b
s pec
g o
Ġhigh ly
um p
ger y
Ġwh at
l ation
r am
Ġcompon ents
H O
ĠD NA
or der
Ġd as
Ø ´
ac c
Ġs he
Ġmemb r
ro ph
Ð½ Ð¸
A B
il it
C l
Ġl ik
Ġm ake
Ġd am
Ġhist ory
Ġglob al
Ġdo es
Ġindic ate
e ti
.. .
è Ģ
Ġg overn
is ation
ac ts
Ġeff icient
Ġin st
b o
R O
Ġdet ail
un akan
en se
Ġl ink
Ġappro xim
Ġdis s
Ġse x
Ġp ain
Ġespec ially
l i
Ġd ay
Ġrap id
Ġf er
roscop y
Ġcorrel ation
Ġb ro
Ġf und
ãģ ®
Ġfe ed
Ġtr aining
Ġpen elitian
ĠT r
2 00
Ġcomp ut
e an
Ġfunc tions
E x
M ore
gr ad
Ġins tit
Ġrel ative
un e
* *
Ġ1 7
Ġv on
Ġmechanism s
Ġex hib
Ġsim ulation
Ġinter p
Ġspec ial
Ġaff ect
Ġcer tain
Ø ¹
Ġl angu
Ġcon st
Ġf ree
Ġvol ume
Ġs till
tim e
Ġdev ice
if y
c ome
Ġcompos ition
er t
Ġal ong
Ġlim it
ec ts
oper ative
u tr
ro up
Ġinf ection
Ġs w
our se
Ġinvol ved
U L
W h
Ġcy cl
Ġtrans port
h ing
in ant
en z
æĺ ¯
Ġre duce
Ġ We
Ġen zym
at ur
y ear
pos ition
cl ud
Ġbehav i
Ġ1 1
W ith
Ġiniti al
Ġar g
ic ial
Ġplas ma
Ġl abor
ograph ic
Ġc hemical
Ġsub st
S t
ic ity
Ġre lev
Ġcal c
Ġhe at
Ġgen es
Ġcol l
Ġsp ect
I D
m ore
Ġh om
l amm
C C
Ġser ies
Ġt ests
Ġdis pl
Ġfe w
ĠÂ ±
d r
ul a
Ġ Ø§Ø
U n
Ġm ust
Ġprof ess
Ġb acter
Ġproduc ed
Ġenvironment al
Ġf a
Ġ â
Ġfam ily
Ġbu ild
it r
s h
Ġuse ful
Ġf u
out h
O b
Ġb us
Ġcommun ity
N D
Ġl and
Ġtest ed
å į
s is
itiv ity
ie f
ren ce
y stem
Ġp el
Ġc atal
Ġgr ad
in ally
ig r
Ġ19 8
are nt
Ġqu al
Ġquan tit
Ġst age
Ġsuccess ful
com es
id s
Ġdesign ed
äº Ĩ
olog ies
Ġproduc ts
Ġcommun ication
ot e
n ov
Ġe lement
Ġcollec ted
Ġch ann
ä¸ º
Ġper cent
Ġc he
R ES
av es
L a
Ġw ave
æ Ŀ
Ġelectr on
Ġ ion
Ġf ood
Ġc all
Ġpl ace
Ġst atus
Ġl ike
âĢ ľ
Ġexper ience
Ġm ob
Ġm ice
Ġcountr ies
Ġcl os
imens ional
Ġn ature
Ġcaus ed
Ġar ch
Ġe ar
r as
Ġvari ables
æ ŀ
Ġexper i
Ġp ass
Ġm ort
ar an
ë¥ ¼
Ġsc hem
Ġoper ation
Ġmon itor
Ġin duced
Ġchall eng
Ġimport ance
G F
Ġe ver
ik an
Ġ &
Ġc op
a an
æľ ī
Ġrel i
ÑĢ Ðµ
è ĥ
or n
Ġin form
Ġd ose
Ġse b
ch ing
ĠØ ª
iv es
Ġbl ock
Ġprocess ing
Ĥ ¬
Ġo s
es is
ym ph
6 0
é Ģ
ĠM ed
r onic
Ġpolic y
ap at
e v
Ġe c
ar r
ial s
Ġstrateg ies
Al though
Ġc entral
clus ions
4 0
Ġcor rec
vention al
Ġh ospital
Ġselec ted
Ġs atis
s ing
ĠA mer
Ġsub jects
Ġm orph
ç Ľ
Ġl ip
anc y
C h
Ġpres ents
Ġserv ice
Ġch rom
Ġsc i
ĠP h
Al l
Ġassess ment
Ġsp ati
Ġcharacter ized
Ġpre p
å Ĩ
Ġm agnetic
Ġth us
Ġm m
Ġsur gery
Ġproduc t
Ġs ince
E n
z e
e qu
Ġl ength
ĠI I
Ġco u
Ġc hem
Ġcr iter
A d
Ġop en
Ġmed ia
oc yt
Ġsurv ival
od es
Ġm es
Ġcomb ination
ĠC D
ì ļ
u j
is is
tiv es
Ġla w
Ġinclud e
Ġar ter
Ġen s
Ġac ross
Ġaccur acy
Ġsu ff
enc ia
Ġt ub
Ġpr ior
Ġpro ject
Ġd il
Ġmaxim um
Ġb ase
Ġestablis hed
Ġhist or
Ġiss ues
Con clusion
Ġdecre ase
å ĩ
ub le
å ·
Ġbr ain
Ġst ability
Ġc at
Ø§ Ø±
Ġc ause
ĠH e
) -
Ġcons tit
Ġfollow ed
Ġf o
Ġtherm al
Ġreg ul
Ġvis ual
Ġad alah
d ay
] .
enc ed
Ġdemonstr ate
ed i
Ġprote ins
Ġsc re
Ġch o
è §
E D
w ays
Ġlim ited
S A
Ġcapac ity
Ġ4 0
i i
Ġpar ti
Ġserv ices
as is
as tic
Ġf ive
Ġdet ected
Ġout comes
Ġappro aches
Ġover all
rel ated
ĠE urop
æĢ §
Ġpro l
Ġstruct ural
Ġe as
Ġextr act
Ġsy n
Ã ¼
Ġrec omm
Ġanalys es
Ã Ń
Ġdet ect
ater al
Ġpattern s
Ð ¹
Ġtrans ition
Ġf ore
Ġd own
ar tic
Ġh al
r ing
Ġox id
å ¾
æ ³
Ð¾Ð ³
Ġsol utions
C s
Ġm ight
Ġv s
Ġmeas ures
am a
ìł ģ
Ġele ments
Ġeng ine
å ±
Ġcomp r
ç İ
i res
Ġhyp ot
Ġser um
in duced
w h
ìĦ ľ
Ġv i
tiv eness
Ð½ Ð¾
Ġar r
C ON
Ġp our
c k
Ġbec ome
Ġs ite
ri x
Ġhe ter
9 5
and o
Ġë °
Ġcompar ison
B y
Ġo il
Ġreg ions
There fore
à¸ ²
per s
Ã ¡
id ade
Ġ ur
Ġs ites
å ¸
Ġadmin istr
Ġam ount
çĶ Ł
Ġsub str
Ġstrateg y
Ġto ol
Ġun it
Ġl it
Ġstreng th
Ġl iqu
Ġindic ated
i j
A fter
SI ON
pec ts
Ġconc ern
Ġl ack
Ġexam ple
Ġc os
y e
C O
Ġsurve y
Ġauth or
Ġexist ing
Ġre le
Ġnecess ary
Ġm ac
y gen
Ġul tr
en tion
Ġproced ure
i os
Ġresour ces
h ic
Ġse vere
Ġco eff
t on
Ġd ari
Ġc as
ìľ ¼
Ġsoft ware
ol ar
Ġadv ant
ì ĭ
or th
Ġm agn
p ri
Ġdescr ip
other ap
uk an
Ġcontr ast
Ġsc ale
ord s
Ġtrans form
enc ies
ĠC I
al ing
ati ves
ç §
Ġauth ors
Ġlangu age
Ġh aving
2 2
Further more
Ġre d
Ġl ymph
ê µ
Ġgene tic
om es
in ter
Ġdeg ree
Ġm ak
Ġoptim al
Ġm id
R I
Ø ©
Ġ9 5
Ġcon ver
C I
Ġsympt oms
ë ı
Ġrat s
00 1
Ġad op
b ut
Ġtrad itional
Ġdiff icult
Ġim ages
Ġinhib it
over y
Ġcomb ined
med i
æ °
rom e
l ike
or ies
al le
Ġev ents
ç ī
are n
Ġte ac
Ġmod e
Ġwhere as
re am
re m
Ġincre ases
Ġmeasure ment
C D
il i
Ġê °
Ù ģ
Ġev olution
Ġindividual s
Ġs ide
ĠC l
Ġdi ab
Ġacc ount
H ere
ê³ ł
ĠEn g
ec tive
ap ter
ur ity
Ġbo ok
Ġfail ure
h o
Ġrece ived
Ġs chool
ress ive
Ã §
Ġpers on
ro b
ad as
im in
er ve
Ġ6 0
om er
O ne
Ġab ove
Ġachie ved
Ġop tical
e lec
Ġimplement ation
f or
ÑĢ Ð¸
Ġat tention
Ġcompon ent
Ġmet al
g ical
Ġcalcul ated
Ġf ix
7 0
Ġadd ress
iz es
M A
s et
Ġdec ision
Ġde ath
Ġdise ases
ure d
Ġappro pri
res h
å¯ ¹
Ġest ud
CL U
% ),
oc y
Ġcompound s
Ġs ed
Ġb ar
Ġrespons es
2 4
m m
Ġtheore tical
ĠS p
Ġder ived
Ġlik ely
Ġm ach
Ġspe ed
Ġl ast
Ġcl us
Ġm ar
à ¹
Ġdescrib e
Ġsour ces
Ġam pl
ang an
or por
Ġh a
C A
g l
em s
P A
à¸² à¸
Ġab le
æ ī
olog ic
Ġcon ventional
um in
Ġl iver
id a
Ġs ix
Ġexpos ure
k g
Ġb one
ar ing
Ġch ronic
2 1
ti b
Ġmort ality
Ġpropos e
Ġtest ing
Ġin put
2 3
ê³ ¼
Ġa x
CLU SION
Ġr ight
Ġdi vers
Ġas pects
ic an
Ġac ute
Ġmed i
em p
Ġre st
he st
et r
Ġac tion
Ġf at
at in
B ased
s i
Ġim aging
å ½
ĠÎ ¼
n ot
Ġmain tain
lis hed
Ġgro und
Ġd imens
Ġimprove ment
çĶ ¨
F inally
ĠÐ º
Ġo wn
it able
Ġob jective
Ġprev al
Ġactiv ation
e f
Th us
Ġv el
Ġbas ic
a ff
Ġth ough
Ġresul ting
Ġpolym er
Ġth ick
Ġprevious ly
Ġst ates
us e
tic es
ot or
Ġmed ium
w ent
Ġdef ined
Ġresp ond
Ġvir us
Ī ĺ
Ġmembr ane
æ µ
Ġd on
Ġo u
W hen
op e
UL TS
Ġsens itivity
Ġgu id
Ġdef in
ul in
o es
Ġcorrespond ing
j a
e y
Ġparticip ants
CON CLUSION
o ts
ad es
ung en
Ġdevelop ing
Ġpo ints
æ ł
Ù Ĥ
Î ¹
Ġre v
Ġdifferen ti
b y
Ġrecept or
Ġpo or
Ġcomple te
Ġn ow
Ġ '
Ã £
tr ans
Ġconstr uction
Ġh ard
et es
Ġup on
Ġinter actions
Ġê ²
Ġa round
Ġneed s
Ġaff ected
d imensional
urb an
Ġc ateg
Ġp ast
More over
Ġtak en
Ġmed ic
ê ¸°
E L
tern al
Ġmat rix
Ġfin anc
ar ies
Ġassoci ation
Ġassess ed
Ġl ab
Ġtrans mission
Ġc ourse
im e
Ġever y
Ġsuggest ed
i ological
he tic
art ment
ous e
Ġ /
Ġto x
Ġenh ance
Ġcont aining
Ġcard i
æ Ĭ
åĪ Ĩ
Ġbro ad
Ġphen omen
br id
Ġparticular ly
ul ate
Ġsequ ence
Ġle ft
Ġspati al
Î ¿
Ġind ependent
Ġam b
Ġinter nal
Ġout put
Ġbi om
Ġmain ly
Ġan t
Ġm ale
Ġro t
if t
Ġb inding
8 0
Ġro b
Ġsaf ety
Ġp H
Ġs a
Ð½ Ñĭ
Ġcontinu ous
Ġnetwork s
Ð¾Ð ´
Ñ İ
Ġindustr y
ä½ ľ
Ġte aching
Ð ³
ra f
ÑĤ Ðµ
Ġliqu id
ed ing
åĮ ĸ
Ġpl ate
Ã£ o
ot yp
Ġr ang
Ġthere fore
g n
Â ·
Ġpro por
y st
re te
Ġform ed
Ġper ce
line ar
k now
ear c
äº º
U sing
ET HO
Ġdom ain
RES ULTS
i pl
Ġess ential
ich t
ê° Ģ
k a
Ġmod ern
Ġflu id
Ġvari ation
ar ia
S e
Ġsatis f
Ġy oun
Ġac qu
Ġn ational
Ġconst ant
Ġachie ve
Ġmonitor ing
im et
is ti
ur rent
Ġsy nd
Ġst ar
ÑĤ Ð¸
Ġs ch
id ent
D es
Ġprev ent
Ġweek s
Ġgener ation
Ġcon sequ
Ġvel oc
ĠB r
Ġrel ation
Ġsynt hesis
id o
Ġsus tain
eu tic
Ġhig hest
Ġox ygen
I T
ec tions
åı ĳ
em ia
Ġb and
Ð» ÑĮ
Ġrelev ant
åĽ ½
Ð¾Ð »
Ġsecond ary
Ġb io
) ;
âĢ Į
c ence
ell ing
op ath
Ġpl us
am ine
otherap y
Ġvol t
ĠC on
Ġhe art
ĠT o
Ġprep ared
Ġse en
Ġdist inc
c y
å¤ §
Ġpoli tical
Ġref erence
Ġv itro
Ġinf lamm
Ġaut om
es e
ĠE x
unc tion
Ġf ull
Ġform s
ot ype
Ú ¯
v ent
ĠC a
Ġpre par
ter ior
an ol
ung s
end ing
Ġdynamic s
Ġw ide
m ic
o ff
Ġselec tion
r up
Ġrep ro
it ect
od ies
Ġpl ants
ap an
ĠCh ina
Ġaddition al
ack ground
ìľ¼ ë¡ľ
Ġsol id
å Ł
Ġmechan ical
Ġc ogn
ĠI s
el ine
Ġdi et
Ġfr act
The y
ĠA d
Ġhe ad
Ġexam ine
Ġbi ological
at o
7 5
ĠÐ ´
æ Ķ
Ġrel atively
it ude
C S
u i
Ġn am
Ġre ason
Ġt rend
Į Ģ
Ġz u
ogen ic
Ġsugg ests
Ġrat her
Ġtex t
N o
Ġconstr uc
ph a
d om
ig en
Ġhe re
omet ric
Ġgl uc
re hen
é Ŀ
ĠF e
c he
Ġappropri ate
ĠS ch
Ġne ur
Ġpredic t
ìĦ ±
Ġ )
1 00
Ġdam age
................................ ................................
Ġl at
Ġpe ak
ist em
Ġdoc ument
Ġdev ices
Ġlas er
os s
Ġcomp uter
Ġt end
Ġreg ression
hy dro
Ġmetab ol
t ype
Ġpro s
ç Ĳ
ĠTh is
ĠÎ ±
C H
Ġto get
ì§ Ģ
I R
ti de
Ġ urban
Ġtoget her
Ġset ting
ur a
ë Ĳ
entif ic
ĠL e
Ġintern ational
re es
__ __
Ġgener ated
Ġallow s
d ependent
% ).
h ad
R ec
Ġneed ed
Ġisol ated
Ġwho le
ment ation
Ġprogr amm
ac ement
ĠM et
Ġst or
Ġs on
Ġfor ce
Ġconsum ption
p ite
f erence
Ġfem ale
an al
Ġin nov
ãģ «
Ġintro duced
Ġdel iver
Ġcy cle
Ġne ar
Ġhe p
3 5
Ġn utr
Ġinc idence
Ġeffec tiveness
Ġf inal
n ya
Î ²
Ġcriter ia
Ġag g
ĥ ģ
/ -
w ater
ill s
ë ³
it as
Ġresp ect
ìĿ Ģ
Ġorgan ic
ag ed
2 6
Ġcl im
-- --
Ġbe am
ĠC o
Ġestim ated
Ġerr or
Ġpot enti
Ġh ab
Ġnumer ical
Ġw ind
Ġve hic
Ġorgan ization
ic acy
Ġor ient
ell ular
Ġinc orpor
m ost
ä» ¥
Ġst able
Î ¼
qu es
Ġbus iness
Ġw rit
Ġaltern ative
Ġqu i
ati f
Ġcont act
er a
h al
Ġout come
Ġm igr
Ġse arch
I ON
ĠĠ ĠĠ
Ġfil m
Ġus er
P P
Ġvari ety
Ġres earc
ac ed
Ġb al
ETHO DS
Ġau f
Ġw all
Con clusions
å ¿
Ġsub ject
s ub
Ġpartic les
Ġanalyz e
Ġtoward s
om al
Ġill ustr
Î ½
u x
9 0
Ġb ir
vers ion
y tic
Ġcontrol s
ä¸ į
Ġstr ain
2 8
Ġiss ue
c o
Ġk ind
Ġd ys
Ġc m
Ø Į
ì ķ
Ġf lex
Ġwe ak
il ities
Ġs ob
at ric
Ġlit tle
Ġregard ing
iv o
Ġcle ar
ĠI L
Ġsub sequ
it ing
Ġd one
Ġdig ital
P ro
æ Ń
T wo
ocyt es
c al
Ġk in
Ġ2 1
Ġprot oc
plic ation
spec ific
Ġe lev
ĠÙ Ĩ
Ø ¬
Ġdirect ly
R P
il es
å¹ ´
ĠA f
Ġexp ected
Ġtrans crip
ig ur
Ð¾Ð ¼
Ã³ n
z y
Ġr are
Ġl ines
Ġradi ation
Ġa gr
em ber
Ġat trib
ĠIn tern
ra w
Ġc ore
er o
Ġmus cle
Ġlarg er
v ol
Ġinvestig ation
Ġdiagnos tic
æ İ
Ġg raph
Ġdem and
cer tain
Ġ >
M I
ĠP r
ÐµÐ½ Ð¸
ÑĤ Ð°
Ġm aking
Ġd ivid
é Ļ
Ġse ed
Ġpr iv
Ġbre ast
Ġfund ament
è ¦
Ġc ut
Ġr un
Ġcontrol led
4 5
Ġm er
Ġg ly
Ġconfir med
u fact
Ġmeng g
Ñ Ħ
P D
Ġsur gical
Ġwork ing
Ġschem e
Ġde b
Ġpre gn
t ual
Ð¾ ÑĢ
3 3
omet ry
Ġenh anced
Ġpro duce
em ents
Ġinter vention
al k
ĠA b
es tern
a ro
Ġn orm
Ġir r
ĠF r
er ate
Ġprac tical
Wh ile
Ġag re
Ġ rol
port un
op las
A m
2 7
ch ange
ari o
Ġvari able
Ġsynd rome
Ġinj ury
Ï Ħ
con t
Ġcomp eti
Ġcult ural
b ack
l im
y ro
Ġto ols
Ġfr action
Ġoccur red
Ġph arm
Ġtas k
Ġchann el
Ø Ń
ĠÐ ¼
d i
c i
ĠD E
her n
or gan
Ġsens or
Ġcorrel ated
Ġsc ore
Ġpub lished
Ġev ent
Ġcar cin
Ġparamet er
ra z
C P
Ġinclud es
oc hemical
ĠC ol
Ġrequire ments
lis h
Ġb ond
Ġhigh l
c ol
alle l
Ġcomp rehen
Ġanim als
Ġrec ently
Ġgovern ment
E l
Ġorig in
istr y
ip p
Ġlead ing
Ġhealth y
ir st
ê ²
Ġchalleng es
Ã ¢
pl ed
Ġum a
Ġaim s
Ġag ents
Ø ²
ord ers
Ġan n
Ġìŀ Ī
Ġdist ance
ar ily
Ġresul ted
S P
è Ĥ
ĠS h
a res
ic t
Ġf ast
ĠD e
if orm
ãĤ ĭ
æĸ ¹
Ġsu itable
ab ric
Ġalgorith ms
Ġde ep
Ġint ensity
Ġus es
Ġs ection
Ġstatis tical
Ġinterp ret
Ġdrug s
ing k
çĲ Ĩ
Ġsum m
Ġì Ĺ
um ents
Ġc ere
tr a
è¡ Į
n ormal
E CT
Ġup per
Ġarch itect
Ġtherap eutic
Ġt urn
Ġdirec tion
Ġmod ified
Ġ %
Ġbehavi our
âĢ ¯
Ġde grad
an ti
ĠG r
C M
ĠO r
Ġex ternal
Ġclass ification
Ġres on
Ġidentif ication
Ġtr ab
æĪ Ĳ
Ġconsist ent
Ġo ld
Ð¾Ð ±
ag en
el le
Ñģ Ðº
å İ
Ġstor age
ï ½
Ġop portun
ati ents
Ġg ive
Ġt ake
ĠV er
Ġem pir
ic on
Ġbe g
Ġequ ation
ail y
æ³ ķ
A M
Ġcomp are
E s
g i
ĠA c
é Ĺ
Ġch lor
Ġdat ab
Ġth ird
Ġf av
Ġfinanc ial
Ġelectr onic
Ġb ah
Ġmengg unakan
ë ¦
T r
Ġexpl ore
Ġch ain
Ġwid ely
Ġcol on
Ġl ung
Ġcons erv
n o
è ¾
Ġprac tices
Ġmemb ers
Ġexp ressed
Ġe ine
Ġa ud
S S
Ã ¶
Ġpar ts
ĠN ew
Ġacc um
g a
Ġcaus es
í Ļ
tiv ation
Ġal though
Ġinter view
Ġac ad
Ġenzym e
ox id
Ġman ufact
ä ¾
ìĿ ¸
Ob jective
or al
Ġus ers
Ġem ph
Ġtem por
entr ic
Ġdescrib es
l a
Ġestablis h
Ġf arm
2 9
H e
Ġsk in
Ġfac ilit
Ġrem ains
ient o
ter ing
ac i
Ġpreval ence
Ġad ult
Ġ2 8
Ġl ig
Ġc e
Ġprogram s
£ à¸
Ġp ack
Ġinv est
a ft
Ġveloc ity
Ġav oid
Ð» Ð¸
Ġt en
Ġfield s
Ġ8 0
Ġequ ations
Ġun ique
amet er
I L
Ġcom plications
Ġt ax
Ġrele ase
ult aneous
Ġrem ov
f aces
Ġvolt age
æĸ ĩ
ĠC omm
Ġproced ures
Ġ il
Ġexp ress
Ġre pl
ogen esis
Ġass um
Ġext ent
know n
Ġquantit ative
ä½ ĵ
Ġis t
Ġexam ination
d le
Ġno ise
Ġd apat
Ġpol ar
Ġ2 3
Ġf ar
Ġch apter
Ġrelationship s
é «
Ð¾Ð³ Ð¾
B ackground
Ġrecord ed
Ġsob re
ec ond
A cc
Ġplan ning
Ġp emb
et h
c ell
Ġs is
as h
Ġex erc
had ap
M R
Ġpop ulations
è ´
tic a
Ġother s
ud es
Ġm om
Ġsh ape
ĠAf ric
Ġmem ory
íķ ´
Ġeff icacy
Ġques tions
ĠAmer ican
Ġsupp ly
ak ukan
T P
Ġpol l
p ect
Ġad s
Ġoptim ization
Ġent er
Ġcomm erc
Ġp ort
Ġan other
ä¸ İ
Ġyoun g
clud ed
l an
Ġh ous
e e
Ġp ep
Ġen ti
ament e
Ġaim ed
Ġdispl ay
Ġcos ts
Ġneu ro
Ġemploy ed
ap h
or ing
Ġm otor
ri er
Ġsci entific
Ġmo tion
Ġb ur
b ers
Ġadministr ation
s ive
iz ations
ëı Ħ
Ġc ul
Ġp es
Ġsc ience
Ġm ill
Ġf it
Ġobserv ations
Ġpers onal
tr on
et er
hel ial
Ġag ent
Ġinv ention
Ġsam pling
Ġqual it
ĠìĿ ´
Ġfr ag
æķ Ļ
Ġhy brid
Ġrec overy
D ie
Ġles ions
rol og
Ġprovid ing
3 4
Ġcall ed
Ġdel ay
åĩ º
N F
Ġlabor atory
Ġintegr ated
ÑĨ Ð¸
Ġ9 0
Ġf abric
el ing
Ġtechn ologies
Ġorig inal
Ġsubstr ate
ãĤ Ĵ
Ġsec urity
ac hed
Ġco ord
Ġfe ature
C om
Ġb ul
3 6
L e
mit ted
Ġw er
Ġal c
Ġmodel ing
ar ak
Ġgener ally
é ¢
Ġ Ð½Ð°
Ġ âĪĴ
3 8
enc ing
Ġdur ation
ĠC T
m o
Ġthick ness
ĠE r
S D
Ġfil ms
Ġtemper atures
N P
Ġpar allel
Ġp ut
r an
E C
Ð¾Ð ¹
Ġc ust
Ġ Ú©
oc ard
9 9
te in
Ġteac hers
Ġrequ ires
al i
ay a
Ġf ul
Ġd aily
ĠD ep
m en
Ġh ome
truct ure
ï¼ ī
Ġl ater
F rom
D ata
Ġv ivo
é« ĺ
hes ized
è¦ ģ
as il
it a
Ġme et
m od
Ġhydro gen
ĠRes earch
ï¼ Ī
ì ĸ
Ġres tric
Ġl ed
st ate
Ġor al
u v
Ġf ores
Ġqu ant
le vel
Ġn m
l ich
ines e
B oth
a im
v ious
Ð¾ Ñģ
Ġw ays
Ġh ours
Ġinhib ition
Ġì ľ
Ġder iv
ĠÎ ²
Ġaccur ate
Ġmat hem
Ġindustr ial
Ġcogn itive
ĠØ¯ Ø±
Ġmolec ules
Ġimmun e
Ġprot ection
Ġv ary
ĠA D
d es
Ġmet ast
Ġass ay
Ġdiab etes
Ġprol if
l ob
Ġ2 2
Ġd est
Ġn itro
b s
åĲ Ī
od ing
na ire
Ġs ulf
Ġ3 5
in ity
Ġreg ulation
tiv o
Ġd ies
Ġb es
is ions
Ġres olution
Ġsim ultaneous
Ġrec onstr
Ġestim ate
ism s
Ġre nal
ag ement
u a
ot t
isc hen
id ity
Ġfam il
Ġdistrib uted
P L
ĠS ystem
ĠUn ited
Ġlead s
ç º
Ġdis orders
Ġmix ed
Ġpl at
un t
Ġd ry
p s
Ġspectr um
Ġbenef its
ink ing
6 5
Ġdo uble
Ġv an
or r
os a
ne y
c ion
Ġloc ation
Ġun certain
å ī
Ġw a
Ġtreat ments
if ically
Ġinj ection
ĠEurop ean
Ð ±
ä¸ Ĭ
old s
y ing
Ġon line
ĠHe alth
M D
Ġabs orption
Ġk el
Ġreg ional
ĠA g
Ġcountr y
Ġy et
ìĹĲ ìĦľ
um n
Ġsoci ety
Ġnon linear
ì ĺ
Ġreduc ing
Ġp air
Ġun ivers
Ġcon cep
Ġep id
Ġst ages
. )
eren ces
Ġl ate
Ġfin ite
è ĩ
ĠS T
is hed
Ġb il
iti z
äº İ
Ġpartic le
abil ities
mon ary
Ġinter face
Ġinstr ument
Ġgluc ose
Ġn urs
or ation
æ ²
Ġwas te
y le
Ġper t
Ġbuild ing
M ETHODS
Ġconstr ain
if est
Ġapproxim ately
ìł ķ
ë ĵ
Ġsc ores
in ated
Ġid enti
it o
Ġas ym
Ġcoeff icient
Ġadap t
Ġhal f
Ġmethod ology
Ġus ually
Ġoper ating
Ġsitu ation
ĠØ ±
Ġconf igur
em por
Ð ¶
app ing
Ġdivid ed
u ed
I m
ers hip
Ġtr ack
Ġcardi ac
Ġs at
Ġy a
on omic
ell a
Ġimplement ed
èĥ ½
Ġtiss ues
ĠM od
Ġa er
Ð° Ð½
N T
Ġsc en
ë ¶
Ġstim ul
g ed
é ĥ
et te
Ġ2 6
S im
Ġpre m
Ġter hadap
Ġsc an
Ġlear n
à¸ Ļ
Ġcomp et
d ing
Ġconn ected
ere nt
d o
Ġmob ile
Ġep it
l ar
Ġsim ulations
am s
Ġp an
Ġrecomm end
Ġt w
Ġrecogn ition
Ġal most
ĠG e
Ġwer den
ip her
Ġacc el
al t
ĠSt ud
Ġcl ose
il s
Ġem ission
en ed
Ġm a
æľ ¬
Ġco ver
Ġrep e
Ġth in
Ġa us
E G
Ġan tig
Ġal ter
Ġact ual
Ġsign als
n i
Ġa k
Ġim plications
en ge
Ã§ Ã£o
ĠH IV
Ġre actions
Ġloc ated
Ġsens itive
Ġj oint
Ġf ace
Ġrob ust
ĠCh inese
I P
ãģ Ł
Ġdifferen tial
Ġdis ch
è¿ Ľ
Ġfundament al
Ġal k
Ġmat ter
Ġâ ī
Ġcontrib ution
S O
ut h
Ġon t
Ġeffec tively
E P
ĠS e
Î ·
Ġad ults
ĠB e
Ġp a
sc ale
Ġgr an
Ġstr ains
ogene ous
Ġcollec tion
Ġgrow ing
l ast
Ġeduc ational
Ġmak es
Ġh ar
Ġagr icult
Ġcan not
Ġh ost
Ġs el
Ġcontrib ute
Ġrep orts
ere s
Ġadv anced
Ðµ ÑĤ
v ascular
Ġpredic tion
Ġtum ors
Ġdeliver y
Ġgo al
Ġcor on
Ġplat form
Ġsuff icient
Ġprog ress
Ġsw it
ë °
oc al
Ġdistinc t
Ġcell ular
Ġfix ed
s k
Ġmic ros
ĠN ational
S ince
O B
Ġprof ile
Ġac cept
ge b
Ġdepend ent
Ġacc oun
ìļ ©
Ġunder lying
Ġper m
H E
Ġs low
is i
s up
u ff
Ġne ural
Ġs istem
ĠÐ ·
Ġcap ital
Ġv ide
ä¸ ª
Ġ7 0
l ig
ä ¿
ë ł
ok ing
Ġmo vement
t t
Ġprog n
Ġequ ip
Ġcirc uit
Ġengine ering
ox y
Ġe f
Ġquan tif
ot rop
Ġcompos ite
ment e
il t
ĠA p
Ġdep th
om as
ĠP ol
v ari
Ġmach ine
7 8
os cop
Ġestim ation
Ġref er
roscop ic
Ġful ly
Ġsuccessful ly
Ġagre ement
Ġm ental
ist ered
ec u
Ġnucle ar
3 2
ĠR NA
S ome
Ġì Īĺ
ĠN e
Ġw ar
Ġsignific ance
s ide
ĠAs s
Ġet c
Ġdeterm in
Ġs i
ĠN a
Ġobserv ation
ol ved
reat ment
ent er
ĠP er
Ġob ject
Ġflu ores
ĠP D
Ġpredic ted
Acc ording
Ġsis wa
Ġwh ose
ãģ ¨
P h
Ġ+ /-
Å ¾
Ġstud ent
i vely
Ġt id
Ġintegr ation
ä¼ ļ
Ġpath way
Ġreal iz
j i
C o
Ġm il
Ġconc er
åº ¦
D uring
Ġac et
Ġem o
ç ¨
f r
as ter
Ġresp ir
Ġp as
ç» Ħ
Ð¾ ÑĤ
Ġde pos
go ing
Ġang le
] ,
Ġsus p
è µ
i O
Ġback ground
Ġs ont
Ø§Ù ħ
Ġe g
ä¸ ļ
Ï ģ
u z
Ġh arm
Ġto ler
iss ions
4 8
Ġposs ib
Ġstrong ly
Ġarr ang
Ġret urn
L A
ut ing
Ġg et
ç» ĵ
Ġimpro ving
u ary
en n
Ġsk ills
5 3
Ġass emb
Ø§Ø ¯
ĠSt ates
Ġam ino
Ġ \
ce ed
Ġgen der
acion es
un ic
g roup
ĠIn stit
Ġbound ary
Ġat tit
Ġtr ials
ĠØ ´
f ree
Ġì Ħ
tr al
** **
Â Ń
Ġy ou
ib ri
Ġë ³
Ġocc urs
oc ation
h r
in i
Ġchar ge
Ġbel ow
Ġk ep
Ġo d
Ġj e
c m
ĠC u
Ġhe av
Ġpers pective
ibr ation
à¸ ģ
Ġcon clusion
com p
jec tives
Ġs qu
ak s
i et
B P
A p
m l
Ġex change
Ġt urb
Ġro ot
Ġcommerc ial
Ġabs ence
Ġg ain
Ġun its
Ġalc oh
æ ı
Ġs ector
å® ŀ
Ġg el
ul s
R T
ĠÙ ĩ
Ġdis pers
Ġfe as
o ir
i ents
Ġpar tial
m al
av ity
K ey
Ġdi ameter
Ġfib er
m osp
ìŀ Ĳ
Ġh or
Ġdeterm ination
plant ation
Ġmicro b
çİ °
Ñĩ Ðµ
6 7
Ġextr action
ĠR eg
Ġsuggest ing
Ġresour ce
Ġappear s
Ġelectr ical
er y
Ġab normal
S M
Ġ2 7
Ġmic roscopy
ĠEng lish
H z
Ġacid s
Ġtechn ical
ç Ń
ë¦ ¬
Ġof fer
g ing
ç ©
as ons
ament o
Ã ½
Ġstatis tically
ra ft
Ġinter val
Ġnan op
Ġcommon ly
Ġo ste
s w
u f
Ġau x
oid s
d ed
Ġm RNA
Ġass ist
Ġspectr a
am an
Ġdiff usion
Ġk on
Ġquant um
ĠM an
Ġadvant ages
od ium
Ġt un
Ġat tr
Ġp end
Ġclim ate
k r
I M
z o
êµ ¬
Ġdetail ed
3 7
Ġexc ell
c hed
Ġscre ening
4 4
Ġz one
ot ox
at her
Ġper f
P C
ari os
Ġvers us
Ġspect roscopy
or g
i ation
Ġor d
Ġagg reg
Ġmom ent
ë ¬
å ĳ
Ġb ank
Ġv o
. -
um b
R E
ìĹ ¬
Ġhypot hesis
Ġem p
Ġk ine
O L
Ġpercent age
Ġtr ial
op ro
ac ellular
ai res
ati ent
Ġl ist
æ Ħ
Ġ iron
au x
ion e
Ġnitro gen
Ġ4 5
Ġreg ular
Ġco h
Ġelectr ic
cep tib
Ġs ich
ay er
Ø µ
Ġfocus ed
ti le
Ġdegrad ation
m ark
Ġê ³
ìĭ ľ
Ġunder went
Ġv acc
Ø§Ø ª
å ¥
Ġë ĮĢ
cl os
åľ °
Ġleg al
P en
Ġreli ability
Ġest e
d s
Ġsubsequ ent
Ġnum bers
Ġprepar ation
Ġexp ans
9 8
Ġminim um
Î º
Ġcorrec t
ag ai
on om
in ning
ox ide
ĠS outh
p e
Ġprob ability
Ġremov al
Ñ Ī
per iment
3 1
s ch
Ġanal og
f l
Ġsub stit
Ä Ľ
Ġlong er
Ġox ide
Ġchall enge
Ġtrans formation
Ġrad io
Ñ ī
Ġcurrent ly
Ġad equ
Ġdivers ity
Ġinstit ution
Ġì §
Ġcho ice
idad es
ent e
Ġto m
r al
om atic
Ġocc up
os ter
p o
m g
Ġbas eline
Ġcons ists
Ø ·
Ġthrough out
Ġcon j
br al
Ġb en
ĠD r
ãģ Ĺ
i ples
Ġê µ
ven tions
å ĵ
I f
Ġtra ff
t es
ĠS ur
ĠC H
Ġconf lic
oc c
ĠJ apan
Ġt it
Ġconcep ts
Ġal one
Ġmet h
Ġin duc
Ġs in
Ġequ ival
Ġvari ations
Ġcomprehen sive
l am
C omp
Ġprofess ional
Ġacad emic
rom b
Ġcryst all
éĩ į
end o
Ġt aking
Ġfrequ ently
Ġj us
Ġexam ples
Ġv ascular
F irst
Ð¾ Ð½
Ġindic ates
èĢ ħ
Ġt ip
f old
ag on
ment al
R S
aj aran
Ġmem ber
Ġo c
Ġdiscuss ion
ung an
a tical
Ġtyp ical
z a
Ġn as
Ġcent er
Ġo le
Ġper ipher
Ġ Ñĥ
Ġext rem
Ġprom ot
ow er
Ġhyper t
Ġempir ical
æĹ ¶
Ġcont ain
Ġenti re
our nal
Ġflu x
Ġrel ig
ub lic
ë ©
Ġmal ign
Ġab und
Ġlay ers
b al
Ġres erv
Ġcomp an
Ġbenef it
Ġvi ol
Ġform al
Ġprom ising
D e
ste ad
Ġth resh
ire ct
Ġ ions
Ġanim al
B ut
Ġh orm
Ġqualit ative
ell ig
´ Ģ
Ġexerc ise
Ġdis order
Ġf ish
Ġp aren
Ġd if
Ġinv as
S C
Ġvehic le
uc k
Ġcomplex ity
Ġmark ed
Ġarter y
Ġass ign
Ġexist ence
Ġal s
im m
Ġw ire
Am ong
ãģ ¯
M ost
h a
Ġset s
Ġcryst al
l en
Ġext ended
j ected
The n
Ġre act
Ġbacter ia
Ġquestion naire
Ġcol or
Ġsuper ior
Ġk g
I F
Ġinter medi
lo ad
Ġmajor ity
Ġprop ag
ĠA t
on tal
o tic
Ġve get
Ġya itu
c ia
Ġë ¶
Ġap op
åı Ĭ
cr ib
Ġposs ibility
im p
x y
Ġprotoc ol
Ġhas il
O H
ont rol
x i
Ġsequ ences
Ġsol ar
Ġexcell ent
il ibri
u ce
Ġinvol ving
plic ated
and id
se ud
Ġj ud
Ġì ĭ
b l
Ġol der
est inal
ĠA ND
an es
or a
re tion
Ġcent ury
Ġecon omy
ĠI II
Ġultr as
Ġpropor tion
t ered
Ġrespons ible
æ Į
plic it
O ver
Ġat mosp
Ġst em
c hes
Ġexpos ed
c are
Ġanaly tical
il os
Ġpre vention
Ġc rop
l ier
ain e
n el
oc r
ST RA
N S
íķĺ ëĬĶ
æ ¯
U S
Ġcol le
Ġsur faces
P atients
3 9
Ġser ious
Ġgre en
l in
Ġste el
Ġv it
Ġexhib ited
Ġp ed
Ġl iving
R e
a ut
D L
í ĺ
Ġdatab ase
Ġcarcin oma
um an
i ology
Ġproper ty
w ide
ä¸ »
Ġal ways
Ġsmall er
Ġarchitect ure
Ġins ulin
Ġhistor ical
Ġintr a
ĠA ustr
Ġw ords
Ġmet hyl
ç ł
Ġ201 0
om an
um m
Ġcr uc
Ġsignal ing
Ġcomplex es
b and
CONCLUSION S
ir us
is a
å· ¥
Ġein er
ar uh
Ð² Ð°
Ħ ì
Ġ4 8
Ġgl ass
Ġun til
Ġas pect
Ġconfir m
Ġar tif
Ġr ural
ce ption
Ï ĥ
ĠP l
O D
Ġpharm ac
ici ans
Ġf all
Ġapp e
Ġhe ight
in ical
pos ed
Ġcon v
Ġreview ed
el ines
Ġresearc hers
end s
6 8
Ġmean ing
t ake
Ġadd ed
ĠØ ³
æĸ °
Ġapp arent
ë ĭ
ĠI m
J ECT
ros is
Ġm is
os ity
ĠC r
Ġindic ating
ĠB l
Ġpul monary
Ġc ode
Ġeff orts
Ġsup ple
otyp es
O f
Ġsus ceptib
A r
m ath
Ġtempor al
A nal
Ġm arg
å± ķ
Ðµ ÑĢ
Ġcoun ter
ìĸ ´
Ġman ner
Ġp od
Ġintro duc
z en
iment o
Ġcon d
Ġexperi ences
j ection
r ich
Ġprolif eration
et a
D M
ç Ĺ
Ġd op
ant es
è¡ ¨
Ġw el
Ġdefin ition
Ġf ed
Ĥ ĺ
6 4
Ġsynt hesized
Ġcont ains
Ġpolic ies
ç ¤
ĠA m
Î µ
Ġf ung
Ġret ros
Ġ âĪ
Ġfu el
Ġcoll abor
Ġst abil
Ġnanop artic
ĠD es
Ġad oles
Ġanal isis
Ġstep s
EN T
Ġf ill
an o
Ġco ol
Ġ2 9
ilibri um
Ġar t
F e
Ġtr ig
Ġa ware
Ġp ig
Ġprincip al
Ġfor ward
s on
ah an
åŁ º
C E
at en
Ġwork s
g u
ç «
Ġmid dle
ç Ļ
Ð¾Ð² Ð°
c hem
ç ´
c arb
Ġd raw
Ġexpl ain
Ġc amp
Ġs le
Ġfer til
Ġbr ief
ren e
L es
Ġtrans l
Ġor th
Ġdil akukan
Ġv ector
Ï Ĥ
od ynamic
Ġatt ack
ove red
is p
ten ance
ac he
Ġdepend ence
Ġre form
Ġmo ve
Ġsp read
ç ®
le y
Ġrepro duc
Ġad verse
5 5
Ġsex ual
ç ³
Ġcard io
ç» ı
Ġpers ist
ĠDep artment
ur g
v is
im er
Ġcalc ium
å® ļ
cont rol
Ġal pha
ment ed
Ġsepar ation
Ġ19 7
Ø ®
ĠU S
Ġadvant age
et ah
N O
Ġits elf
ĠN O
Ġc u
4 2
Ad dition
Ġav ec
Ġinf ections
Ġpos iti
Ġc andid
Ġprom o
Ġun iform
ac ing
Ġrem ain
Ġmed ian
ex p
æ ĥ
ĠE duc
ul ating
Ġconstr uct
ĠInd ones
Ġfind ing
Ġsub s
Ġk id
Ġun known
Ġspec imens
Ġc ity
Ġpop ular
Ġstim ulation
Ġdiagnos ed
inf or
ĠG en
Ġsl ight
ĠÂ «
ĠÙ ģ
F T
here nt
Ġcre ate
Ġconstit u
w ith
I G
Ġì ķ
Ġcommun ities
A c
Ġmod erate
Ġk er
Ġbal ance
4 7
Ġdiscuss es
Ġtraff ic
Ġestim ates
Ġutil iz
Ġfem ales
Ġirr adi
Ġg ap
Ġj ust
Ġnam ely
åħ ¶
åĬ ¨
Ġtid ak
or i
P re
Ġphenomen on
Ġp ip
Ġpregn ancy
r action
¡ °
Ġenviron ments
h ood
Ġsystem atic
Ġt el
H R
Ġmeas uring
Ã Ĺ
de f
e tic
íĻ Ķ
Ġdescrip tion
Ð¼ Ð¸
Ġpl ays
Ġr ais
Ġhy d
Ġcou pling
Ġad en
Ġp em
ocy te
Ġsp in
4 9
id ed
Ġvide o
Ġoper ations
ot a
6 6
Ġs odium
Ġalcoh ol
f unction
æ ¸
n ic
Ġmod es
Ġt ro
5 7
Ġd iv
Ġwork ers
io tic
ond r
p oint
t osis
Ġequ al
Ġm i
Ġcomple t
Ġprinc iples
Ġv ac
Ġcou pled
il m
Ġdig unakan
ĠD ec
éĩ ı
Ġl atter
Ġl ibr
Ġmetab olic
Ġbet a
JECT IV
ãģ §
Ġconstruc ted
ap a
II I
uj uan
ĠÐ¿ ÑĢ
tro duction
Ġspectr al
Ġc reated
Ġconc rete
Ġpath ways
Ġrad ical
M T
í ĸ
Ġ200 0
Ġrapid ly
Ġprov ed
ĠP ar
Ġdep ression
Ġco ating
Ġthe sis
Ġdifferenti ation
Ġcon version
wh ich
³ Øª
Ġcon cluded
P T
et hyl
Ġcompr ises
Ġexpans ion
Ġanalys ed
Ġman ifest
Ġd ial
Ġb ag
Ġtas ks
Ġreli able
Ġgener ate
Ġcomput ational
Ġprog ression
Ġmedic ine
in ations
Ġob je
ul um
Ġse ems
Ġt ens
Ġinflamm atory
ĠØ ¹
s ection
Ġb ed
é ģ
Ġwh ite
Ġph ases
Ð» Ðµ
Ġob jects
ig ure
Ð½ Ðµ
en ous
Ġread ing
ĠI g
Ġbel ie
l s
r s
ac ial
Ġdeterm ining
o ud
è¿ Ļ
à ¤
Ġtr ade
el t
Al so
Ġ201 3
Ġan tic
Ġfil ter
R D
ab el
Ġr ise
Ġatt emp
Ġd ip
Ġbah wa
Ġbacter ial
ĠM e
Ġpre f
Ġinter ventions
Ġv entric
Ġeas ily
cho ols
Ġdimens ions
ĠG erm
Ġs ense
Ġcom pl
er ative
sc ill
Ġdeg rees
Ġinstit utions
Ĭ ¤
Ġlip id
ting u
Ġreson ance
Ġthough t
us ed
Ġcompan ies
Ġprofess ion
im en
ĠA nal
n ik
ri ers
M e
ig er
le g
æ ´
ti z
ingk at
yro id
Ġimm edi
Ġcoron ary
Ġm ales
A A
ĠTr ans
Ġind epend
s ts
Ġdat as
S o
Ġag ed
Ġsupport ed
Ġ201 2
Ġcol umn
Ġprec ip
Ġhab it
un j
ĠO F
op s
ĠR ep
ard s
Ġmix ture
ĠZ n
8 5
Ġsh ift
es tic
ĠØ¨ Ùĩ
Ġv ar
Ġexp ect
ì Ĥ¬
ĠC om
Ġmigr ation
ĠS i
ogen ous
t est
Ġinflu enced
Ġrati os
Ġantib ody
V ID
Ġprom ote
éĿ ¢
Ġcur ve
Ġequip ment
Ġfract ure
æĿ ¥
j et
in n
anc er
D NA
è ½
Ġr ights
Ġst ream
b le
å¤ ļ
et al
ul ti
Ġsumm ar
Ġoxid ation
P r
Ġg ives
St ud
Ġin duction
ĠI V
Ġse e
Ġpres erv
Ġsym met
st ream
Ġex cess
ĠT e
Ġbe i
et ry
Ġsatisf action
f low
Ġmetabol ism
Ġ3 2
Ġrepresent ation
Ġg est
AB STRA
An d
Ġecon om
an i
åĬ Ľ
Ġfeed back
ac tivity
atter ing
Ġpred om
S ub
y nt
Ġexam ines
Ġs pl
al a
Ġrecept ors
Ġp ure
Ġerr ors
Ġ3 1
Ġmut ations
ÙĪ Ø±
read y
Ġprincip le
Ġ201 4
in der
ĠP T
Ġvers ion
Ġ201 5
P R
Ġ201 1
ëĲ ĺ
Ġmorph ology
Ġs ound
all ed
Ġinhib itor
{ \
B S
Ġcommun ic
igh ted
Ġw ild
S uch
Ġinf er
Ġst ro
è¿ ĩ
Ġpotenti ally
in in
Ġv ul
åĲ Į
ti k
ï ¿
a it
Ġmain tenance
el ajaran
ant o
é ĺ
aj ar
/ /
Ġcont ents
Ġm other
Ġvari ability
Ġdimens ion
ch ron
ì Ļ
Ġcon cl
Ġprof iles
Th ree
Ġw ird
Ġ3 6
il ai
Ġìł ľ
4 3
b re
Ġext ensive
0 2
Ġemb ry
Ġcruc ial
Ġse em
à¸ £à¸
S i
Ġs hel
un k
Ġ Ð°
ug e
ne um
4 6
ĠC ar
Ġelec t
ä¸ ĭ
Ġperipher al
Ġconsider ing
ativ a
Ġp ay
og raf
ip s
Ġpost operative
ph ase
Ġdis tingu
ìł ľ
Ġr ing
åĪ ¶
t hen
Ġrespir atory
Ġdis cr
ĠC an
Ġcalcul ations
ï¿ ½
Ġp al
P V
Ġmark ers
) :
atic s
Ġcalc ulation
Ġv or
ĠMet hod
ec ause
Ġad hes
Ġver tical
c a
ir al
Ġdec isions
Ġelev ated
æ ±
ãģ ¦
Ġdom inant
Ġclass es
Ġexp and
Ġ3 7
Ġcar ry
Ġcl aim
Ġdist urb
Ġ200 8
Ġs ter
ic tion
Å Ļ
Ġsed iment
Ġpar ad
u ation
C V
Ġc reat
å »
Ġdepend s
as an
Ġphys iological
Ġsm o
any a
ç ľ
Ġspec ifically
Ġe ight
Ġneur ons
Ġoccur rence
Ġto ur
Ġsem i
U ND
ont in
Ġaccum ulation
éĥ ¨
Ġre asons
Ġchang ing
omet r
Ġadop ted
Ġsoci o
Ġrec ur
Ġcap able
Ġter r
ĠN orth
um en
Pen elitian
anc re
Ġest a
Ġpresent e
Ġperiod s
Ġreflec t
é ħ
Ġcr ack
ĠAustr al
Ġcomplet ely
id ine
Ġm ais
K G
Ġantib odies
C F
Ġj ob
Ġvari ed
Ġw ord
ì ĥģ
OB JECTIV
Ġal ready
Ġcap ture
ic ul
yn am
M L
j adi
Ġcomm it
Ġ200 9
Ġshow ing
Ġp arent
Ġo scill
Ġgr ade
Ġsc hed
Ġintro duction
ç Ĥ
Ġro om
Ġbre ak
ph al
æı Ĳ
s s
Î ³
Ġads orption
æĪ ĳ
och ondr
Ġhor iz
Ġc es
p en
Ġb a
ac ional
Ġdur ch
Ġse ek
âĢ ²
Ġê ¸°
Ġn erve
Ġang i
Ġidenti ty
ÑģÑĤ Ð¸
Ġinter v
Ġdisch arge
on ia
Ġ7 5
Ġinhib ited
Ġrol es
Ġmin or
ÛĮ ÙĨ
Ġconstrain ts
os en
ici ents
res ents
re p
åı ¯
Ġl ateral
tiv ated
Ġtra um
à¸ Ń
Ġrece iving
Ġun s
Ġw ur
Ġadj ust
ĠM o
Ġm ouse
åħ ³
Ġse ven
p ing
Ġdos es
Ġfamil ies
Ġthresh old
anc ing
ac oes
Ġelectro de
th al
íķĺ ìĹ¬
Ġsim ulated
Ġgr ain
Ġpriv ate
y es
9 7
et e
Ġincreasing ly
Ġexpl o
b or
Ġp i
Ġmin eral
Ġon set
ĠG roup
Ġlo ok
amm a
Ġul tim
ĠC omp
ĠJ an
iv il
Ġcoh ort
Ġantig en
Ġfocus es
Ġm uc
Ġrecomm ended
Ġpsych ological
Ġcomp ens
Ġsol ve
Ġa qu
Ġide a
p ol
Ġre vers
Ġfore ign
Ġsever ity
oles ter
Ġal le
ĠE m
Ġ íķ
Ġle uk
Ġclass ical
aci Ã³n
Ġbel ong
Ġrep air
Ġh ier
Ġcomple ted
Ġcomple ment
Ġinvol vement
ac et
æĺ İ
ati tis
Ġan ten
Ġear lier
Ġclus ter
Ġstandard s
l ik
Ġne xt
v as
ãģ Į
ect omy
S pec
Ġmagn itude
åĲ İ
Ġpl ane
Ġs chools
hen yl
Ġbir th
Ġfores t
Ġconsider able
ĠT echn
n is
G A
ari ate
Ġv ess
4 1
om ers
Ġde position
olog ia
Ġl ib
Ġn odes
ing u
Ġapop tosis
D A
Ġro ad
Ġf ur
Ġn os
Ġextract ed
f ort
Ġp ac
k en
P O
c ast
Ġ entr
Ġconcer ning
Ġchann els
ĠA L
Ġup take
Ġmathem atical
in ate
9 6
Ġcardio vascular
ĠN i
ad y
c an
Ġpro jects
Ġfo i
f ol
Ġdec om
Ġcoeff icients
b en
hy dr
çī ©
Ġd ed
Ġon es
Ġf re
Ġoff ers
Ġheav y
Ġth romb
Ġcar acter
per m
Ġr ules
Ġseb agai
Ġre infor
Ġens ure
Ġexperi enced
Ġemb ed
ac r
ic os
Ġr ig
Ġscan ning
Ġ Ã©
Ġfav or
Ġinterpret ation
Ġì Ĥ¬
Ġh ot
it os
åĪ °
ĠM S
Ġchrom at
Ġel astic
Ġbec omes
Ġrep resents
u est
Ġre tr
Ġpul se
v a
B C
é ķ
em pt
Ġ ub
es ter
Â »
Ġcle arly
ep t
Ġchrom os
tr ation
Ġint ellig
à¹ Ģ
Ð» Ð°
tid es
Ġdi verse
tain ing
Ġd ual
ì ²
her ic
Ġcompar ing
Ġnanopartic les
Des pite
at ch
Ġj o
it ud
ast ro
d is
çł Ķ
Ġan sw
Ġeff ort
L E
Ġsur round
ilos oph
åħ ¨
ĠN o
ë §
Ġmet od
Ġle af
Ġprim arily
Ġw r
Ġsh ock
ãģ Ħ
ĠH ospital
Ġconf idence
Ġac tions
P er
end e
w ise
Ġlarg ely
w ave
as a
d uk
M any
Ġperce ived
Ġm ol
umm ary
Ġmanufact uring
ï¼ İ
Ġconsequ ences
Ġp ump
Ġmod ule
ç ĸ
Ġm ess
ever al
Ġole h
e ed
U T
Ġexpl ained
Ġgu ide
Ġbl ack
ĠØ§Ø ²
Ġmon th
ul o
Ġsimultaneous ly
ç¨ ĭ
Ġc a
Ġparticip ation
Ġst at
Ġhypert ension
Ġstro ke
8 8
oci ation
Ġche ck
ar th
ĠIndones ia
Ġ200 7
5 6
ify ing
Ġd ib
ç³ »
Ġpresent ation
ac tic
I s
£ ¼
B ecause
ĠâĢ Ķ
oph il
- (
æŀ ľ
Ġparen ts
ĠL a
B AC
· ¸
g ence
ire c
Ġmet ode
Ġinc ome
Ġ201 6
Ġshe ar
ugh t
Ġunder st
Ġar ray
Ġplas tic
met hyl
T A
id os
ĠP A
Ġfrequ ent
Ġchang ed
y ond
Ġadap tive
Ġfa ult
ect ors
Ġfor ces
Ġcont empor
Ġin ner
Ġam oun
Ġequival ent
b it
Ġsle ep
Ä ±
Ġsubst an
Ġa f
Ġro ut
f all
Ġmy ocard
a ire
ĠL A
ĠG u
Ġto o
Ġ ÑĢÐ°
Ġst ock
u its
por ts
ĠB o
Ġsim pl
ABSTRA CT
Ġvary ing
ä¹ ĭ
åĨ ħ
Ġkid ney
Ġc am
xi ety
Ġm ap
Ġadj us
Ġst ation
ort ex
Ġpr ice
Ġcirc um
ro gen
Ĩ Į
y cl
Ġprob ably
S econd
Ġload ing
Ġequ ilibrium
Ġlimit ations
ill ary
å ¢
ti r
ĠÏ Ħ
ìĺ Ģ
ĠE l
ë ²
ĠìĹ °
ĠEurop e
em a
went y
Ġguid elines
Ġimp acts
Ġm amm
Ġt ree
Ġbehavi ors
ac ent
Ġemph as
Ð½Ñĭ Ñħ
Ġex act
Ġsaf e
is ition
ik i
Ġorient ation
Ġdef ects
Ġintermedi ate
edi atric
Ġlink ed
Ġend ot
¤ ĳ
v est
Ġartic les
Ġde formation
tim es
e i
or tic
Ġmit ochondr
ecu tive
Ġins er
Ġexhib it
Ġsec tions
Ġcompos ed
Ġbe yond
Ï ħ
Ġa tr
è ī
ë Ł
Ġear th
í ĥ
rough t
RO UND
os tic
ot al
Ġrandom ized
ec onomic
Un der
ak en
Ġext ension
Ġselec tive
Ġdistrib utions
ĠR uss
d own
d as
Ġresid ual
ĠInd ia
P E
M E
ĠInstit ute
w ords
er ated
ap or
Ġexpl ored
el ves
Ġn ode
Ġins ide
ient es
Ġvir tual
Ġen f
Ġpur pos
åº Ķ
Ġinhibit ors
ĠS D
èĢ Į
____ ____
Ġdiff raction
Î »
Ġchem otherapy
Ġth reat
Ġcharacter ization
0 3
Ġth or
( -
KG ROUND
5 8
Ġs and
Ġcontrol ling
Ġtarg ets
ĠM on
Ġdes pite
Ġdecre ases
Ġat ten
Ġp ancre
Ġtranscrip tion
os ystem
6 3
Ġt able
Ġrem ained
ĠØ ¢
am ide
Ġsystem ic
Ġacc omp
çĽ ¸
ĠØ§Ø ³Øª
ç© ¶
Ġsc attering
que ous
Ġt et
6 9
ĠS up
ĠIn ter
ĠM al
ãĢ Ĭ
Ġcl oud
Ġb ud
Ġtrans f
Ġst aff
Ġapp lying
Ġconfigur ation
es ar
Ġconte x
Ġb le
c hemical
ĠÐ ±
ãĢ ĭ
Ġorgan izations
Ġe te
ĠÙ ¾
Ġt ek
c ut
R F
Ġpl aced
Ġa o
Ġsec ara
Ġtub e
M C
og ram
O C
Ġallow ed
Ġkin ase
S everal
Ã© s
Ġnot ed
Ġn or
é ļ
---- ----
Ġsh are
èĩ ª
Ùĩ Ø§ÛĮ
u ate
isc he
aj o
Ġadmin istered
Ġed ge
se but
ì ¹
Ġfr ame
Ġp p
Ġposs ess
Ġconn ection
ati g
ign ific
Ð» Ñı
Ñģ Ñı
ë ª
ow s
Ġd ate
medi ated
Ġsmo oth
Ġbu ilt
ë Ŀ
Ġ3 8
Ġtr i
ĠSt ate
Ġtrend s
H asil
Ġappe ared
Ġ200 5
Ð½ Ð¾Ð³Ð¾
åŃ Ĳ
row n
Ġ3 3
c re
Ġrisk s
ĠUn ivers
Ġpemb elajaran
Ġagricult ural
O s
oh n
Ġint ake
Ġcompar able
æľ ¯
Ġ200 6
v o
Ġfollow s
Ġinterview s
f lu
ark an
i ere
b a
Ġsh ap
Ġbec ame
Ï Ģ
Ġindic ators
Ġis chem
ï¼ Ĥ
Ġv isc
Ġenter pr
ĠE L
Ġinflamm ation
ol id
ie ties
I A
ak t
d a
Ġdepend ing
Ġ ~
ç§ į
ir i
ĠIntern ational
Ġz e
7 3
V A
Ġdec ades
Ġclos ely
ĠÃ Ĺ
Ġpro ve
Ġdisc ipl
Ġan at
Ġinterest ing
ob ic
Ġì ĺ
Ġcor por
Ġs oc
Ġfrequ encies
Ġeas y
Ġs ind
BAC KGROUND
ÑģÑĤ Ð²
Ġper me
e es
Ġapp ly
Ġavail ability
l ands
ĠS w
at t
äº §
Ġconcept ual
Ġinvest ment
Ġel imin
Ġatt empt
Ġregul atory
6 2
Ġtox icity
Ġwe b
ĠC ons
Ġrandom ly
id ge
Ġrecord s
Ġperce ption
Ġw aves
ig ation
ĠA T
è °
å» º
n g
ĠB i
P s
Ġtak es
ar row
ĠPro gr
Ġcomp any
Ġan terior
Ġinnov ation
Ð½ Ñı
Ġle t
ĠC al
m ol
om ing
u ous
Ġter sebut
ch ang
ĠR ec
og lob
Ġser ve
ak es
v alu
ion es
Ġclos ed
Ġdom ains
Ġtrad ition
Ġdef ine
Ġlim its
Ġm ild
Ġin g
ur ance
Ġinvol ves
Ġrec r
Ġf usion
Ġcult ures
æ ĭ
etah ui
ĠØ¨ Ø±
Ġsa id
Ġmod ul
Ġpolym orph
Ġcontrol ler
ĠÐ ³
ir ing
Ġconcern s
ĠP C
Ġob vious
up akan
Ġd rop
Ġmut ation
s ens
s er
erg ic
Ġsh if
Ġrel ax
Ġcont ained
Ġp neum
Ġaff ects
olester ol
Ġpropos es
Ġg erm
r itis
ch ar
Ġparti r
Ġan omal
lic hen
Ġf resh
ÑĩÐµ ÑģÐº
å® ¶
Ġê² ĥ
Ġb is
Ġte am
periment al
ro g
Ġfluores cence
Ġimp air
Ġr ich
Ġh az
Ġactiv ated
w w
å Ģ
ĠC S
Ġ ure
ç ¬
é Ľ
Ġman ip
h an
Ġspe ech
ific ations
Ġconsider ation
Ġgreat ly
Ġhe ating
Ġutil ity
Ã Ł
ke it
u el
Ġb ott
7 7
d isc
H D
ur ies
ç ķ
Ġ {
ä» £
ol low
Ġpor tion
Ġunderst ood
im ination
oci ated
Ġse a
Ġw et
Ġaut o
l us
Ġspecific ity
id ing
P I
ëĵ ¤
Ġn arr
Ġpre fer
Ġopportun ities
Ġr ational
Ġn icht
Ġz ur
ÑĢ Ñĥ
ĠSc ience
Ġr ain
Ġreconstr uction
r ange
Ġutil ized
it ting
ìĻ Ģ
G E
Ġconsist ing
Ġsynt hetic
ob acter
Ġnumer ous
ĠCO VID
Ġcomput ing
Ġthe ories
ĠIntern et
Ġpro xim
Ð¾Ð º
Ġre n
Ġisol ates
Ġide as
H T
åĽ ł
Ġex ec
ys ts
Ġint ens
ÙĨ Ø¯
Ġsustain able
6 1
Ġconcl ude
Ġs es
Ġrec omb
æ° ´
Ġutil ization
Ġ6 5
Ġtr ue
Ñ į
ç Ł
Ġob jectives
Ġpredic tive
ect ing
Ġcateg ories
Ġuncertain ty
lec ular
m L
ĠU V
b ed
velop ment
Ġim plant
Ġamoun ts
t ors
iti g
Ġre ached
Ġintro duce
ê³ Ħ
em per
Ġsens ors
Ġinterp re
Ġide al
ë¶ Ģ
am ination
Th rough
Ġfl uct
orb idity
B A
Ġsepar ate
Ġhighl ight
Ġsal t
C ons
out hern
Ġcyt ok
æ Ļ
Ġcomp uted
Ġk em
Ġmer upakan
P U
on c
oper ation
ys ical
yp t
Ġd og
Ġenc our
Ð¾Ð ·
Ġse k
Ġdiff er
íķĺ ìĺĢ
le ts
ëĿ ¼
Ġrecogn ized
Ġle aves
Ġexpl an
Ġamb ient
B L
Ġsubstan tial
Ġs atur
è® º
} $
9 2
Ġgrad ient
Ġn itr
Ġne igh
b ar
Ġí Ļ
Ġneu tral
er r
Ġre ach
Ġim pl
0 4
ar p
Ġphot o
Ġampl itude
Ġvalid ity
ĠÂ °
Ġanti oxid
f ield
Ġd ens
ent es
Ġcur ves
çŃ ī
Ġpul s
Ġdec l
ÙĪ Ø¯
Ġar b
i ans
Ġf ine
Ġbul k
ism o
Ġmet all
iz er
Ġa queous
Ġenzym es
Ġto day
9 3
Ġ ÑģÑĤ
Ġall oy
Ġes tr
Ġcycl es
Ġout side
Ġun iversity
Ġv ision
Ġyield s
Ġar th
Ġt ah
S H
it t
ãĤ Į
Ġteac her
Ġref r
Ġtrab al
Ġ ;
Ġqu ite
Ġdom estic
å ŀ
Ġfir ms
Ġacqu isition
Ġtrans ient
Ġaffect ing
P CR
Ġ201 7
Ġtra vel
Ġthe ms
der ly
Ġrem ark
Ġes p
Ĩ µ
Ġn i
istr ation
Ø§Ø ¨
Ġthems elves
Ġcl ar
itud inal
Ġbi as
Ġen erg
çłĶ ç©¶
Ġe ye
t ures
9 4
ÛĮ Ø±
Ġfor am
Ġa uch
Ġcom e
Ġrecommend ations
id er
Ġminim al
am iento
dom inal
Ġemerg ing
Ġhum ans
Ġinf ras
IN G
Ġcere bral
C G
Ġdr iving
Ġclass ified
av a
Ġmen unj
ce an
Ġs en
Ġs ent
íķĺ ê³ł
Ġresult ados
Ġ200 4
Ġc erv
i ers
Ġrepresent ed
Ġt ec
ĠL i
und red
Ġcompar ative
Ġsch ol
ÐµÐ½Ð¸ Ñı
Ġoptim um
Ġgl ut
æķ °
E ach
l ip
Ġz ero
Ġobje tivo
ä¾ ĭ
Ðº Ð¸
Ġcomp ression
Ġan th
Ġrec ip
F A
Ġmil k
ĠW estern
ort hern
Ġtox ic
and e
Ġax is
or ter
Ġpers pec
c ons
k in
g ent
Ġann ual
ag og
çī ¹
Ġtr act
atig ue
åıĳ å±ķ
ĠPro f
Ġinter act
n en
Ġc yl
ĠC A
in ted
ac er
Ġcont ro
Ġvir al
Ðº Ð°
al an
ĠAfric a
E E
< /
Ġf al
Ġ3 4
éĢ ļ
Ġwh y
o ys
Ġext ens
Ġê° Ģ
Ġrang ing
Ġanalyz ing
Ġcop per
es ity
rom agnetic
Ġprec ision
H A
Ġev ol
Ġinvestig ations
Ġn erv
Ġpos terior
Ġfat ty
çĽ ®
M ed
ur pose
Ġmorph ological
Ġwa vel
us h
Ġwire less
ĠI N
Ġind uce
Ġan xiety
Ġkind s
t re
ëĲ ľ
5 2
ont aneous
i ance
Ġar m
Ġles ion
Ġgrow n
Ġge ometry
å Ŀ
ĠÙ Ħ
Ġfacilit ate
Addition ally
B D
ul y
åĬ ł
Ġadequ ate
D iff
Ġterm inal
Ġproduc tivity
ĠS O
Ġflex ible
Ġex plicit
: //
Ġcon form
ãģ ª
Ġdemonstr ates
Ġpro st
ir a
Ġcap ability
ĠM in
Ġenhance ment
Ġmin utes
Ġn ilai
7 2
Ġcool ing
Ġthere by
Ġartif icial
Ã¼ r
Ġcatal yst
Ġec ological
Ġr ank
y c
Ġconduc tivity
Ð¾Ð ¿
Ġincl usion
U N
Ġp seud
k t
ĠM g
r ared
m ia
Ġlow est
ro c
Ñ Ĺ
è ·
ar on
ĠJan uary
t reated
Ġk es
Ġvalu able
Ġmod ification
9 1
Ġsitu ations
Ø§Ù ĩ
Ġventric ular
M O
ell es
Ġpep tide
ul an
omet er
Ġfr uit
Ġinf ected
at ers
Ġvalid ated
ç ¾
orr h
b ih
Ġreduc es
Ġch osen
ĠS tr
ti tion
ult ural
ap se
oc hem
Ġslight ly
Ġwrit ing
Ĩ Ĵ
Ġidentify ing
Ġnurs ing
ad or
ap er
ar se
à¸ ĩ
M ean
ĠC R
Ġph ilosoph
Ġfeed ing
Ġpow der
Ġ ...
a ired
Ġv as
et erm
In troduction
ne w
Ġim ag
Ġ ................................................................
am es
Ġform ula
Ġt ail
Ġaware ness
en a
Ġwrit ten
Ġqu ad
Ġrepe ated
5 4
lec tric
ĠAfric an
å¸ Ĥ
im iento
Ġdis clos
å¿ ĥ
Ġì ĥģ
ous tic
Ġl ar
ì Īĺ
Ġst atic
Ġsupport ing
ĠK ore
8 7
Ġform ulation
Ġdys function
he rence
Ġan ne
Ġgen ome
Ġm apping
Ġfir m
Ġcur ric
ol a
Ġabs ol
Ġd ynam
c or
âĢ Ĭ
ist a
op sy
á »
Ġinflu ences
Ġbiom ass
Ġmolec ule
raz il
Ġr ule
A g
ari an
Ġbeg inning
Ġmost ly
Ġconduc t
un a
Ġon ce
Ġspect rom
à¸ ¥
ĠÃ ł
ç ¡
è ģ
æ² »
Ġne arly
l l
ater ials
Ġcompr ising
Ðµ Ð¼
ig m
ill ing
Ġhous eh
ÑĤ ÑĮ
Ġgo als
Ġf is
Ġinf ants
åī į
Ġen able
Ġphenomen a
Ġco al
ÑĢÐµ Ð´
Ġsem an
Ġclus ters
Ġmul tiv
Ġvul ner
Ġpropag ation
Ġn et
Ġn ach
o z
Ġsub jected
Ġel derly
Ġex cept
w id
Ġparti ally
Ġin stead
Ġex ists
ĠS oci
Ġpar as
B M
ĠÐ· Ð°
Ġsens ing
Ġc ours
ĠĠĠĠ ĠĠĠĠ
cep tions
8 6
p art
Ġgr id
Ġf ibr
ind a
å¼ ı
Ġchalleng ing
Ġform ing
C N
Ġcol i
te en
Ġprol ong
Ġpredom inant
Ġcol d
Ġp il
os ynt
Ġind irect
Ġc red
Ġro ck
Ġop in
Ġloc ations
Ġsc al
Ġh undred
ĠMed ic
o or
Ġpros pective
ar rol
um er
Ġst art
Ġstar ting
Ġem issions
F S
requ ency
olog ists
ĠP L
Ġmo tiv
æľ º
Ġt ent
ĠW h
uk kan
ç ½
il er
Ġfu z
OBJECTIV E
Ġl ith
Ġs ess
or ous
ra tic
opath y
em e
Ġqu ick
ĠW orld
Ġke ep
Ġr he
Ġreg en
Ġfr ont
æ Ľ
Ġclin ic
Ġretr ie
5 1
re en
Ġ200 3
Ġ3 00
Ġen ough
d ep
Ġal ign
Ġform er
p ression
â ī
Ġgas tric
Ġup d
Ġposition s
åŀ ĭ
Ġattrib uted
op ol
T E
ĠP CR
ell en
ik asi
E m
ur ch
r ane
ph osph
ĠI C
Ġen ab
Ġg al
p ed
âĢĿ ,
Ġ4 2
Ġen rol
g el
ĠE R
Ġsign s
å° ı
y z
Ġpositi vely
Ġv ic
Ġmob ility
ell ite
ĠM ic
ignific ant
Ġflu or
æ ¶
æľ Ł
Ġcharacter ize
n s
ogene ity
Ġ Ð¾Ð±
Ġsil icon
Ġemerg ency
Ġprogn osis
Ġsym b
m as
Ġextrem ely
Ġb ig
Ġphosph ory
Ġp le
otrop ic
pos itive
cep ted
Ġh osp
an j
Ġtyp ically
à¸ ¡
Ġeg g
ĠD is
Ġmill ion
Ġ5 00
rolog ical
Ã ¨
Ġit ems
ì Ľ
wh ile
n m
ì Ĭ¤
ah r
ang kan
clud ing
Ġproduc ing
ier t
Ġrot ation
Ġìĭ ľ
crib ed
icul ties
ing er
Ġb atter
uh an
Ġintr av
Ġ ÑĤ
Ġhier arch
Ġes c
Ġemo tional
Ġstatis tics
ĠM ar
u er
ĠSc i
Ĥ ´
Ġc ette
Ġcompeti tion
¹ Ħ
å½ ¢
Ġoptim ized
ass ociated
Ġover view
Ġdis p
Ġcr isis
Ġreve als
ur ally
Ġderiv atives
Ġmyocard ial
Ð¾ ÑģÑĤ
Ġant agon
Ġí ĺ
e ur
l ink
Ġcre ation
P M
il le
Ġd it
l ah
Ġtoler ance
per form
ìŀ ¥
hy th
Ġover l
Ġlog istic
å¹ ¶
8 9
Ġper man
Ġsp ontaneous
i ar
Ġmet ric
Ġintegr al
elec tric
Ġarter ial
o ti
è Ħ
Ġc avity
Ġrel ates
In d
t reatment
Ð½ Ð¾Ð¹
å¾ Ĺ
c ers
if ier
ak tor
p ass
ox yl
Ġdescrip tive
Ġcontrib utions
Ġhealth care
ĠS erv
re me
æī Ģ
7 6
stand ing
Ġbel ajar
Ġc our
è ¶
Ø «
Ġsubst anti
Ġallow ing
Ġresist ant
8 2
il an
Ġc ivil
æķ Ī
Ġat oms
) (
Ġw ound
is ter
Ġasym pt
Ġlong itudinal
ia z
Ġt ur
Ġf atigue
ĠD i
Ġattit udes
Ġleg is
enti ally
S E
Ġbehavior al
M M
Ġcomput ation
Ġas k
ãĥ ¼
Ġfuz zy
S ummary
Ġrespond ents
Ġco ast
Ġarrang ed
y th
Ġorganization al
an ch
Ġreserv oir
Ġh old
Ġec osystem
ro t
Ġë ª
Ġtr at
é ¡
f e
Ġreg ime
à¸ §
Ġasym met
Ġìł ķ
Ġsyn chron
Ġpap ers
ãģ Ļ
cl es
Ġtechn ological
id as
Ġsc ales
o ved
7 1
Ġt i
Ġ5 5
æĦ ı
h abil
Ġrecur rence
Ġro ugh
Ġde al
Ġat au
Ġmo ving
Ġb enz
Ġinc ub
Ġh ip
Ġìľ Ħ
ist or
u ti
Ġj u
Ġtr aj
Ġo v
Ġg es
est hes
Ġirradi ation
Ġconserv ation
ĠB razil
7 4
8 3
Ġr ice
Ġprogramm ing
Ġo uter
Ġne ver
fact ory
Ġopportun ity
enc ias
ec k
Ġbas al
ĠMed ical
C a
Ġen ables
he ad
Ġcorrel ations
Ġfac ilities
Ġâī ¥
ĠC oun
Ø§Ø ³
Ġë §
Ġsh o
Ġappear ance
Ġextr a
Ġoccur ring
ç ²
w ork
Ġover come
Ġins ights
é¢ ĺ
F our
ĥ Ŀ
Ġal b
ur an
Ġg astro
Ġgeneral ized
Ġassoci ations
Ġn arrow
å¼ Ģ
it ors
ëı Ļ
ç Ŀ
¯ ¸
Ġl ive
è® ¾
O r
Ġse ason
H C
Ġtr ip
Ġfeas ibility
æ´ »
ĠC F
Ġtrack ing
Ġprob e
H igh
Ġgly c
ant h
Ġn ur
Ġnew ly
Ġdiff iculties
Ġinstitution al
t ur
Ġsol ving
Ġm ilit
H S
Ġm ind
Ġimprove ments
Ġcon ven
G en
ec e
Ġter d
Ġ201 8
Ġseg ment
Ġm iss
uc id
Key words
Ġchromat ography
U D
an z
av ail
éĹ ´
am ber
any ak
Ġinter ference
Ġhorm one
Ġsetting s
or ient
inf lamm
ĠF orm
Ġadd ressed
Ġdi per
Ġlarg est
Ġhep at
ill ed
Ġne on
ë ĮĢ
Ġê ´Ģ
Ġ199 0
Ġs ti
Ġval ve
Ġmac ro
P artic
Ġacqu ired
Ġa plic
Ġ200 2
ĠM ay
Ġreview s
Ġwid th
ĠAmer ica
me an
pos ite
ib li
æ ¬
Ġevalu ating
ĠQ u
ins ic
Ġd ri
Ġdes arrol
Ġch olesterol
ti ous
ve y
Ġp yr
it als
Ġco verage
Ġdisc rete
Ġpre lim
p ly
Ġapp ar
Ġì ļ
op ed
Ġoper ational
Ġsup erv
Ġcoun t
Ġvari ance
Ġp s
Ġcateg or
æ Ł
ĠEduc ation
Ġì§ Ģ
U R
Ġë ı
et her
Ġform a
Ġsubstr ates
Ġdecom position
Ġcontempor ary
Ġtrans plantation
im a
Rec ent
Ġbenef icial
ç® ¡
ĠC enter
Ġde ux
å¹ ³
Ġfib ers
ä» İ
unic ip
c ents
Ġpol yp
Ġconsist ed
8 4
Ġre active
ĠU K
ĠM ark
ish ing
5 9
Ġseb esar
ĠCh r
Ġexp on
er cul
Ġscen arios
isti r
Ġw ear
Ġmembr anes
Ġtop ic
Ġkel as
Ġcle an
Ġal umin
Ġpro ces
m i
% ;
m aking
ĠP a
ros ion
ä» ¬
Ġland sc
è§ £
Ġschem es
Ġpoll ution
Ġdec line
Ġapproxim ation
Ø³ Øª
S ur
ĠT HE
C u
ãĥ ³
ĠT ur
Ä ħ
P a
Ġs izes
he ter
Ġill ness
Ġ200 1
D P
Ġflow s
à¸ ļ
Ġbel ief
Ġoxid ative
Comp ared
s erv
Ġcompeti tive
Ġtrans lation
Ġpan el
reg ulated
Ġmalign ant
Ġretros pective
V I
ë Ĥĺ
Ġpen etr
Ġcul tiv
Ġillustr ate
7 9
ann ed
res ist
çĶ µ
Ġmagn et
Ġbu ff
unc tional
al ine
é ª
Ġmater nal
Ð´ Ð°
Ġgr up
ob er
ce ment
B r
Ġl act
Ġconflic t
Ġmeng etahui
Ġstreng then
Ġn ative
Ð· Ð°
Ġ ut
Ġendot helial
Ġl ingu
Ã ª
Ġtrans mit
Ġembed ded
ell ar
Ġbr ing
Ġba ik
ro om
ĠOr gan
ĠÏ Ģ
ĠJ ohn
Ġdef ect
Ġan tim
gr ade
Ġm l
s en
Ġhem at
Ġadapt ation
Ġextr acts
ne e
Ġtra its
Ġmen tion
ĠZ e
Ġs ud
ym er
Ġbar rier
i atric
ì¹ ĺ
Ġassum ed
Ġ Ú¯
os tr
çĹ ħ
Ġus age
Ġprec urs
Ġsol vent
Ġan a
ĠI tal
Ġvit amin
æĸ¹ æ³ķ
Ġmaintain ed
am il
Ġneu rop
ë³ ¸
Ġë° ı
or tion
Ð¼ Ð°
Ġdecre asing
E A
Ġstudy ing
ol ine
Ġclin ically
on y
il iki
Ġob esity
Ġaccur ately
Ġdis pos
tain ed
Ġprelim inary
an an
Ġins ight
Ġautom atic
ĠS m
Ġpert urb
ens us
Ġlibr ary
D ue
Ġrem aining
Ġg ave
Ġmul tic
æ ·
anc ies
Ð¸ Ñħ
Ġsp inal
Ġfo ot
imet hyl
Ġep is
Ġh im
Ġrem ote
Ġob st
Ġunder t
ĠE d
Ġv enti
Ġev id
ber g
Ġmedi ated
tiv a
è¿Ľ è¡Į
g al
ĠA ug
j o
Ġs perm
Ġmod ulation
D R
âĢ ĺ
Ġultras ound
Ġis ot
Ġrang ed
ÙĦ ÛĮ
Ġheter ogeneous
Ġsugg es
Ġdiab etic
Ġexperiment ally
Ġsurround ing
Ġlog ic
Ġk m
Ġ Ñį
ĠÏ ĥ
ä½ į
Ġmo ist
Ġcerv ical
en o
Ġmy el
disc ipl
Ġassemb ly
ul ing
al ities
çĤ ¹
Ġop tions
is ons
ç» Ł
y arak
Ġindic es
Ġdi ag
Ġpurpos es
M o
ç¤ ¾
E F
op ic
yl ene
è´ ¨
ĠÙħ ÛĮ
Ġpower ful
ih ood
we ight
Ġste ady
Ġanaly se
hen e
Ġsh all
B T
Ġrem oved
è ¨
Ġunder going
oc occ
Ġm and
Ġinhibit ory
Ġn g
Ġabs orb
- ,
Ġdi ver
Ġpers ons
it z
Ġt or
am os
ĠM at
Ġemph asis
B e
Ġm orbidity
Ġle bih
ole h
Ġdef iciency
Ġm oun
Ġm or
+ )
ĠF or
til ity
Ġwhere in
Ġepid em
Ġefficient ly
Ġprot ective
Ġmac roph
Ġf ire
it us
Ġdi k
sy stem
Ġrefer red
in ite
èĤ ²
ĠWe b
Ġprecip itation
Ġmenunj ukkan
Ġmarket ing
Ġse ism
Ġa ug
Ġmix ing
ab s
8 1
i ol
Ġestud io
Ġsm oking
åħ ¥
Ġd ar
æŀ Ĳ
w er
Ġre nd
ne g
Ġmet als
Ġloss es
Ġhep atic
Ġexpl ores
" ,
æ į
Ġr ab
section al
Ġl ens
Ġab dominal
ch lor
Ġmark er
ë³ ´
bo ok
wid th
ĠS chool
Ġdr iven
ograph ical
im es
Ġo der
i ro
Ġ ÑĦ
Ġ7 2
Ġg ame
Ġinf ec
Ġsepar ated
å ģ
uc tive
v ant
Ġadv ance
er ge
æĹ ¥
Ġmen jadi
ĠE st
per t
Ġpair s
Ġver te
à¸ Ķ
Ġinter f
Ġth inking
Ġdiet ary
Ġrequire ment
str uct
Ġcatal ytic
Ġs om
Ġtrabal ho
Ġp et
ĠE D
pl as
Ġprov en
ĠìĹ° êµ¬
ĠB ay
emper ature
M od
Ġanten na
Ġobs erve
ke le
st age
Ġcontin ue
em pl
Ġpes qu
emb le
Ġdetail s
Ġa id
Ġdis rup
Ġper met
n ce
olog ie
Ġr ib
Ġsec retion
Ġd im
Ġb odies
Ġ ign
Ġres ol
Ġdispers ion
Ġepit helial
ing ly
it ary
Ġap resent
act ed
æ ¨
Ĥ £
he res
à¸ ¢
ag em
um es
N ew
ly sis
der ived
ĠS M
Ġpredic tions
Ġmod elling
Ġrece ive
Ġcorrec tion
ar ante
Ġbott om
Ġint ensive
ÙĬ Ø©
Over all
Ġg old
Ġ Ø§ÛĮ
ad ing
Ġsp aces
Ġr aw
ad der
Ġid en
Ġ201 9
Ġsusceptib ility
om ple
Ġprec ise
Ġol ig
Ġ ÑĢÐµ
k i
Ġìľ ł
Ġn ous
í ļ
ĠM RI
yarak at
ĠØ§ÙĦ Ùħ
g ly
Ġmus ic
Ġhoriz ontal
Ġw ood
Ġcent ers
B I
ĠI F
Ġattemp ts
s im
Ġdr ive
te xt
c ing
Ġp ic
Ġsh ared
Ġf air
Ġv ibration
S p
Ġtarget ed
Ġha em
Ġde ploy
Ġber t
Ġinfras tructure
æ° ĳ
O T
éķ ¿
Ġintr acellular
ĠC ON
æ¯ Ķ
Ġassign ed
ĠÎ ³
ĠC d
ĠA R
Ġa z
Ġtom ography
Ġinterv als
ti que
Ġconcern ed
Ġrepl acement
ĠÐ¿ ÑĢÐ¸
ace u
al pha
ex t
om pl
ĠM T
Ġconver gence
eng aruh
ig e
Ġadj acent
ax is
ok ed
Ġc i
Ġal tered
h as
Ġanal iz
io tics
ic rob
de hy
ac char
c hen
ex ist
ic ion
ĠR T
Ġeth anol
Ġsup ports
ĠT i
Ġ1 50
tic o
Ġsoil s
h old
å ¦
tic as
Ġdevelop ments
one y
Ġb all
ĠE N
ĠS ub
ic as
as ure
ar n
ĠØ Ń
Ġth yroid
Ġrout ine
The ir
Ġcalcul ate
at u
Ð² Ð¸
0 6
Ġmut ant
T e
A F
ĠP M
AT ION
Ġtraum a
is te
Ġn ine
S R
Ġaccomp an
Ġcomb ining
Ġmark ets
íķĺìĺĢ ëĭ¤
in er
Ġel ucid
ĠI R
Ġsqu are
ĠO b
Ġnan oc
ens is
ul ator
Ġt ension
ĠP R
Ġë ¬
ì ¡°
Ġphys ic
kele tal
Ġworld wide
C r
Ġdef ic
ol l
V D
ĠS al
est ed
Ġpr on
Ġhe ld
Ġt rop
Ġn od
Ġass ays
ĠMod el
Ñģ Ñģ
Ġr h
I ts
be it
Ġtra it
am i
In ter
sc he
ë² ķ
Ġt an
æĺ ¾
Ġp and
Ġa kan
Ġadv ances
Ġdis tric
j ek
æ º
it an
âĢĿ .
end en
Âł Âł
Î ¯
Ġarb itr
Ġh at
Ġcons ult
Ġb or
ï¼ ļ
ĠSoci ety
Ġh app
Ġc entr
ĠP re
Ġn av
Ġc ast
ult y
Ġinnov ative
Ġur inary
Ġ3 9
Ġd ro
Ġresid ues
Ġdispl acement
oid al
ĠA nd
Å ¯
Ġres ection
Ġinf rared
Ġser ta
ĠDec ember
åĵ ģ
V ari
Ġk et
w ing
Ġcar rier
Tr ans
Ġcon clusions
Ġt es
ê² Į
a tically
Ġprofession als
Ġint estinal
Ġrob ot
Ġlat tice
æľ Ģ
Ġpart n
L C
ë¬ ¸
Ġg ir
ĠS P
Ġcare ful
Ġsupp ress
Ġhard ware
ult ure
o tide
Ġh id
u is
è® ¡
Ġarg ue
ĠìŀĪ ëĭ¤
Ġantioxid ant
it one
Ġdirec tions
ĠI T
Ġvalid ation
Ġfocus ing
Ġbi ochemical
Ġsign if
om orph
è¡ Ģ
Ġcateg ory
O P
n cia
Ġinvas ive
Ġsm art
Ġsimilar ity
Ġkine tics
Ġre verse
ĠC M
Ġprog ressive
ĠIn t
Ġj ug
Ï ī
Ġì ¤ĳ
Ġmen ingkat
ÙĪ ÙĨ
Ġmitochondr ial
Ġcont amin
ad ores
Ġappar atus
en h
**** ****
Ġschol ars
ĠC ent
í Ĭ
ë ħ
ang er
à¸ Ħ
ĠS ocial
Ġel abor
ĠU SA
Ġse p
inflamm atory
ang i
0 8
ä¸Ń åĽ½
Ġl ie
reg ulation
Ġrel acion
Ġdoc uments
Ġan os
hydro xy
ç¬ ¬
Ġmin ing
Ġmat ching
ococc us
Ġimpro ves
Ġadoles cents
Ġas th
çİ ĩ
Ġbiom ark
B V
ĠM n
Ġm aps
on a
ot ed
Ġcom plicated
ĠØ ¬
Ġre tention
Ġv es
Ġlig and
Ġvacc ine
Ġdetect ing
Ġcir cul
Ġbi opsy
Ġdevelopment al
Ġ4 4
Ġi h
in os
) )
Ù ĥ
Ġmel an
Ġtrab ajo
Ġinstr uments
ili ar
Ġde form
p atient
åı ĺ
Ġw or
ĠD C
Ġre habil
Ġob str
Ġemploy ment
Ġvari ants
oc l
Ġkine tic
ater ial
on ucle
Ġ4 3
ur u
Ġor g
Ġisol ation
Ġemploy ees
Ġgu arante
Ġindepend ently
Ġ ice
y g
Ġdes ired
Ġat omic
Ġe yes
Ġm itig
est e
Ġswit ching
Ġassess ing
Wh at
Ġmar ine
N N
Ġabsol ute
Ġ Ð½Ðµ
Ġstrateg ic
Ġperform ing
us tion
res t
Ġro d
ĠO n
Ġ4 1
A I
Ġmove ments
Ġvac u
Ġc um
ë ŀ
Ġabund ance
Ø °
P urpose
Ġin equ
Ġno tion
os ion
Ù ī
or us
Ġpro state
al ian
Ġac oustic
Ġmo tivation
a Ã§Ã£o
å½ ±
Ġv ital
ç´ ł
Ġref lex
ä¹ ī
O ther
í Ħ
U C
ens i
Ġcontinu ed
if er
et ric
Ġd imin
Ġfluct u
Ġhosp itals
f a
Ġde le
Ġext end
åĮ º
Ġfail ed
Ġsur ge
Ġm end
Ġm oral
Ġgener ating
à¸ ª
f requency
Ġexc itation
te e
Ġlead ership
tr y
Ġac cepted
Ġd ental
Ġdisc overy
Ġprac tition
Ġlocal ization
Ġìł Ħ
Ġcap abilities
ì² ´
çĿ Ģ
Ġag ing
Ġnurs es
ins i
Ġrelig ious
ĠF our
Ġimp ed
00 01
Ġcor rosion
íķ Ļ
Ġmet a
Ġm ere
Ġcomm e
Ġcomp ati
ah l
b enz
æķĻ åŃ¦
Ġ ile
ĠA I
lic he
Ġiden tical
ĠÙħ ÙĨ
Ġt rees
ĠM R
il ing
Ġw estern
ra wn
Ġk n
Ġst ere
esthes ia
in ine
Ø¯ Ùĩ
el i
Ġcryst als
das arkan
Ġt y
ic in
Ġins uff
p ress
gen eration
Ġpath ological
On ly
O M
Ġpossib ly
Ġcreat ing
ren ch
å¤ ĸ
Ġm ag
duc tor
Ġg rap
us ah
Ġdie lectric
ativ o
ĠA pr
Ø £
ĠK r
in ting
ir r
Ġturb ul
H ence
Ġinj uries
Ġfl av
ĠE U
Ġ20 20
Ġplace bo
Ġpolar ization
Ġf ric
le ge
Ġsti ff
Ġfeas ible
Ġbar riers
Ġmem iliki
ad s
Ġjus tif
c ious
Ġvis ible
Ġto ok
ĠJ une
Ġver ified
S h
Ġrelev ance
lec t
ent h
Ġrepresent ative
âĢ ¢
cl ass
et z
Ġlo op
ĠG a
Ġv ill
Ġrelax ation
Ġtour ism
Ġ8 5
we ek
och astic
ar am
Ġcomp act
Ġc ortex
Ġfl at
hes es
ĠH y
Ġpro duk
Ġexpress ions
Ġhar vest
Ġfl ood
Ġj ur
Ġconsum er
Ġcompos ites
Ġs ie
Ġbec oming
Ġ4 6
Ġbr on
Ġ *
ĠAustral ia
Ġ ÛĮ
pro duc
Ġhydro ph
Ġbur den
Ġv ag
Ġs ul
Ġc od
ĠâĢ ŀ
Ġan is
Ġc ord
op yr
Ġmoist ure
Ġc itiz
Ġoff ered
ìĹ Ī
ĠB as
oph ag
ĠR F
geb ra
Ġam mon
Ġë³ ´
ĠÎ ´
Ġon to
r ical
Ġg raf
x yl
Ġprogn ostic
ĠA F
um ines
Ġcons ecutive
_ {
ĠAl l
ĠìĿ ¸
en vol
Ġrec urrent
Ġprotoc ols
aus s
Ġaccompan ied
ĠW est
C urrent
Ġsat u
Ġm u
Ġchlor ide
Ġmicrob ial
ĠI t
year s
D I
Ġch amber
Ġt amb
Ġsp ir
Ġcandid ate
or ia
s ur
Ġpresent ing
us es
c ks
Ġ1 20
l ife
Ġlab el
oh ist
ä¸ ī
ati z
Ġpath ogenesis
Com par
Ġd ent
. âĢĿ
Ġant ara
E st
E GF
ĠH R
Ġinter fer
Ġelectro ph
à¸ Ĺ
Ġnan os
ul as
åħ ¬
Ġnan o
Ġtrans p
on in
Ġp ediatric
b i
erent es
Ġper h
Ġe ti
A G
Ġe k
er ior
B u
ĠÎ¼ g
Ġfract ures
Ġwavel ength
l ie
Ġg er
Ġan c
Ġquantit y
Ġin ver
ãĤ ī
Ġb inary
P ar
Ġdev iation
Ùĩ Ø§
Ġapplic able
Ġstar ted
Ġconsum ers
æĶ ¿
Ġur ine
L R
Ĥ °
Ġz ones
ogene tic
Ġn ation
Ġattit ude
Ġdec ade
un it
âĢ ¦
Ġst aining
ĠAnal ysis
aceu tical
Ġestud o
Ġ ?
è Ĭ
Ø§Ù ģ
oscop ic
Ġaccoun ting
o on
os in
Ġaud it
the less
0 7
Ġadhes ion
Ġdec ay
tt p
Ġim per
us amm
ë© ´
Ġped agog
Ġdon or
Ġo m
are na
Ġdr ain
Ġre ality
ç§ ĳ
k y
Ġde als
Ġf aster
Ġt al
k ing
Ġ q
Ġreflec tion
ir ty
Ġsequ encing
y se
ĠØ¨ Ø§
Ġview s
tro ph
Ġoper ator
Ġmaintain ing
Ex perimental
ĠP en
ìĦ Ŀ
Ġat om
è ħ
Ġ199 9
Ġis o
Ġtrans plant
Ġdem ands
Ġabnormal ities
Ġdo ub
Ġmas yarakat
æľ Ī
ĠB er
Ġf etal
Ġer a
ë £
ĠIn c
Ġcontr act
h aus
Ġguid ance
Ġfabric ated
Â ©
Ġk ur
D i
Ġcyt otox
ad ian
Ġphosph ate
Ġconsequ ence
ÑĨ Ñĸ
Rec ently
ĠS er
st en
ĠØ ®
ĠO R
ĠE ast
Ġb it
ĠF ed
Ġphys icians
Ġ5 2
p re
Ġsol ved
Ġp ore
Ġv ibr
Ġ4 00
Ġint ended
Øª Ø±
Ġbe aring
P ara
og ens
Ġc ities
In t
Ġtreat ing
app ed
Ġsem icon
ual ity
Ñĩ Ð°
Ġf ri
ĠInd ian
Ġop ening
Ġs av
il arly
Ġhous ing
anal ysis
Ġcolle ge
Ġd erm
Ġdesign s
Ġc ada
ĠM arch
Ġvehic les
ĠN etwork
Ġt res
cut aneous
ochem istry
Ġiniti ally
Ġscen ario
p el
ç Ħ
Ġen tit
ort e
ä¹ Ł
Ġpro min
en i
Ġro ute
ìł Ħ
Ġcan cers
ĠAr ab
Ġë¶ Ħ
Ġein em
Ġs ow
Ð Ĵ
R eg
Ġble eding
ill ance
Ġêµ ¬
Ġsp ring
Ġhe nce
A V
Ġh ole
ord ance
N e
Ġint el
Ġw arm
ept ember
Ġsubsequ ently
Ġcaus ing
ĠR iver
Ġm unicip
ind e
Ġst ay
opro tein
è¾ ¾
v i
Ġpredic ting
ap ed
pro cess
Ġmilit ary
ë© °
lec tual
Ġalter ations
N a
E ste
Ġimpair ment
Ġst op
Ġinf il
it ability
ĠC or
Ġvol ati
L D
Ġatmosp heric
ĠP V
Ġplas m
Ġcycl ic
Ġundert aken
ic ular
. "
a que
w ar
d iff
L S
Ġj ournal
ï¼ Ľ
ur ation
ĠV ol
Ġmic roscop
Ġemerg ed
ĠM D
n aires
Ġcust omer
m es
Ġìŀ Ĳ
Ġreproduc tive
Ġparad igm
Ġop tion
Ġorgan isms
Ġdeb ate
ve red
Ġmetast asis
ill us
cle ar
ĠO ct
ãģĻ ãĤĭ
Ġcol lis
Ġinstr uction
Ġst yle
Ġex clus
Ø§Ø ²
Ġo vari
Ġb ands
Ġz inc
Ġcirc ulation
Ġper ceptions
Ġrec on
æĢ Ŀ
Ġfin ally
Ġcut ting
Ðº ÑĤ
Ġdom in
L P
con n
Ġcoord ination
carb on
l ight
íķ ł
Ġb ind
Ġdet ector
Ġcur ren
p read
Ġdatas et
Ġw aters
Ġad a
Ġcoll agen
h and
im b
åĪĨ æŀĲ
h ol
Ġd ark
ang s
Ġn ao
jec tions
Ġm erc
ill i
Ð¾Ð²Ð° Ð½Ð¸
k er
ol ip
Ġorgan is
w here
Ġ ÑĢ
åħ ·
id al
B l
Ġperspec tives
Ġê² ½
ed om
b eta
Ġanalyz es
Ġw ie
Ġpros es
Ġrestric ted
Ġtherap ies
Ġro ots
O F
unc i
p at
ĠIn formation
Ġres pective
Ġ$ \
æĶ ¹
æŃ £
cy cl
H P
Ġarg ument
Ġr ub
Ġpl ural
yt es
ĠMan agement
Ġfound ation
Ġcontrib utes
} }
Î ´
un der
Ġtub ercul
ik a
Ġassum ption
Ġrais ed
ides pread
Ġintr insic
ine ering
Ġì ĸ
Ġí Ĩµ
Ġro bo
el ihood
Ġacc ompl
Ġconsid ers
ak ers
ition s
ĠM a
ump tions
om ial
Ġex ceed
Ġiniti ation
Ġdifficult y
an ium
Ġle ur
ì ĨĮ
Ġ4 7
Ġdelay ed
k et
Ġinf arc
ĠP ers
Ġseg ments
Ġreason able
Ġatmosp here
m at
Ġbl ue
ard i
Ġc oding
Ġtr ace
Ġmul tim
Ġder ive
ì ¶
Ġdep artment
ĠS te
Ġh o
ĠS E
Ġlandsc ape
be ing
Ġg amma
Ġ5 6
ant ed
p i
ĠM ex
Ġdisplay ed
B es
Ġrepresent ing
åİ Ł
Ġpro of
Ġpar te
Ġreport ing
ach ment
à¸ģ à¸²à¸
r isk
am ily
Ġpublic ation
ond e
Ġinst ability
Ġviol ence
truct ural
å¸ ¸
è ĭ
å° ±
Ġcriter ion
ç ¼
Ġadjust ment
Ġculture d
ç» Ĩ
å¯ ¼
alu i
Ġclus tering
sc hen
Ġsome times
Ġaff inity
Ġsum mer
us ions
Ġcours es
Ġdig es
Ġc ad
Ġsurve ys
Ġmanag ers
Ġseism ic
æĥ ħ
y el
ĠC P
Ġcurric ulum
Ġintrav enous
ag a
Ġsat ellite
u ro
ĠStud y
Ġc ement
Ġextr acellular
Ġblock s
ath y
Ġsubstanti ally
ĠDe velopment
äº ĭ
Ġphen otype
Ġst ochastic
Ġexpl oration
Ġqu asi
Ġre tro
at z
ĠD ata
ar in
Ġshel l
íķľ ëĭ¤
ell ed
Ġpro du
neg ative
G S
Ġreal ized
Ġ6 4
Ġdes envol
pl er
Ġcomb ustion
Ġr iver
ãĤ Ī
ĠÙ Ĥ
Ġ ÑĤÐ°
ra ul
trans fer
Ġfr actions
Ġw oman
au f
ak er
Ġfore cast
Ġpo ol
Ġí ı
Ġchem istry
Ġin herent
Ġ9 9
Ġg raft
Ġw alk
Ġimp aired
Ġenrol led
Ġwhe at
ual it
Ġsl ope
Ġsc ope
B R
ĠB P
Ġle ak
on as
Ñĩ Ð¸
Ġmi R
Ġintroduc es
Ġnec k
æĬ Ģ
Ġtransport ation
d el
Ġmon it
Ġun clear
Ġcharacter s
íĦ °
ä» ĸ
l os
ib er
echan ical
id ikan
ĠT NF
Ġsens ory
and a
Ġper mit
Ġb rought
ĠM us
ann ya
is ch
Ġenerg ies
Ġtec n
ili ary
ĠFr ance
êµ Ĳ
0 9
F ollow
Ġfunction ing
Ġanth rop
Ġst ored
Ġa rom
Ġcond ens
Ġout l
Ġ199 8
ĠSc ale
Ġlocal ized
Ġw idespread
Ġext reme
ol i
Ġsubst ance
Ġsh aring
ĠÎ¼ m
Ġf Ã¼r
G a
Ġtah un
Ġl ost
, âĢĿ
Ġcir cular
um lah
Ġwh om
Ġs ay
Ġcal ibration
Ġprolong ed
ox ic
ient e
ĠC ontrol
Ġg iving
Ġch ains
Ġy our
Ñģ Ð¿
Ġchild hood
Ġachie ving
Ġlaw s
éĹ ®
Ġincorpor ated
ĠApr il
Ġev ident
Ġhe t
Ġneg atively
b lem
I l
Ġtop ics
Ġco vered
Ġimmedi ately
um ber
Ġad ip
ĠA us
ind ings
ë į
oglob in
åŃ¦ çĶŁ
Ġass umptions
icrob ial
ĠPro v
Ġax ial
Ġgrad ually
Ġbo ard
ok e
Ġth ink
w ell
è į
æµ ĭ
Ġdis k
es tr
Ġbil ateral
æŀ Ħ
Ġbeh ind
é £
et ary
U E
ĠÙ Ĭ
Ġn om
usah aan
ĠD M
Ġscre en
Ġin oc
Ġl eng
ĠP b
Ġveget ation
Ġconj ug
Ġprogramm e
Ġco operation
ĠTechn ology
Anal ysis
Ġproduc es
Ġon going
Ġor ang
Ġs ik
Â ®
Ġnucle us
Ġsubst ances
ãģ ĵ
h ouse
ĠG es
ol ytic
ĠInd ex
Ġe ch
eren tial
ore c
Ġben ch
æ¨ ¡
Ġsub group
op es
ĠJ uly
ĠJapan ese
Ġhe x
ĠS im
Ø ¶
Ġprot ect
ĠA ut
Ġrad ial
organ ic
Ġl ob
Ġres in
Ġinvestig ates
â Ħ
Ġrehabil itation
ot es
amp ing
Ġpoor ly
Ġcap s
as tern
ĠCan ada
Ġo t
i at
Ġë° ©
Ġphosphory lation
Ġpur ified
Ġcomb inations
Ġch ick
Ð¾Ð ¶
Ġasth ma
ig u
Ġ5 4
Ġ1 000
L os
Ġdis tal
Ġadjus ted
n es
Pre vious
uc ion
Ġhom ogeneous
ĠP P
Ġb ird
Ġs outh
ch ied
ed ia
ĠU N
Ġpancre atic
Ġst ake
ic ao
um or
Ġutil izing
Ġê ·¸
Ġa ortic
Ġn orth
Ġwur de
ass ium
Ġmed ication
Ã º
ä½ ¿
ĠÐ¿ÑĢ Ð¾
Ø± Ø¯
Ġcer amic
p end
Ġman us
p rec
dehy de
st ep
Ġbound aries
Ġpass ive
Ġsol uble
ĠL abor
Ġattrib utes
n et
Ġw inter
ĠB a
âĢĻ ,
f rom
discipl inary
Ġunivers al
Ġmother s
D a
Ġexhib its
oph ys
Ġstimul i
ì °
ĠN MR
ĠW ar
n os
int estinal
Ġag es
Ġtarget ing
ĠA TP
ìĹ ħ
èĥ ŀ
hing ga
Ġrele ased
ĠH er
ste in
ç ĥ
Ġ198 0
Ġf ig
Ġpromot ing
ere st
ĠS U
ĠAss ociation
re r
Ġer yth
ell ow
å §
Ġsu a
Ġnutr ient
å¥ ½
Ġentre p
ang k
ãģ ĭ
ĠP S
p rop
ac tivation
Ġgen omic
w as
Ġadd ing
) /
ear ning
Ġd in
Ġmonit ored
ĠâĪ ¼
ĠT est
Ġm ature
ĠGerm any
ob il
Ġl i
mon th
iven ess
Ġj our
Ġemerg ence
= =
Ġk arena
Ġber b
Ġnerv ous
Ġdocument ed
Ġre new
Ġpac ientes
ene tic
Ġmultiv ariate
Ġhighl ights
ĠJ ournal
Ġall ocation
Ġcontro vers
vers ely
Ġresid ents
Ġtr ust
Ġpeng aruh
ĠR A
S er
ëł ¥
Ġmar row
ç ±
Ġmix tures
Ġd rawn
ad en
port ed
Ġelectro chemical
ĠS eptember
con duc
Ġë° ľ
Ġpress ures
ativ as
resist ant
h t
Ġantib iotic
Ġsympt om
ï¿½ ï¿½
Ġaccept able
Ġchromos ome
tic le
Ġorg ans
Ġk o
val ue
) ]
Ġintere sts
ìĭ Ŀ
b inding
Ġinj ected
Ġdescrib ing
Ġap pl
Ġfarm ers
Ġn one
Ġreact or
ĠCol lege
uls ion
un an
Ġrun ning
Ġdesign ing
enti sts
Ġperme ability
ĠL aw
in tegr
Ġbelie ve
ro se
Ġvess els
ç¤¾ ä¼ļ
ĠMethod s
B s
Ġprot on
Ġtens ile
l ayer
sc her
Ġs outhern
ÑĤ Ð¾
ĠMedic ine
Ġbi ology
ist ed
Ġpol yn
D U
AR T
Ġreflec ted
Ġë ĭ¤
Ġselec t
aw a
Ġa ver
Ġd ich
ĠN S
Ġpic ture
con taining
H F
H y
Ġbatter y
ĠE S
Ġdirec ted
Ġ5 1
Ġcom plication
b orn
an ia
Ġillustr ated
Ġinterpre ted
en der
las ts
Ġphys ics
oscop y
Ġcorpor ate
Ġfal se
Ġinvol ve
Ġflex ibility
ile p
vas ive
Ġman age
ul ose
Ġcon ce
Ġelect romagnetic
Ġbr idge
Ġentrep rene
Ġin te
Ġ199 7
Ġachie vement
ĠC entral
Ġelectro ly
Ġindustr ies
Ġperman ent
è¯ ¾
Ġpre ced
pl ate
Ġsh r
ĠComm un
Ġhaz ard
ul ative
ìļ Ķ
ĠN F
Ġgovern ance
Ġpath ology
E V
eren c
Ġcontrib uted
ER I
Ġneur onal
Ġmat ched
Ġperform ances
Ð½ Ñĸ
ê° Ħ
Ġpl ans
p engaruh
Ġads orb
Ġcere b
P l
Ġstructure d
Ġas pir
Ġtel ah
Ñģ Ð¸
Ġu ter
Ġl ag
os omal
Ġtim ing
and er
Ĩ į
atic a
IS A
Ġsupp ression
Ġact u
ĠP o
Ġsh orter
Ġindic ator
s ol
Ġpol iti
Ġb ibli
Ġst re
Ġbert ujuan
w ick
ĠR el
f in
Ġin verse
Ġit u
as ts
S ix
Ġu ji
truct ures
Ġ5 3
ëŁ ¬
Ġdatab ases
gr ap
ĠA C
us ing
Ġc odes
Ġge ometr
iti m
Ġo ch
tr onic
íĬ ¸
A im
Ġstim ulated
à¸ ķ
ĠAug ust
Ġsc r
N R
et t
E ff
Ġdiag ram
è§ Ĥ
Ġne ut
Ġpesqu isa
Ġdif erentes
Ġcollabor ation
Ġman ual
Res earch
Ġdisc overed
Ġar c
ol in
Ġver ify
Ġhist ological
Ġoper ators
Ġmaxim al
å½ ĵ
Ġadap ted
Ġet re
åĪ ©
Ġad mission
Ġpor ous
Ġseed s
Ġex ception
le ar
Ġse hingga
gl uc
C or
Ġf as
ues tion
Ġtrans m
Ġterm in
Ġmention ed
Ġansw er
Ġh an
ĠA P
m u
itis h
Ġp ent
ê ´Ģ
Ġimmedi ate
m ann
æł ĩ
ĠìĿ ĺ
Ġeng agement
Ġus o
Ġ9 6
l ung
Ġprocess ed
M B
Ġpromo ter
Ġmanufact ure
Ġl ys
æµ ģ
Ġobtain ing
ĠB el
Ġpr ices
Ġend ogenous
hold ers
Ġr a
à¹ ģ
ach t
, "
Ġprot otype
Ġconsider ably
orient ed
ĠÎ º
ap pro
Ġgen us
æ ®
S U
íĸ ¥
Ġo cean
ĠA B
ĠGerm an
h ar
N i
Ġc oc
Ġlingu istic
Ġm agne
ang l
ad ic
Ġband width
amin o
Ð¼ ÐµÐ½
Ġpot ent
Ġs un
Ġload s
Ġunder go
Ġc el
Ġpotenti als
Ġf if
Ġk nee
ag m
Ġstress es
Ġtend ency
ters uch
è¾ ĥ
ĠE T
az ole
Ø§Ù Ī
Ġpep tides
Ġspectrom etry
Ġadop tion
Ġreg ulated
S V
Ġfric tion
Ġlangu ages
Ġy e
Ġde ple
Ġprefer red
ap tic
Ġl ives
yl ation
Ġben ign
ĠP ort
Ġê° ľ
Ñĸ Ð´
Ġtum our
Ġdem ographic
Ġheter ogeneity
Ġgreat est
åĲ ĳ
" .
Ġlim b
roph ic
u at
Ġspir it
Ġlink s
ib il
ĠProgr am
Ġf ulf
Ġrespons ibility
Ġ5 8
Ġmel alui
çĸ Ĺ
Ġlik elihood
ĠP art
Ġph yl
con tr
ul is
Ġë ĭ
Ġbook s
ar cin
Ð½Ð¾ ÑģÑĤ
ul atory
t emperature
ĠP I
Ġhy dr
Ġdisc ontin
elf are
os ed
ĠO p
w an
Ġinter s
NP s
enz a
Ġh ub
ë¶ Ħ
Res ult
æ Ĥ£
Ġpil ot
Ġr ating
ore n
ad j
Ġtr ain
arb on
im al
Ġge ometric
S he
Ġdepos ited
a uc
Ġsim ply
n y
ãĥ «
Ġa way
Ġplate let
åĲ Ħ
Ġfrag ment
onse qu
Ã µ
å¼ º
Ġs ang
ens ch
Z n
vere x
ap l
Ġcon gen
ĠM A
Ġdes de
id ents
ile y
Ġne ph
ĠBr itish
Ġp ued
Ġovari an
Ġdi ed
Ġsub jective
å·¥ ä½ľ
h ab
Ġswit ch
Ġsistem a
Ġmod ifications
å¢ ŀ
Ġperiod ic
Ġac ts
Ġevolution ary
Ġk om
Ġantib iotics
us ive
RNA s
Ġst ory
Ġve in
crip tion
ĠC L
Ġminim ize
Ġ5 7
Ġcam era
ol ysis
Ġn orthern
Ġrang es
Ðµ Ð´
Ġpregn ant
D is
Ġimplement ing
Ġaccel er
ulti ple
Ġr up
ìłģ ìĿ¸
Ġinfarc tion
Ġp up
ild ren
Ġd ass
Ġintr ac
Ġy outh
Ġd ess
aj a
Ġ4 9
Ġmeet ing
ir c
b ound
Ġon c
Ġpolym ers
ĠÐ »
Ġinvas ion
on omy
Ï Į
Ġb ent
Ġcircum st
oma tically
Ġpneum onia
Ġpur ch
Ġdatas ets
è¯ Ń
ĠS a
ĠRuss ian
ary n
Ġal gebra
ir able
Ġdet erior
Ðµ Ð¹
Ġbron ch
Î ¬
ap kan
ĠD el
i ant
k o
ê ·
ìĽ Ĳ
Ġb ip
Ġ2 50
åĪ Ľ
B i
æ £
ĠM c
Ġexper t
Ġtransition s
olog ous
Ġ |
Ġne oplas
Ġsustain ed
ĠA ct
Ġrepresent ations
b u
Ġprovid ers
Ġc aro
Ġsumm ary
Ġdeath s
iv a
Ġpersist ent
Ġpractition ers
Ġaddress es
ĠH igh
Ġhep atitis
Ġneigh b
Ð» ÐµÐ½
D er
ok ine
åı į
Î¹ Îº
Ġhe aling
Ġvacu um
Ġdog s
Ġad mitted
ove m
rec t
Ġ6 2
Ġstrong er
Ġarg ues
ap t
Ġestablish ment
Ġconst ants
aj e
Ġfavor able
ëª ħ
t z
Ġelectro des
clud es
Ġquestion naires
ward s
Ġbe gan
Ġclass room
c alled
Ø ¸
im inal
Ġs n
Ġpip e
id ae
Ġfe el
p ek
est hetic
F C
Ġexper ts
ìłģ ìľ¼ë¡ľ
æķĻ èĤ²
Ġv apor
Ġfrag ments
oph age
Ġvisc osity
ĠëĮĢ íķľ
t ent
ug g
Ġall oys
Ġharm onic
in yl
Ġsurve illance
Ġein en
iz acion
Ġshe et
Ġbrief ly
ic ide
Ġseman tic
ak i
Ġtr ained
hel ium
our ce
ĠP ark
Ġìĺ ģ
Ġinf usion
ĠC ancer
D O
Ġrequ iring
ac tiv
Ġv oc
un te
ä¸Ģ ä¸ª
Ø¯ Ø±
Ġpand emic
Ġmod er
Ġdens ities
Ġcompl iance
f o
Ġg ate
Ġautom ated
ĠProf ess
Ġprec is
Ġdes tr
ist ent
Ġvari ant
ĠSt and
Ġinst all
Ġexpl or
Ġt etr
ip ants
Ġstr atif
ĠP RO
D r
Ġdisc ourse
Ġd ust
tr as
Ġso ught
ĠGen eral
Ġdis app
íĸ ī
æĹ ł
Ġapp rec
ĠT R
Ġmarked ly
Ġnutr ition
Bes ides
tiz ation
PS S
G iven
Ġgr ass
Ġstiff ness
Ġb ox
Ġinv ari
G C
G e
Ġdep art
Ġdiscr imin
Ġjug a
sy cho
raul ic
Ġor b
Ġun ter
Ġcompens ation
Ġoptim ize
Ġfluctu ations
Ġf aktor
Ġm ur
Ġprov ision
oun ced
Ġpre ference
or o
ĠOct ober
ĠA S
ĠâĢ ¢
Ġs enti
ier ung
Ġc ual
ĠN H
en en
Ġm ell
Ġab stract
Ġp it
ä¼ ł
Ġunivers ities
Ġe en
Ġnutr itional
Ġrecomb inant
Ġr ail
Ġexam ining
Å Ľ
Ġl ic
Ġcarry ing
AR S
Ġyoun ger
ĠY ork
Ġì £¼
Ġin n
en is
Ġbre eding
op l
Ġsymmet ry
as onal
ĠC ity
itor ial
f ord
Ġphot oc
Ġr is
ke y
ĠØ ²
I O
Ġenc oding
Ġp urs
ĠÂ µ
Ġinc ident
Ġc ation
Ġsustain ability
os ens
Ġcomp rom
E ven
ism e
IN T
ĠØ§ÛĮ ÙĨ
ec es
ê³ µ
en ia
Ġcitiz ens
an ish
us an
Ġo z
il ic
Ġpot assium
ĠAs ia
Ġidentif ic
sh aped
ac a
ĠP ublic
Ġsatis factory
Ġ6 3
Ġrec overed
Ġabund ant
lec tion
Ġsol v
Ġint act
Ġro und
d os
Ġ Ð¾Ñģ
Ð Ł
Ġn ic
Ġk r
N H
Ġm ud
Ġhem orrh
os ine
Ġcor tical
Ġro cks
å¦ Ĥ
Ġbuild ings
Ġ199 6
act or
Ġquick ly
Ġì ĭ¤
Ġset t
Ġnot e
Ġenterpr ises
Ġh ol
Ġsp ray
ĠPh ys
mm un
çĶ ±
Ġsim ulate
ĠH uman
Ġf ue
N on
T R
Ġz um
B F
Ġag on
Ġ6 6
op o
ä¿ ¡
p us
Ġt ill
N ever
ah ren
her ical
Ġì °
Ġ199 5
Ġquan ti
Ġb urn
Ġte le
Ġagricult ure
Ġn ame
und o
acr yl
ec an
I ST
av age
Ġ ÑĤÐµ
if orn
Ġl ot
ade qu
Ġm enc
Ġâī ¤
ĠI S
Ġwe ather
Ġfix ation
Ġcyt oplas
Ġpropor tional
Ġplay ed
Ġpen y
Ġdiper oleh
atur a
Ġph yt
Ġint ention
éģ ĵ
ç»ĵ æŀľ
ap hyl
Ġsuper f
h igh
C al
itone al
Ġt a
íĺ ķ
Ġcontex ts
Ġn it
Ġexplan ation
ad vant
n am
Ġentr y
Ġinflu encing
Ġocc as
ub e
ana an
ĠSci ences
Ġcat heter
l ings
ak a
Ġni vel
Ġenh ancing
Ġgen otype
he x
Ġ6 8
Ġmeningkat kan
Ġcont amination
ĠCl ass
Ġsin us
Ġê² °
ĠF rench
Ġpredict ors
Ġsh arp
Ñĸ Ð²
ah a
Ġintellig ence
Ġë Ĥĺ
Ġstr a
F ig
yl l
c el
ãģ ķ
Ġpoli tics
Ġmat ric
Ġaut omatically
Ġinfec tious
Ġp un
en f
uth or
def ined
Ġintegr ity
st able
Ġvir t
b an
F indings
Ġex haus
res olution
Ġnec rosis
et ing
ĠN eu
Ġintel lectual
Ġfib rosis
Ġopin ion
ĠS A
Ġvi ability
Ġpromin ent
Ġcom ment
Ġvess el
ĠE con
S m
ati que
Ġcontinuous ly
Ġk ons
Ġno u
Ġsub t
Ġsil ica
äº Į
Ġvol umes
Ġtr ib
Ġcons ensus
æ¬ ¡
ç Ĭ
êµ Ń
Ġper usahaan
Ġì ¡°
Ġcoun s
èµ ·
ak u
th rough
oc amp
Ġat he
Ġeth ical
end a
Ġhelp s
ĠI P
Ġquantif y
ell er
Ġtex ts
z i
umines cence
ä¸ ¤
Ġattack s
eff ective
ace ae
ç ¥
art a
Ġpl ates
uv ant
Ġmo v
ĠFour ier
Ġche st
ĠìŀĪ ëĬĶ
Des ign
Ġab ord
Ġc is
ç« ĭ
row th
åĬ ¡
In cre
åħ ī
Ġg uru
Ġseg mentation
g un
ain t
in cluding
D E
Never theless
Ġcri tic
Ġas c
Ġstr ict
en viron
Ġhelp ful
pl ace
Ġperson ality
l ers
è £
Ãµ es
Ġp ad
Ġaccoun ts
Ġdis ability
Ġearth qu
ĠH ol
Ġt ang
S c
Ġfre edom
Ġlymph ocytes
Ġcomposition s
tit ude
Y P
ìĿ´ ëĭ¤
ess ment
ativ ity
qu in
ĠIg G
s m
f usion
Ġgr av
er on
Ġdiv ision
Ġcollec tive
Ġfam iliar
Ġaggreg ation
Ġproxim al
Ġcompar isons
ĠThe re
Ġcatal ysts
Ġbuff er
Ġl ain
hen tic
æŃ ¤
ep tide
Ġrece iver
ĠS o
ÑĤÐµ Ð»ÑĮ
æī ĭ
Ġbl adder
ac ia
Ġel ic
ï½ ŀ
Ġob ten
ÑĤÐ¸ Ð²
ir m
Ġpro ceed
ÙĪ ÙĦ
Ġop posite
Ġsatur ation
B er
Ġfabric ation
Ġimmun ohist
ne es
y d
ovem ber
Î¿ Ïħ
Ġag ar
il ateral
M ic
ipp ed
Ġp ix
Ġbas in
ÑĨÐ¸ Ð¸
Ġle c
ĠE nt
Ġmess age
ĠEng ineering
H ow
Ġperf ect
dr iven
Ġmicros tructure
orb id
Ġprim er
è ĳ
Ġmicro wave
Ġt anto
ar com
orec tal
ic ated
Ġ Ð¾ÑĤ
g ar
Ġn ons
O p
Ġhabit at
Ġt ing
Ġinst ance
Ġparti tion
ot omy
ive red
íļ Į
iz oph
Ġemploy ing
Ġconfigur ations
Ġv enous
Ġbl ot
p yr
Ġconven ient
ãģĹ ãģŁ
Follow ing
H g
he it
Ġun us
Ġë ħ
ĠP ub
Ġsol ub
b ody
Ġh air
Ġ6 7
os omes
Ġgastro intestinal
acc o
Ġpre operative
Ġfour th
Ġt ank
Ġiniti ated
u ated
Ġmob il
overn ment
Ġvalid ate
Ġremark able
Ġmetast atic
Õ ¡
Ġsug ar
Ġantim icrobial
Ġë ĵ
i able
ä½ İ
Ġm ission
Ġag o
ir k
ç µ
Ġpl acement
D C
As s
Ġlife time
Ġask ed
æ ģ
Ġprevent ing
èµ Ħ
Ġcirc uits
è¯ ´
Ġwur den
Ġcent re
Ġventi lation
Ġdistingu ish
Ġgl and
ĠA u
Ġdepos its
ĠP e
Ġbr anc
ãģ Ĥ
ĠÐº Ð°
Ġar ise
ri tical
at ural
term inal
Ġwe bs
ol ah
æĦ Ł
C e
é ĸ
cr yst
Ġbr and
Ġmicroscop e
Ġlimit ing
PL C
Ġtubercul osis
Ġst ations
Ð½Ð¾ ÑģÑĤÐ¸
Ø³ ÛĮ
å £
Ø± ÛĮ
og ly
be an
Ġstra ight
Ġd ye
link ed
o hydr
Ġcoast al
ac in
i y
uan tit
Ġalumin um
hydro gen
ĠDes ign
L T
lob al
ear ing
é Ĵ
^ {
reg ular
Ġsp orts
i us
Ġintern et
Ġhouseh old
rop y
trib ution
ĠH g
G r
Ġfac ility
d ynamic
ch ym
+ ,
Ġre plication
Ġcare er
Ġconsider ations
Ġco inc
ar ter
Ġmetabol ites
Ġ6 1
olog i
oc ene
ĠH F
Ġad ren
éĹ® é¢ĺ
Ġread ily
v ae
Ġincorpor ation
ed e
Ġne ither
Ġbench mark
d em
éĩį è¦ģ
ĠF ac
Ġcust omers
ag o
Ġmarg inal
ethyl ene
Ġinv ent
ĠM id
Ġobst ac
it ant
Î ®
Ġact ually
è ±
ag er
Ġneu rological
ow el
Ġsystem atically
m ax
Ġrec ording
Ġm M
ĠE lec
ount ered
æĮ ĩ
Ġcontr ac
Ġg ained
u as
Ġinter active
ias is
Ġelectr ons
Ġus ual
N umer
æ ¡
ĠN iger
v ic
Ġvol unte
ro us
ĠÂ »
K ata
Ġw elfare
eren ti
Ġreal ize
b as
Spec ifically
M n
ĠCh apter
ot o
kr ip
st atic
Ġvar ieties
Ã½ ch
Ġun c
Ġoff icial
Ġexpect ations
Ġischem ic
Ð ŀ
Ġbond s
éª Į
OS E
N ot
Ġoper ated
Ġmass ive
he c
Ġeth n
Ġir re
Ġgr and
Ġcons cious
sp ace
Ġo verex
ëĭ ¨
em at
Ġdial og
ipp ocamp
Ġdesenvol v
¦ Ŀ
Ð½ Ð¾Ð²
Ġmacroph ages
osynt hesis
Ġmanag ed
Ġperson nel
Ġsusceptib le
Ġpossib ilities
o zy
æµ İ
ut o
Ġenc ountered
Ġdis advant
Ġb ases
Ġang les
Ġdiscr imination
auss ian
Ġmod ules
y en
Ġz w
s il
onom ous
Ġtex ture
C onsequ
Ġwe ights
Ġpredominant ly
ro le
ĠE arth
Ġischem ia
Ġker ja
åŃ ĺ
Ġcytok ines
Ġfoc al
Ġregard ed
Ġregul ate
Ġattr active
s tim
Ġmus cles
Ø§Ø ¹
he t
fact or
ĠA nt
c il
ĠH a
N s
ash ion
Ġelev ation
å° Ĩ
Ġf onc
Ġan ak
Ġher b
ch a
Ġregen eration
ĠP atient
Ġphilosoph y
Ġins urance
Ġar tis
d ose
r ies
ĠÚ© Ùĩ
Ġpath ogen
ĠW ork
ph one
Ġdo ing
C ol
Ġpromo tion
ond on
Ġpe ut
iforn ia
ĠUn ion
os es
emb angan
Ġcom es
Ġb id
es ian
Ġl if
ĠRep ublic
Ġdr ama
on der
izoph ren
Ġacc ordance
Ġnucle i
ins on
Ġtransform ed
Ġ9 8
a ign
P ol
Ø º
Ġl amin
Ġad m
Ġwind ow
iz acao
S up
N C
Ġrain fall
æĥ ³
Ġso le
it ter
Ġspec imen
Ġtw ice
Ġse iz
i op
Ġv ida
cr aft
Ġdur ante
Ġelectr icity
Ġjud g
Ġion ic
Ġ7 7
ĠS an
se e
Ġcover ing
Ġprecurs or
ophage al
Ġfew er
é ľ
ann el
Ġ ï
am ples
Ġ5 9
Ġpl aces
Ġrecr uit
Ġgen otypes
Ġoper ate
Ġfib rob
on ym
here d
ution al
Ġdel ivered
ç»Ĩ èĥŀ
oper atively
ĠD O
ov a
Ġe igen
Ġes ter
Ġdiss em
è Ĳ
Ġimmun os
ëĬ ¥
Ġdistric t
Ġdown stream
Ġc ab
os ing
T i
ì £¼
ox ia
Ã ±
' -
Ġd ors
Ġcyl ind
Ġf inger
Ġì ²
Ġpref erences
Ġneon atal
âĢĻ .
ä¿ Ŀ
Ġte or
Ġdisch arg
ion ic
T wenty
Ġjus tice
os ol
P H
çĦ ¶
Ġm ism
ĠØ± ÙĪ
Ð° Ð»ÑĮ
arg a
Ġbr anch
Ġr ace
Ġcurren ts
Ġestablis hing
Ġarbitr ary
oster one
M G
p ot
Ġe ines
min istration
ill in
Ġcomp ort
otyp ic
in ya
Ġre per
gen ic
Ġhe aring
Ġcandid ates
Ġbelie ved
Ġshif ts
Ġg all
ê ±
Ġyield ed
Ġdesarrol lo
Ġtent ang
Ġradi us
Ġs ig
Ġsulf ate
Ġeth nic
en ergy
Ġë ¹Ħ
Ġd uct
Ġsal ine
en osis
ĠS pec
ac tivated
Ġestim ating
Ġselec tivity
Ġlig ands
ç¤ º
Ġsemicon ductor
à¸ Ľ
ä» ¶
Ġinser tion
Ġab use
o e
D T
ac ic
Ġthem es
éĢ ł
ĠIs lam
Ġinvestig ating
Ġto t
ìķ Ħ
Ġê³ ł
Cl inical
id en
ĠEn viron
um ab
Ġreal istic
l og
Ġa insi
Ġsub set
Ġrare ly
b all
Ġen rich
angu age
íĥ Ģ
d ec
Ġin adequ
Ġh our
i ate
re f
Ġm arc
ìŀ ¬
Ġinc en
ĠF in
ĠF T
rom y
ĠE p
Ġë Ķ
Ġvic tim
ger i
è ª
t wo
Ð¾Ð» ÑĮ
ĠServ ice
ãģ £
Ġch ron
Th at
Ġì ¶
ĠB MI
Ġimped ance
pr ising
Ġbank s
omb re
Ġtrans verse
ĠP E
Ġconduc ting
D ans
control led
ocr ine
ãĤ ¹
Ġperh aps
ple x
it at
Ġinput s
Ġpsych iatric
od ed
Ġdetermin ants
ĠS C
el d
Ġlab our
Ġsed iments
uss ion
ë¬ ¼
Î Ń
Consequ ently
Ġhand ling
el er
h asil
Ġj ed
ĠM ETHODS
n atal
Ġloc ally
ì ĥĿ
hyth m
Ðµ Ðº
æİ ¢
ĠE C
Ġbio f
Ġsc ler
Ð½Ñĭ Ðµ
ici encies
Ø§Ø± ÛĮ
................ ........
Ġmethod ological
Ġstimul us
ĠE ff
ç»ı æµİ
Ġper i
ç¾ İ
Ġrepe at
s ec
ol o
ang ular
oc ated
Ġmodel ed
Ġfac ial
Ġess ay
Ġsupp ressed
Ġmul til
ia is
Ġmatric es
ed s
With in
Ġgr ains
ĠS ec
Ġirr igation
Ġtrans mitted
Ġer osion
M F
ĠF re
ĠG o
Ġhyd raulic
Ġgener ator
Ġv aries
Ġcoord in
Ġanat om
ip h
Ġmon ol
Ġatt ached
Ġemp res
Ġform ulated
CT ION
Ú ĺ
n ia
Ġê³ µ
O G
Ġdi oxide
Ġpar ties
Ġsp an
th is
Ġdem ocr
5 00
ĠP K
ìķ Ī
ĠCal ifornia
Ġo g
Ġep ilep
Ġw t
um s
é Ķ
Ġ199 4
Ġt ight
èĢ ĥ
ĠÎ Ķ
ĠB eh
anc ia
le ich
Ġthor ough
Ġhypot heses
Ġinterest ed
âĢ ĥ
Ġf en
ç ħ
Ġregard less
Ġparticip ate
h om
Ġpl ot
Ġdies er
ne a
ap i
h i
Ġpe er
av irus
ĠIn f
ĠSystem s
ip ation
Ġrec t
al ed
Ġdrain age
Ġmas ter
Ġh ippocamp
Ġsequ ential
Ġs os
ĠR ed
Ġg a
v estig
Ġcomplement ary
enti a
Ġad ver
Ġparticip ated
ĠN ovember
Ġex chang
C omm
Ġse asonal
éĢļ è¿ĩ
Ġsub m
Ð ¡
Ġwall s
Ġn ue
ym met
ĠP O
ag g
Ġpel a
åĵ į
Ġapproxim ate
u ited
Ġ7 8
ure us
ol er
Ġrec over
Ġcoun ts
im ary
her che
M RI
st ud
Ġch ap
Ġenterpr ise
Ġdom inated
ê ·¸
Ġang ular
ĠO S
oy al
Ú Ĩ
Ġm ax
tiv os
Ġnarr ative
Ġt re
Ġd imensional
n on
Ġ iod
Ġexec ution
æİ ¥
Ġub er
Ġnam ed
Ã© r
Ġa th
ic ans
l amic
Ġst ack
Ġconsist ency
Ġconn ections
ĠT B
Ġderiv ative
Ġnan ot
Ġsched uling
ric hed
U V
acter ial
Ġinduc es
Ġpeak s
l av
m ail
Ĭ ¹
Ġcop ol
il a
Ġcl on
Ġpath ogens
Ġcircumst ances
ãĤ Ĭ
Ġdisturb ance
tim al
Ġim plantation
Ġl apa
Ġneu tron
h am
Ġar tig
Ġd B
Ġcrop s
s uch
ro ad
s elf
Ġwid er
Ġgr avity
Ġtherm odynamic
Ġalg un
rel ation
Ġst ret
åľ º
ĠB ar
ist as
ell t
op last
æĤ£ èĢħ
ich ia
Ġinc omple
Ġcommunic ations
à¸ģà¸²à¸ £à¸
M AT
ĠKore a
um at
Ġstandard ized
S ch
l ass
Ġmarg in
us i
iti f
Ġpp m
ĠB ank
Ġsk ill
b ility
omm od
Ġbond ing
Ġaut hentic
ĠS W
oc arcin
S tr
Ġpa id
el astic
P G
s pr
tif ication
ce phal
Ġpre ven
lec ted
k u
Ġun f
ĠW iley
p m
ig ital
er ja
Ġsy st
Ġl iv
Ġm L
Ġso y
Ġc ry
Ġexpand ed
Ġb ov
Ġcred it
ë° ©
Ġpo ver
c ap
ÛĮ Øª
Ġye ast
Ġsubstit ution
ì ¡
ĠÑĢÐ° Ð·
S EM
Ġaccel eration
Ġmell itus
Ġb ad
ĠSe a
Ġc it
ri tic
Ġsang at
Ġa y
ĠF und
Ġsci entists
åĿ ĩ
ĠV al
b es
Ġsing ular
Ġ7 1
Ġclaim s
M s
Ġintellig ent
ĠP lan
Ġ7 6
ĠC our
Ġleuk emia
åĨ ľ
ĠT iO
Ġfe ver
Ġcontrib uting
Ġpolymer ase
Ġse in
Ġadd itive
éĻ ¢
l ated
Ġdr inking
Ġul cer
Ġth ings
oc ratic
Ġcompet ence
ĠP t
Ġfl ight
Ġte eth
Ġgrap hene
ĠØ§ÙĦ Øª
Ġs keletal
Ġbi en
w end
Ġpover ty
Ġt wenty
ĠR aman
d ers
Ġvirus es
Ġm ent
Ġob lig
ac illus
Ġden se
ick el
os ide
ere r
p y
è¿ ĳ
sens itive
Ġbud get
Ġform at
åı ĸ
Ġdos age
Ġdes c
ĠD ES
R R
r in
ĠAs ian
or p
çĬ ¶
ian a
r ight
Ġorient ed
Ġexc it
Ġmel akukan
Ġvi able
Partic ipants
Ġg ut
us ted
Ġreg ulations
Ġposition ing
Ġto b
igen ous
Ġret inal
Ġbelief s
ĠSw ed
Ġpharm aceutical
Ġess entially
Ġf ashion
Ġcrystall ine
Ġc ame
qu ir
åĪ «
Ġimm igr
re a
è Ī
uc tions
Ġmanifest ations
enc ial
Ġacet ate
Ġintroduc ing
Ġpreval ent
Ġbiomark ers
Ġj et
ä¸ ĸ
Ġsec ret
Ġconsist ently
Ġquanti ties
ĠP al
Ġcon oc
Ġdist ances
3 00
Ġcon ve
s ion
ĠR ob
ipp ing
æĽ ´
éĩ ĳ
Ġretrie val
oph osph
á º
ìĹĪ ëĭ¤
Î± Î¹
ĠH A
Diff erent
Ġreflec ts
Ġground water
cl er
åħ ±
Ġmes h
ĠB al
Ġcommit ment
Ġextens ively
Y et
Ġsul ph
M aterials
Ġw ant
Ġproper ly
a fter
Ù Ģ
h us
Ġbag i
on ti
cl inical
è½ ¬
Ġt ar
Ġlar vae
Ġincub ation
M an
ot ing
D s
br uary
ĠL V
Ġb reat
Ġpromot ed
Ñ Ķ
Ġí ļ
Ġr az
u til
on ent
Ġbeam s
Ġd ados
Ġ9 7
Ġk ann
Ġen l
å ł
is er
è° ĥ
ii i
Ġc ub
ĠG al
grad uate
æĸ Ļ
Ġ8 6
Ġcor n
ÃŃ a
' ,
Ġ9 2
Ġ iz
Ġterd apat
ĠØ £
iqu it
v olution
es p
E lec
Ġ Ì
Ġmathem atics
Ġcontin ues
Ġ7 3
Ġinvestig acion
Ġcollabor ative
ob l
Ġsch izophren
Ġmodul us
Ġaccept ance
r ine
crip t
lu x
éĩ ĩ
le uk
Ġrep eti
Ġliter ary
Ġs ao
ĠN P
Ġë¶ Ģ
Ġ19 70
Ġlearn ers
å ĸ
ĠA k
act ing
Ġcon cludes
Ġ8 7
Ġs ort
es ium
Ġass im
iss ance
ê² ½
-------- --------
qu ality
ĠÐ¿ Ð¾
Ġar ising
Ġb at
æ± Ĥ
ìĹ Ń
Ġv ectors
Ġb ol
gl ut
ore r
ĠR E
Ġch ip
wh at
ĠMex ico
íķ ©
Ġde aling
Ġ Ø§ÙĨ
tis m
Ġh ope
Ġrel ating
Ġassess ments
Ġphysic ian
Ġtraj ect
Ġspec ified
form ing
ĠChr isti
Ġs ectors
ozy g
________ ________
ç ģ
í Į
it ance
Ġjo ints
ĠC are
Ġlead ers
T C
ph yl
ĠL earning
Ġver ification
Ġp all
Ġhierarch ical
Ġv en
Ġfluores cent
ograph s
Ġmanag ing
' t
Ġsup pl
j u
Ġser ver
omic s
Ġ6 9
ĠM E
ĉ č
te x
Ġregul ating
Ġtek nik
ag ulation
Ġl ies
Ġ8 8
Ġdisc over
Ġche z
Ġmod al
åĢ ¼
ĠI ran
c ar
Ġconver ter
Ġnec es
Ġ8 4
Ġpol ys
Ġsugges tions
ivid ual
Ġtrig ger
unc tions
Ġacc ommod
Ġcons olid
Ġk ern
Ġprior ity
Ġ8 2
æ£ Ģ
Ġsil ver
ear s
ĠIF N
Ġan eur
ĠÐ² Ð¸
ist ance
S ignificant
Ġcongen ital
âĢ ħ
ab up
Ġro uting
Ġs ous
D ies
uc ted
æĸ Ń
Ġinsuff icient
Ġpredic tor
Ġsc aling
Ġhighl ighted
ut z
D H
Ġre ag
Ġbl ind
Ġgran ul
Ï ĩ
Ġm im
if ies
Ġphosph orus
Ø± ÙĪ
ek atan
i eren
Ġl ign
Ġord ers
Ġf igure
í ı
ĠS em
omp ok
oss ible
Ġsulf ur
ocard i
abup aten
T reatment
Ġtip o
p a
Ġrig id
empor al
Ġav ali
Ġwaste water
amp uan
Ġinter faces
Ġag ree
Ġrecogn ize
GF R
ĠMon te
Ġcr ude
ĠO ff
ent a
Ġdry ing
Ġother wise
Ġbelong ing
Ġexp ort
Ġmeaning ful
Ġd end
Ġam yl
ĠE in
Ġsepar ately
ä½ Ĩ
p ath
Ġequ ally
Ġadoles cent
Ġanne aling
è¯ Ĩ
pro f
orph ous
Ġgir ls
ig keit
Ġ8 3
Q u
Ġmay or
Ġsp p
Ġmut ants
ine ar
ect in
Ġse u
Å Ĥ
Stud ies
ìļ °
Ġan esthesia
Ġb ic
al g
Ġrup ture
imm une
Ġarrang ement
Ġh ttp
Ġë ¯¸
s qu
ti ary
Ġ$ $
Ġsp herical
Ġv ast
ucle ar
D isc
U p
ĠAustral ian
çķ Į
Ġinter conn
og r
Ġorgan ized
Ġsignif ikan
ĠF A
Ġsp ot
ess e
Ġdiff use
las tic
Ġrobust ness
Ġsur fact
Ġlack ing
Ġe ks
iv ity
Ex per
zym e
Ġh os
at ase
G T
ang le
Ġst ated
å¸ Ī
os al
Ġanal ges
ÑĤ Ñĥ
Ġprot ected
Ġalign ment
Ġlearn ed
at um
ad em
a ult
Ġdis l
Ġsusp ension
éħ ¸
Ġdemonstr ating
Ġrem ove
ĠK on
Ġobserv ational
çŁ ¥
Ġimmun ity
Ġtr avail
Ġp ec
RP OSE
Ġen for
ec tivity
Ġapplic ability
Ġcy st
Ġb ub
Ġsusp ected
ĠR o
imm un
met hod
Ġvacc ination
Ġsurv iv
ĠK ing
çĻ ½
ul se
åı Ĺ
Ġconc urrent
Ġt ingkat
ĠB ras
Ġconstrain t
u ity
Ġcon duction
Ġth r
Ġ................................................................ ................................
Ġel ong
Ġultim ately
Ġ199 2
Ġnat urally
å¼ Ĥ
le k
Ġagg ressive
Ġread ers
Ġpenetr ation
atis tical
Ġpublic ations
Ġinter c
Ġaggreg ate
éĥ ½
Ġ7 4
Ġman if
Ġsal ah
Ġk omp
æ· ±
Ġrec urs
Ġmicro organ
Ġstake holders
Ġcamp aign
ĠP ET
Ġcas c
Ġting gi
d y
Ġ199 3
Ġpseud o
Ġprocess o
Ġdisturb ances
Ġleak age
Ġmetric s
M y
Ġinf ant
Ġs we
Ġatr ial
Ġarth ritis
Ġ ic
Ġint ense
Ġfac ed
ut ation
Ġst om
Ġrepro duction
H is
åı ²
Ġcomp ress
Ġcri tically
èī ²
Ġdist ress
ic ate
Ġrec ycl
Ġpack age
ĠA gr
Ġcr iminal
ores is
RO DU
Ġcre ative
Ġaneur ys
â ħ
Ġsess ions
Ġse arc
Ġexcess ive
Ð½Ð¸ Ñħ
il ation
scher ichia
Ġconcentr ated
ĠR oman
Ġac ting
ac io
ĠA cc
Ġtop ology
æį ®
ac ific
Ġêµ Ĳ
è± ¡
å® ī
Ġex er
Ġclos ure
Ġf oss
Ġrestric tion
Ġ Ñĸ
ĠBl ack
ores t
ĠL C
Ġcyl inder
è¯ ¥
Ġsupple ment
Ġdis par
Ġph on
Ġcaus al
Ġser a
ÐµÐ½Ð¸ Ðµ
Ġtob acco
Ġmicro gr
Ġenf erm
Ġcol orectal
inf ected
ÑĨ Ðµ
Ġneut roph
ler i
Ġref erences
Ġtransfer red
Ð· Ñĥ
Ġchar ged
è ¢
Ġenab ling
Ġegg s
Ġbird s
og onal
Ġde ad
Ġprecip it
Ġfil tering
? ?
Ġex cluded
Ġcust om
ost asis
Ġaud io
h or
Ġdr am
Ġ9 3
Ġretros pectively
Ġëª ¨
Ġmach ines
ĠAn g
Ġc av
Ġpron ounced
Ġnew s
Ġunus ual
Ġs an
Ġ9 4
rom o
un ately
Ġtranscrip t
Ä ĳ
ros ine
Ġmic roscopic
t d
Ġad herence
est he
Ġrev olution
ĠP sych
Ġco herent
Ġgl i
Ġprevent ed
ĠF l
O ut
in vasive
Ġradi otherapy
ient os
Ġoccup ational
Ġnorm ally
od en
Ġcl ay
Ġplural ity
Ġir regular
è§ Ħ
Ġmember ikan
Ġfonc tion
h ist
Ġadministr ative
ur as
Ġimpl ies
Î ¸
p hen
Ġod ds
Ġgraph s
yp es
ob ile
ell s
Ġserv ed
Ġsec ure
Ġdiscuss ions
à¸ «
s in
R el
F igure
Ġanal ise
ĠIs lamic
ĠD ise
Ã¢ ncia
Ġtun nel
Met ode
Ġalk aline
Ġanomal ies
Ġrad ar
ç ¦
Ġmo tif
Ġlymph oma
ĠAr ch
ĠS F
ut or
Ġaff ord
ocy an
Ġme j
ÑĢ Ð¾Ð²
D as
on n
Ġk ary
ĠS n
Ġfac ing
Ġair craft
Ġt ab
Ġclear ance
ol ation
bor ne
Ġvo ice
ĠG Hz
ĠPro t
P or
Ġpl ots
Ġë¬ ¸
ges tion
Ġ8 1
Ġa ureus
Ġs hed
à¹ ĥ
ail s
L V
Ġhydro lysis
ak arta
Ġb orn
er d
ãģĹ ãģ¦
form s
am atan
ic io
Ġb ending
ĠS S
Ġpoll ut
Ġtraject ory
r h
Ġfol lic
Ġd Ã©
id in
Ġfed eral
ĠFed eral
omp ati
F ive
Ġexp end
Ġcircul ating
Ġaccoun ted
å¤ ©
ĠÃ ¼
Ġ6 00
ìľ ł
ul kan
Ġg on
ĠS r
e or
Ġsuff ering
Ġrev ision
Ġmeth anol
Ġflu ids
Ġmak a
Ġfil ters
Ġmetast ases
Ġas h
Ø§Ø ´
Ġair way
Ġsummar ized
plas ia
end ly
in as
ĠPro blem
olog ist
Ġespec ial
Ġcompati ble
Ġpolymorph ism
op pler
ä¹ ł
íķ ¨
ec tic
Ġb order
Ġlegis l
Ġsu atu
Ġ Ñı
Ġwe ighted
ec al
å½± åĵį
b il
Ġrepl aced
ĠÂ ©
Ġantig ens
Ġmass es
Ġrest oration
Ġval or
ĠFe bruary
Õ¡ Õ
Ġg aps
Ġab ilities
G roup
imet ric
ĠØª ÙĪ
Ġadjus ting
Ġalb umin
u vent
Ġmat ch
il ed
ov irus
Ġcor tic
Ġrecr uited
ä¸Ń çļĦ
ant ly
Ġag encies
osp here
Ġsci ences
Ġk ec
Ġparent al
Ġprep are
Ġshap es
Ġc ot
is en
ì Ī
Ġtrop ical
in ar
Ġread er
Ob jectives
Ġcalcul ating
omy cin
tig en
Ġmodel o
Ġ Ð¾
åĲ į
Ð ł
Ġinfer ior
Ġre activity
dep th
Ġsufficient ly
opath ological
Ġpuls es
th at
Ġres is
ul er
am ate
à¸ Ī
Ġmetall ic
Ġkep ada
Ġdisclos es
Ġp ie
Ġexc ited
Ġgal ax
Ġinform ed
Ġn ight
Ġsp r
Ġmut ual
Ġadop t
f unctional
Ġexpl ains
Ġdi ets
ç± »
Ġcoating s
Ġconserv ed
n as
L as
Ġassist ance
Ġst yl
Ġtheore m
Ġth ym
Ġoper ative
Ġdi re
Ġres olved
Ġobs er
ri age
am er
ri le
ig her
te urs
gi atan
ĠT O
Ġmoment um
ìĦ ł
u ang
Ġlith ium
Ġconver ted
Ġdro ple
ãĥ Ī
e a
ex pl
ĠÐ² Ñĭ
Ġprob abil
Ġpart ly
Ġ199 1
Ġpl anned
ĠH D
ä¼ ģ
Ġcompr ised
Ġplan ar
w est
Ġkn ock
Ġnas al
ìĹ °
ill a
ati d
Ġin her
é Ł
æº Ĳ
Mean while
Ġpreserv ation
Ġfac ulty
Ġconstit ute
ĠC ap
Ġdef ining
Ġentit y
ä½ľ çĶ¨
in ement
Ġprof es
Ġnucle otide
ys tic
Ġanal is
Ġwith d
Ġresid ue
IG N
Ġp ais
Ġcho ose
od al
ang es
Ġcon vers
Ġweak ness
ERI AL
all ine
í Ĺ
æĢ »
Ġins pec
R ep
Ġnitr ate
Ø§Ø¯ Ùĩ
Vari ous
Ġord inary
Ġm oney
elec tron
Ġco operative
Ġperf usion
Ġorgan ism
Ġcar riers
Ġmon o
çľ ģ
az ione
ul us
w ere
Ġf ut
ob last
Ġaccel erated
Ġprov ince
è· ¯
Ġt ag
in an
å¤ Ħ
Ġdev oted
as k
Ġge ographical
Ġepid erm
u ing
è§ Ĩ
Ġmic rop
Ġen j
PU RPOSE
Ġcas o
Ġmen y
other mal
U s
Ġpharmac ological
Ġepis odes
Ġmin er
+ /-
Ġf urn
Ġpartn ers
ì Ĥ°
met h
Ġent ropy
2 000
Ġkep t
Ġfill ed
D et
Ġcorrel ate
è® ¤
Ġre plic
lec tive
o i
Ġarter ies
ur istic
it ure
Ġaddress ing
Ġarom atic
Ġco vari
G R
Ġam orphous
Ġbr id
ãĤ Ĥ
ç² ¾
æĸ ½
Ġatt achment
Ġadver tis
ent ed
io let
re al
Ø§Ù Ĥ
é ¦
ail ed
Ġve z
Ġdiss olved
ë£ Į
A MP
è¿ Ĳ
Ġves ic
ĳ ľ
Ġun stable
ĠNe geri
ic her
Ġlabor ator
ĠG aussian
201 0
Ġunt reated
Ġidentif ies
Ġaltern atives
Ġultras onic
Ġabs ent
z er
Ġol arak
ven ue
F r
k l
Ġnecess ity
Ġlim itation
ìĿ ¼
ĠCh ar
Ġmel ting
èĳ Ĺ
Ġëĵ ±
Ġpel o
Ġev olved
ig i
opyr ight
Ġvis it
00 2
æĢ ģ
ë§ Į
Ġreg imes
Ġbroad er
Ġ( >
Ġvisual ization
e per
P ost
Int erest
ĠG l
tiv itas
ĠI r
Ġtrig g
ww w
ìĭ ł
Ġasymmet ric
Ġpass age
u ir
ibr ary
Ġin organic
Ġcomb ine
ĠM y
U M
ĠB ackground
ĠS L
Ġgood s
Ġacet yl
ĠC C
Ġl am
Ġquantif ied
b its
Ġn ombre
Ġcl ient
Ġcom un
Ġassemb l
ĠPro cess
r ata
Ġapparent ly
ocl onal
ê² °
ĠS V
Ġth ous
og ether
Ġreinfor ced
Ġm ant
Ġcat hod
ĠC ur
Ġpolymer ization
ÑĢÐ° Ð²
imet ry
it udes
Ġn ive
Ġin version
Ġfig ures
Ġ9 1
Ġcollec t
Ġact in
Ġindivid u
ĠCl inical
Ġimm obil
Ġp in
ĠD av
201 3
F P
Ġret ard
Ġcur v
Ġdem entia
Ġcarb ohydr
ĠD em
ĠM I
æĸĩ åĮĸ
Ġcor pus
Ġsymmet ric
ĠP ress
Ġnecess arily
Ġlegis lation
Ġsyn erg
Ġvulner able
Ġm so
Ġathe ros
r im
Ã§ Ãµes
id entif
Ġmet aph
yp ical
Ġdri ver
åį ģ
Ġend s
Ġturb ine
C ette
n orm
isc her
up le
Ġplay ers
ĠCar lo
Ġdiffere d
ĠG reen
ild ing
Ġpartic ul
G s
Ġf ile
an ic
ati t
Ġplatform s
åħ ĥ
Ġcho ices
Ġdifferenti ated
Ġg ases
Ġneigh bor
bo ard
Ġmic rom
Ġpend idikan
M g
p henyl
Ġsub mitted
c her
ĠS R
us iness
é ĵ
arg et
n als
Ġpath s
ĠìĿ ¼
1 01
g est
Ġv om
ä» ·
Ġshall ow
l ag
Ġp yro
Ġhypot hesized
ĠProfess or
Ġaccess ible
ĠSur vey
st one
Ġincorpor ating
Ġenab led
n it
æĮ ģ
Ġsow ie
Ð¸ ÑĩÐµÑģÐº
Ñİ Ñī
ass ung
Ġco vers
Ġind eed
b urg
ti se
asi h
Ġfung al
Ġpro gen
Ġr um
Ġp ÅĻ
G O
Ġinc ons
ex tr
Ġfung i
NA L
ill er
T ujuan
o is
Ġarg ued
ĠD iff
Ġprof it
Ġst enosis
ĠS EM
Ġanc ient
Ġguarante e
ĠA M
Ġeng age
Ġinst alled
w orld
Ġa uss
ere m
ĠInd ustr
ĠL and
ĠItal y
Ġdes irable
reg n
pl ay
Ġcum ulative
å° ĳ
éĽ Ĩ
åħ· æľī
Ġdev i
Ġwel ding
jet o
uk um
äº Ľ
Ġreg imen
En g
Ġb ers
ther mal
ĠP res
Ġclin icians
acchar ide
å· ®
Ġaut onomous
Ġcomple tion
Ġw orth
$ $
cept or
as p
Ġestud i
Ġout perform
Ġre ly
uk tur
on ium
ĠMal ays
ĠAb stract
Ġdi pl
Ġfor ced
Ġdef ense
ìľ ¡
Ġcul tivation
Ġke giatan
Ġdri vers
Ġel imination
Ġalle le
ĠT H
ĠÑģ Ð¸
ia e
Ġgener ic
Ġultr a
Ġcom fort
Ġsik lus
Ġhard ness
ëħ Ħ
ploy ment
und a
Ġout bre
Ġorgan iz
Ġact ors
Ġtit le
Ġcycl o
ĠD ef
Ġm ecan
Ġcolle ag
uh r
Ġfav our
Ġinter ior
Ġsam pled
Ġext ending
Ġto oth
æ²» çĸĹ
ĠH T
Ġub iquit
Ġselec ting
Ġcomb ines
Ġarg uments
ĠE scherichia
tr ial
Ġh uge
Ġí Ĭ¹
à¸ °
ch ain
Ġinform asi
Ġpat ch
S F
åĬ Ł
t age
ĠThe rap
An other
Ġê ·
Ġfund ing
ĠÐ¸ Ð½
Ġampl ification
Ġl in
Ġconn ecting
Ġstation ary
E r
Ġinequ ality
Ġmanag er
om onas
ĠS pr
åį ķ
Ġprogramm es
Ġdon ors
ÙĦ Ø§
ĠSp anish
Ġded icated
çħ §
Ġpro phyl
roph y
ĠEng land
Ġs ides
ï¼ ħ
ĠìĦ ±
ĠKore an
Ġfa ults
Ġfem oral
el as
ĠG C
æĬĢ æľ¯
at kan
ist an
W here
ĠL ondon
Ġ8 9
Ġco ated
Ġb ill
ad ren
Cons id
Ġserv es
Ġclar ify
Ġres il
ĠH z
he imer
æł ¡
Ġrel ate
Ġg ames
D ep
os yl
Ġm old
Ġvari abel
ro id
z z
am ple
ual itas
æł ·
ES T
æ »
Ġ7 9
ĠÙģ ÙĬ
Ġuseful ness
ĠE nd
ĠCour t
Ġproces o
Ġgly col
Ġhyp oth
up un
201 4
Ġfertil ity
Ġcytok ine
Ġsimpl ified
Ġsam pel
of lu
Ġsh aft
Ġac know
up a
em atic
to tic
ess o
ìł Ĳ
Ġ íķľ
om at
ph thal
ber t
u ai
Ġt ac
er ah
Ġrap port
Ġv ig
Ù ¾
te ur
Ġembry os
Ġexpress ing
Ġìł ģ
ix ed
å Ļ
ect o
Ġal t
n c
Ġdi ast
Ġestr ateg
ĠR ad
å¤ į
N ous
Ġphys i
Ġgro ss
Ġbi oc
Ġj a
wo od
ti ques
Ġme at
Ġtranscrip tional
yz ed
Ġsc aff
Ġexp ensive
Ġde x
Ġdiscipl ine
ĠThe ory
Ġsc ar
Ġma ior
u ters
Ġpath ogenic
ĠA uf
Ġ erg
è ¥
ti a
Ġfib re
en es
Ġreg istered
ĠT ai
Ġreturn s
ĠE th
Ġmiss ing
o tr
Ġcont en
Ġview ed
anc a
ĠK e
Ġarr ays
Ġpres cribed
atur ated
transfer ase
Ġneg oti
oc oc
Ġb ab
Ġf et
Ġsp ort
com m
ang g
Ġconc om
ç¥ ŀ
ë ¯¸
Ġconflic ts
çİ ¯
Ġgo ing
ĠPro ject
ores cence
Ġad anya
Ġí Į
de ed
Ġnav igation
Ġby pass
ĠC V
h n
Ġevalu ations
ol ism
en ic
Ġscre w
oph yll
Ľ Ħ
Ġrelig ion
A K
ìĹĲìĦľ ëĬĶ
ast y
ĠRuss ia
B N
H al
n ement
Ġper oxid
leuk in
Ġpos e
ĠT GF
Ġgrup o
Ġquantif ication
ac o
ativ os
Ġhand le
N ow
po ints
Ġinfil tration
Ġloc us
Ġtransform ations
Ġì ĨĮ
è¿ °
ĠComm it
Ġt alk
ĠLabor atory
d ays
ur ia
Ġcol our
ic hen
Ġspl it
Ġmamm alian
ge al
Ġcomp ute
æ ¤
m b
Ġpriv acy
Ġthe or
ans i
Ġdevelop s
Ġfem in
p ower
Ġd anger
Ġë¶Ħ ìĦĿ
Ġgener ates
az ine
c ale
Øª ÛĮ
f our
ing e
Ġprof ound
d irec
y on
è Į
Ġh oles
H ist
k le
P F
struct ured
Ġintegr ate
Ġreason ing
Ġkem ampuan
201 5
cler osis
Ġqu est
Ð¾Ð´ Ð¸
Ġge ographic
Ġm olar
Ġtor que
Ð Ŀ
Ġcareful ly
valu ation
ed uc
uc l
Ġdeple tion
Ġcal or
Ġsocio economic
ĠM ich
Ġanaly tic
Ġeas tern
Ġsc ene
RODU CTION
Ġsp ent
Ġcar til
Ġartig o
Ġsud den
Ġpro jection
D F
å¼ ķ
ĠØª ØŃ
n ah
ĠSt re
Ġn ickel
Ġcultiv ars
umb ar
Ġí Ķ
Ġemo tion
Ġdrama tically
acet yl
æĪĳ ä»¬
od er
Ġuncertain ties
å ĭ
o ire
Ġg ains
Ġcan al
Ġa ument
d ensity
ĠC ong
Å Ł
ass isted
Ġcat tle
Ñİ ÑĤ
Ġwor se
ond ition
Ġvis its
p red
Ġpar ty
å ²
Ġcare g
n ih
Ġelectroly te
Ð¾Ð» Ð¾Ð³
Ġcr ust
Ġinst ances
Ġlat est
Ġf ro
arcom a
ĠD R
unc ture
Ã ł
Ġp y
he ast
Ġprop ri
Ġcaro tid
omet hing
Ġantic ip
am y
Ġsp here
å ķ
Ġre jection
Ġë Ĥ´
Ġhouseh olds
Ġzw ischen
Ġrough ness
åħ Ī
erv ation
Ġre aching
Ġdeterm ines
ocarcin oma
P art
æŃ ¥
Ġsess ion
M W
Ġm irr
Ġreduc tions
ãģ Ĭ
Ġit em
ul asi
Ġchap ters
sp eed
Ġpro c
Ġexpl oring
Ġscre ened
o ol
Ġde hydrogen
Ġdynam ical
Ġconf erence
Ġmelan oma
201 2
Ġprepar ations
K D
Ġh all
Ġtr y
Ġconcer ne
æİ ¨
Ġbes ar
B B
ĠM ad
ud i
Ġleg itim
rend iz
Ġa os
p atients
eng er
ĠA N
s ite
Ġlit ter
Ġelement ary
ĠëĤĺ íĥĢ
ÐµÑĤ ÑģÑı
Ġutil ize
Ġquantit atively
è¥ ¿
ê° ľ
i Ã³n
åħ »
ĠÑģÑĤ Ð°
Ġtheore tically
Ġdo k
ä¹ ¦
ĠT er
Ġacc ident
ĠC E
Ġfer mentation
Ġd ont
Ġnew born
Ġan ch
Ð Ĳ
Ġprac tic
Ġob ese
are t
Ġstreng ths
ê ¸
Ġju ven
Ġal lev
ul os
Ġb owel
Ġconn ectivity
l ock
Ġmicrob i
ab e
tain s
al c
Ġinadequ ate
otrop y
Ġsub unit
pers onal
st ell
Ġcap illary
c atal
ĠK abupaten
Ġpsych ology
i tic
Ġfail ures
Ġelimin ate
o o
Ġfood s
omet ri
Ġpig s
Ġd ol
Ġf ear
ĠU r
Ġobstr uction
Ġpath ophys
Ġrel ief
ud ge
Ġfit ness
Ġcon ception
pro tein
duc t
Ġlabel ed
Ġl ifest
og y
fort unately
Ġdes krip
Ġb anyak
å® ¹
Ġsuper conduc
in form
Ġme io
Ðº Ñĥ
arak ter
Ġspecial ized
Ġmethod ologies
Ð³ Ð°
æµ ·
Ġim plicated
Ġliter acy
Ġwhe el
è¢ «
k m
em as
ag r
p es
ree k
Ġro tor
act ory
Ġincomple te
è¡¨ è¾¾
Ġhum idity
Ġresult ats
Ġw arr
Øª Ùĩ
ost a
Ġintegr ating
Ġcontext ual
ĠÙħ Ø¹
las ma
ä¼ģ ä¸ļ
In deed
Ġsympt omatic
ig t
at r
Ġdefic it
ç®¡ çĲĨ
Ġbr ight
ĠÎ µ
Ġcollis ion
Ġexam inations
Ġlat ency
ĠV ir
Ðº Ð¾
ĠChristi an
Ġdoc tor
Ġpropos al
âĢ² -
ut y
ĠStud ies
í Ķ
Ġexpon ential
ail ing
Ġhub ungan
Ġoc clusion
ç½ ®
Ø± Ùģ
ĠD oppler
Ġcorrect ly
Ġimportant e
ĠS ing
rop ol
ĠOrgan ization
ĠProv ince
Ġass ume
aryn geal
Ġform ulations
Ġindic ations
Ġrot ating
Ġmom ents
Ø§Ø ®
Ġbeg in
ĠBras il
Ġseek ing
Ġb ile
å¹ ¿
amet ers
Ġmethyl ation
itiz ation
c entr
Ġdist ortion
Ġst arch
Ġun com
st ere
Ġpend ekatan
Ġindic ation
op ter
Ġle x
Ø ¢
hy d
ĺ Ĳ
Ġst ars
Ġz we
lear ning
Ġfill ing
Ġauthor ity
Ġj unction
Ġenc oun
Ġdistingu ished
Ġnumer ically
art z
amp s
Ġreg istration
èģ Ķ
Ġsyst olic
Ġber pengaruh
Sub sequ
B E
b ab
apat kan
Ð»Ðµ Ð´
Ġd rought
¸ ¡
Ġ rom
ors ch
ĠH ist
in ic
Ġinflu enza
Ġmon oclonal
L O
h ard
Ġs ales
M ul
Ġevent ually
io id
ay ers
ë° ĺ
os ome
Ġbov ine
ocy tic
C omb
Ġev ap
Ġatt end
Ġab lation
ly cer
Ġl ap
ĠE g
re ported
l abel
Ġsupple mentation
ĠNiger ia
Ġst ent
Ġch ol
Ð½ Ñĥ
æ³ ¨
ĠCoun cil
Ġprecis ely
ĠIn tegr
Ġseg reg
Ġmedic ations
it age
oid es
Ġ 000
Ġsynt hes
T iO
Ã¤ t
Î¼ m
ot on
Ġthem e
Ġprim e
Ġreinfor cement
Ġeth ics
l ab
ĠÙĪ Ø§ÙĦ
er i
ĠA V
Ġgovern ments
A u
Ġveloc ities
nis se
åİ Ĩ
eff icient
Ġmechan ics
Ġb und
è Ĩ
u y
enc ion
Sim ulation
Ġantagon ist
1 20
ĠV ers
00 5
Ġdraw ing
à¸ ŀ
Ġde gen
ĠÐ¸ Ð·
Ġstabil ization
Ġlist ed
Ġrevers ible
Sim ilarly
Ġj umlah
ro d
Ġconj unction
Ġk a
Ġstr ugg
Ġmel t
Ġmen j
Ġwork sh
ĠS H
Ġcarbon ate
ul monary
r ate
ati o
Ġfa it
Ġrecruit ment
Ġter jadi
he a
Ġmanip ulation
ĠG od
Ġel lip
Ġfit ting
Ġconcom itant
ĠÂ ·
ous ly
ag i
rop ri
er ta
Ġenti ties
Ġbranc hes
pl ane
Ġconserv ative
Ġ( <
Ġed ges
Ġpolyn omial
Ġre tic
ti te
Ġwalk ing
ĠM ach
Ġatten uation
Ã¤ n
Ġoff ic
m os
un to
Ġpres um
ĠØ¹ ÙĦ
Ġfl oor
Ġschizophren ia
ĠëĶ °
Ġintr am
Ġb if
ut ch
Ġp ens
ĠP acific
it tle
Co V
Ġemploy ee
ÙĪ Ùħ
ax ial
Ġmem per
Ġcall s
ber apa
ab olic
Ġiniti atives
istr ict
ĠPh il
Ġh ouse
Ġdefic its
ump ulan
Ġhyp oxia
id i
ĠA G
Ġmo ins
Ġmagn esium
Ġle v
Ġsystem e
Ġsl iding
Ġsec re
å· ²
Ġh ind
äº ¤
pl an
ĠEn ergy
ĠS PSS
F R
Ġen riched
ĠØ ·
ĠA rm
Ġpre t
ĠâĢ ¦
Ġs ure
ĠP H
Ġcolleag ues
ë ¹Ħ
ie u
Ġmedi ante
Ġsimilar ities
ib les
Ġber k
ìĦ± ìĿĦ
ore l
Ġter tiary
201 1
ä¾ Ľ
F s
ĠH LA
Ġv ent
Ġpromot es
el n
Ġm ah
el ve
it ung
Ġwork ed
Ġvolunte ers
ï »
N E
íķĺ ê¸°
çĽ® çļĦ
w al
Ġmed ial
Ġins p
ind ependent
æ° Ķ
ke let
Ġ198 9
Ġpreven tive
í ħ
Ġdiss olution
iqu id
z ing
Ġs ac
form ance
Ġcontr action
å¢ ĥ
ìľ¼ ë©°
ä¸ ĵ
Ġdisc rep
p ic
Ġencour age
Ġcon du
Ġbl ast
our ces
ut s
åĲ «
g ene
od erm
ĠR h
elec tro
ro f
Ġcollec ting
ĠR ES
Ġfil tration
ĠIn troduction
Ġper for
ìĸ ĳ
Ġcoord inate
ĠN or
am ous
Ġinspec tion
om o
Ġver b
ag ul
èĬ Ĥ
Ġw ir
me tic
Ġr ip
ç» ĩ
Ġhydro xyl
Ġmat uration
Ġl oci
Ġentreprene urs
Ġnutr ients
ĠA ir
r ad
çº ¿
Ġoff ice
am ents
op rop
Ġcr ime
Ġcapture d
Ġsh ip
as al
d oped
ev alu
Ġs omething
Ġhemorrh age
âĢ Ĥ
ap es
Ġenh ances
l at
Ġobvious ly
Ġst ain
Ġthrough put
ari um
Ġim plicit
ãģķ ãĤĮ
Ġdon nees
ĠÐ¼ Ð°
Interest ingly
ov ol
Ġse pt
Ġenl arg
Ġdi am
Ġdestr uction
och rome
Ber dasarkan
ç¡ ®
Ġaut or
ë° ľ
ad ays
ĠG lobal
ĠI d
I g
Ġm asih
Ġfr uits
Ġcomp ressive
Ġsome what
ingk atan
ÙĬ ÙĨ
è® ¨
Ġnorm s
anal yse
Ġb rom
Ġdiscipl ines
éĿ ©
Ġech ocardi
Ġhybrid ization
Ġz a
ĠH CC
ĠL atin
æĪ ĸ
ĠÐ¿ Ð¾Ð»
å± Ĥ
æĶ ¶
och rom
z heimer
Ġbi od
âĦ ĥ
Ġle ct
h m
á ĥ
Ġmuc osa
Ġsw elling
Ġfraction al
el a
1 10
ver y
Ġab err
re ch
ass emb
Ġd ir
Ġ1 01
Ġqu ery
Ġem pl
Ġpro y
ud a
Ġc in
iz ar
ens in
ning s
rup tion
Ġ18 0
Ġto wn
A E
all ing
Ġfram es
ress ing
ti an
Ġw it
gr aph
el en
m ass
Ġlo oking
Ã¡ s
Ġseb anyak
Ġend oscopic
Ġd uc
ĠM ass
ģ ¬
ick ing
on or
v an
Ġalk yl
ĠC e
Ġauthor ities
Ġfertil izer
íĺ ¸
and ing
Ġest rogen
Ġra ise
Ð· Ð¸
Ġpo inted
Ġsp le
em en
Ġfl o
Ġneed le
ĠK ar
p res
ĠM el
ĠComm ission
Ġpor osity
Ġtit anium
Ġass ets
Ġsatisf y
Ġpre treatment
pec ific
Exper iments
Ġrecip ients
Ġexplicit ly
Ġdet r
ĠG overnment
o j
Ġrub ber
op ulation
Ï į
Ġpes tic
Ġste am
Ġ19 60
echn ology
perform ance
Ġeconomic s
Ġsp ine
Ġwave gu
Ġdefinition s
c ost
it ar
Ġsup ers
éļ ı
ãĥ ª
ĠM AP
Ġë į
Ġcl ients
ĠM ac
T otal
l ity
Ġma ize
iv ariate
tim m
å»º è®¾
à¸ Ĥ
Ġleng ths
ì§ Ħ
ophil ic
200 9
Ġr ising
Ġorb ital
ãĤ ¤
Ġis land
Ġc et
Ġcal ibr
ogn itive
Ġure a
Ġneu tr
W S
Ġc DNA
Ġprob es
Ġmess ages
Ġanatom ical
Ġstr ip
EN TS
è¯ Ħ
Ġultim ate
Ġspecific ation
if iers
Ġm ens
ãĤ ģ
on en
Ġfl ame
Ġeng aged
Ġappro ved
un y
P eng
Ð´ Ðµ
Ġconsequ ently
rolog y
ëĵ ľ
Ġattemp ted
ab a
AC E
u ates
Ġcom ing
Ġel se
Ġac tively
Ġearthqu ake
Ġext ends
ĠZn O
ul der
Ġdetect able
v idence
Ġm ues
Ġag ency
Ġing red
Ġpreserv ed
g as
Ġmas alah
s pl
Ġcell ulose
ok ers
Ġseek s
Ġaccum ulated
Ġen erge
ĠìĤ¬ ìļ©
ĠC am
Ġë³ Ģ
Ġfac es
ĠL td
Ġmin i
Ġ Å
Ġtax a
U ne
at os
Ġrenew able
Ġlib eral
rom bo
ut an
ub es
Ġinf inite
is hes
ag ic
Ġin let
Ġturbul ence
âī ¤
Numer ical
Ġr ata
ac ies
æıĲ é«ĺ
T M
um a
ĠO x
ĠQ uality
Ġmm ol
ĠP AR
Ġkel ompok
it en
Ġacad em
Ġc amb
æ¸ ħ
at om
Ġtub es
ĠN av
Ġa tiv
ub ation
Ġparamet ric
ul ates
T I
ĠE qu
ĠRe view
Ġisol ate
Ġf ly
î Ģ
Ġphotoc atal
Ġ Ðµ
Ġconstr ained
åĻ ¨
olog ique
Ġrec herche
ĠBay esian
Ġshap ed
asis wa
Ġor bit
ĠN E
ĠS I
ĠM MP
ip t
Ð³ Ð¾
ug u
akt u
Ġlat ent
ch r
åĳ ĺ
Ġs ag
Ġit erative
w ord
ĠW as
Ġimm ers
Ġge ological
R s
Ġal iment
k es
Ġef ek
ec ess
ox in
m us
op y
Ġex clusion
Stud y
U l
Ġëĭ ¨
Ġreflec ting
ogram s
ĠE F
ĠCommit tee
Ġstr ing
Ġs int
ed ical
Ġlip ids
Ð¾Ð²Ð°Ð½Ð¸ Ñı
Ġan emia
Ġexclus ively
Ð° Ð²
h ir
ìĦ ¸
Ġhem oglobin
Ġlapa roscopic
ĠM P
in ent
Ġcontex to
let es
Ġt ended
ãģ§ ãģĤ
aus al
Ġmal aria
Ġgl omer
ĠPh arm
Ġvol unt
opath ic
lan tic
Ġecosystem s
Ġre tained
Ġincre ment
id el
Ġfores ts
ĠO s
Ġneg lig
act ors
Ġguid ed
Ġso on
Ġoscill ations
Ġentire ly
Ġparti e
Ġest os
Ġas i
aks anaan
Ġd ella
Ã© e
ĠÐ¿ ÑĢÐµÐ´
Ġalter ation
D G
Ġr ings
hel l
h u
Ġeti ology
uc cess
ĠSp ain
Ġm os
çĹ ĩ
Ġav ons
Ġs ap
Ġrequ est
g in
th ree
mon ths
ĠL ibrary
Ġdors al
for ward
G l
Ġlibr aries
ud ian
Ġper c
Ġenzym atic
Ġen contr
200 6
Ġex empl
ĠT a
Ġcle avage
com ing
Ġt ib
Ġty rosine
200 8
ÛĮ Ùħ
Ġh ands
Ġte ams
Ġn in
Ġfunction ality
it ol
Ġrel apse
Ġepit helium
ard ing
Ġorth ogonal
Ġacid ic
Ġtrait ement
à¸ Ĭ
ĠM as
Î· ÏĤ
f ive
Ġwill ing
Ġrel ies
Ġtop ological
Ġte lev
Ġbound ed
Î¼ g
Ġk ad
Ġe V
h ou
Ġgerm ination
s a
Ġsolub ility
al and
uest a
Ð¼ Ðµ
æĿ Ĳ
Ġrot ational
Ġ Ñħ
Ġcytotox ic
Ġpart ner
Ġgener a
iv ision
ier ten
ĠT ex
ste ine
ĠK al
Ġcaracter istic
âī ¥
ĠAr t
on o
eu x
Ġref ers
Ġdep ressive
c ine
Ġex ogenous
w t
MAT ERIAL
Ġeth yl
Ġrevers ed
Ġtransp arent
ĠD isc
Ġmicroorgan isms
usamm enf
exp ected
íĹ ĺ
ĠEL ISA
P b
Ġlec ture
Ġê²ĥ ìľ¼ë¡ľ
air s
Ġmet am
T H
acer b
Ġdeskrip tif
Ġaccompl ished
hed ral
è º
T od
Ġclass ic
f ung
Ġcl ock
gun aan
hal t
Ġelucid ate
æĶ ¾
ëŁ ī
Ġset up
ag onal
Ġreal ization
ic ing
Ġarch ae
Ġrecomb ination
Ġfin ance
Ġasympt omatic
Ġan not
ĠV EGF
chang ed
Ð´ Ð¸
on i
Ġy ap
Ġy ellow
Ġincorpor ate
Ġpec ul
Ġs oph
Ġëı Ļ
Ġp sycho
ati ques
Ġcan n
è¯ ķ
AB A
Ġauto immune
D ES
pr int
ä¸į åĲĮ
Ġph one
ĠÌ Ħ
ĠM or
ĠT ype
Ġel ig
AT P
ox ygen
Ġpen ingkatan
op or
Ġter rit
Ġmet eor
Ġcolon y
Ġshe ep
ed ge
ocyt osis
L i
Ġcont acts
Â «
Ġminer als
te ins
Ġmeth ane
n ary
¢ ħ
Ġgr ande
ur on
ĠI D
ĠM AT
au er
Ġver bal
in en
Ġdele tion
Ġdies e
Ġasympt otic
1 50
Ġbo ys
u ar
m istir
D ec
Ġen velop
Ġdocument ation
Ġìķ Ħ
Ġpres t
n an
Ġcartil age
Ġminor ity
Ġê²° ê³¼
Ġdi arr
Ġt rem
S n
in us
ĠK ap
Ġst ore
Ġnanoc om
ĠN on
Ġrem od
G M
Ġturn over
I mmun
æķ ´
Ġauss i
Ġk ed
Ġachie ves
Ġequ ity
Ġdram atic
Current ly
d imethyl
ag ue
. ).
Ġ ),
Ġproduc tive
ĠP et
Ġbreak down
u ent
Ġ íķĺ
Ġresearc her
Ġ198 8
Ġ( -
Ġstim ulate
ir an
Ġf i
Ġens emble
eterm ined
Ġr s
ine a
app a
ìľ Ħ
Ġaudit ory
Ġbal anced
ĠTai wan
ator ial
Ġun able
Ġsuff er
Ġses uai
ple ment
ĠM C
Ġconve x
Ġh r
ĠCent re
isc al
ur ate
Ġcr iti
åŁ ¹
ĠO ne
Ġrab bits
Ġstr ik
Ġturbul ent
now ledge
Ġadhes ive
Ġar rest
CL C
eren cia
ĠÐº Ð¾Ð½
éĢ ī
am en
ĠB u
m ode
Ġcontrovers ial
Ġpr ak
b earing
Ġe ther
ĠO ut
éĿ ŀ
Ġperturb ation
ĠP seud
ĠA A
ek nik
Ġmen ing
Ġred ox
T L
ä¼ ĺ
oun g
åĽ ŀ
Ġbr ings
Ġenrich ment
Ġd amping
In f
Ġp ages
ĠD o
Ġphot on
aphyl ococcus
Ġsep sis
Ġtherap eu
Ġsol o
Ġ Ð¾Ð¿
Ġcontr ary
Ġpack et
amil ton
av iolet
tiz ed
Ġ à¤
Ġid i
Ġprem ature
od on
A mer
per ti
åĮ »
at hered
Ġcor ne
Ġsur prising
Ġhydroph obic
Ġn u
Ġsoc ied
Ġpi ece
çº §
ace ous
de velop
Ġ8 00
Ġsos ial
l ari
é »
ĠL PS
ĠNa Cl
ĠB R
Ġab str
Ġar as
Ġs now
Ġselec tively
av ior
] )
uc he
Ġwithd raw
Ġr Ã©
Ġimpl ants
Ġet ude
Ġap art
Ġrem ission
Ġkern el
r ia
Ġrespond ed
Ġf elt
Ġchemical s
in y
Ġâ Ħ
æ® µ
ad ium
cop ro
Ġclim atic
Ġob jec
ĠØ¢ ÙĨ
Ġa j
ub er
ĠO per
ĠAss essment
chym al
Îº B
ĠV or
æľ¬ æĸĩ
Ġmas k
Ġconstruc ts
Ġanis otropy
ens es
z t
H L
Ġgr amm
Ġbi ops
ä¸Ģ ç§į
ĠH b
ĠH PV
åŁ Ł
Ġsple en
Ġindepend ence
Ġprob able
ìĿ Į
Ġsched ule
Ġcylind rical
ĠF OR
Ġsign ature
b el
um atic
ĠL iter
Ġforecast ing
Ġdeterior ation
ĠÎ »
Ġresid ential
Ġs ido
æ ¼
oc ular
ĠS ol
ĠE c
Ġo wing
Ġeg al
ĠG H
ĠP F
Ġg ew
Consid ering
Ġ Ñĩ
çĽ ´
ĠC amp
Ġsal inity
Ġcat ch
Ġex acerb
iti k
Ð¾ Ð½Ð°
ĠS outhern
ĠH ar
ib ly
Ġ1 10
ab l
Ġord ered
Ġinf erence
ain ts
Ġequ ipped
Th ose
Ġacc idents
adi ation
Ġfibr in
èĩ ³
Ġs aw
C opyright
s ize
ç³» ç»Ł
ĠP d
cept ual
ch annel
Ġcar a
Ġab er
t ant
L ow
Ġammon ia
quir y
Ġint est
Ġes col
E nd
ĠMid dle
Ġb in
a el
Ġdown load
Ġelectroph oresis
b ild
p olar
ä» »
ĠP U
Ġc ure
Ġre aches
Ġfind s
Ġsoc ieties
ran ial
ER S
itu itary
Ġatten uated
ĠÑģ Ð¾
ĠS yn
P e
Ġsp ut
ĠRe f
ĠÃ¼ ber
ä¸» è¦ģ
Ġpen al
p ret
Ġstat ement
Ġsub cutaneous
Ġco herence
Ġhospital ization
Th irty
imet er
ê° ģ
omer ic
Ġm erg
ie urs
Ïī Î½
Ġepilep sy
ector ies
Ġembry onic
ĠC i
Ġdecl ined
Ġregul ator
olog ica
u je
Ġcas os
Ġnit ric
Ġsevere ly
ĠFr anc
å® ĥ
ce eding
h uman
Ġcorrespond s
ve olar
Ġtum ours
Ġadv oc
éĻ ħ
ĠÐ´ Ð»Ñı
Ġster oid
h ole
ol ith
Ġblock ed
over ning
R ef
æĿ ¡
Ġimmunos up
Ġinteract ing
olog ico
Ã¶ r
Ġhy stere
l ak
Ġjour nals
Øª Ùħ
Ġe ct
Ġim plic
utr ition
ĠG A
è¿ ĺ
er obic
Ġexc retion
Ġe ating
Ġpositi f
ĠI GF
Ġphosph olip
ĠÑģ Ð¿
Ġrab bit
il st
Ġcoll apse
Ġmod ify
Ġl ands
Ġammon ium
201 6
Ġconf ined
Ġthromb osis
od s
ç»Ħ ç»ĩ
r id
Ġrepl ace
Ø§ÙĨ ÛĮ
plic ity
ari as
ÐµÐ½ Ð½Ñı
id ase
Ġc ro
Ġantib acterial
Ġinhibit ing
4 00
Ø§Ø ¦
Ġcorrec ted
Ð ĺ
Ġoverl ap
Ġhe uristic
Ġpecul iar
æĸ¹ éĿ¢
Ġion ization
Ġdesenvolv imento
Ġst rom
Ġmod alities
Ġvol can
Ġmonth ly
ĠP at
os por
Ġtem ps
em i
Ġv ie
Ġnot es
ul ed
Ð¸ Ðµ
O A
ok es
Ġdispl ays
ab ul
ĠD A
Ġh i
Ġcamp o
ç ı
Ñĭ Ñħ
Ġens uring
Ġtraj ectories
Ġm ot
g t
Ġle urs
Ġinst ant
um ination
ĠO ur
h id
Ġpsych os
or ig
o lecular
Ġë ²
Ġinstall ation
Î Ķ
ur gical
ãģĵ ãģ¨
ival ent
ath ione
ad ir
Ġdat os
Ġlifest yle
nt uk
Ġcurv ature
Ġspect roscopic
ÑĢ Ð¾
æ ¿
Ġfund s
O X
Ġfr ontal
V er
ç ª
Ġ ib
Ġcarb oxyl
Ġst ories
Ġpip eline
Ġdoc tors
ym pt
Ø¨ ÛĮ
g amma
ĠF irst
Ġs endo
Ġb ak
Ġmitochondr ia
te il
èº «
Ġper k
ĠP G
lo op
Ġcal ism
ĠT M
éĢ Ł
Ġgener ations
Ġwave let
Ġìĥģ ê¸°
Ġpix el
Ġdel ta
O x
ig a
Ġtr uth
Ġangi ography
Ġp age
ĠG R
åħ ļ
Ġillustr ates
ĠT E
ĠQ uestion
r yl
+ -
ĠC AD
Ġespec ific
Ġfac ts
ĠÐ¿ Ðµ
H uman
ĠItal ian
Ġf atal
Ġcomp ares
W T
oc ument
Ġcomp ren
Ġwe alth
Ġvill age
Ġlet ter
iz ers
Ġperiod o
æŀ ģ
Ġl umbar
et en
Ġh ukum
Ġ ).
Ġlink age
Ġí ĥ
= "
ĠC YP
Ġdemonstr ation
Ġinhib its
Ġin tim
é£ İ
Ġsh ield
con f
ä½ľ ä¸º
air y
Ġdeploy ment
Ġvulner ability
usammenf assung
Ġdop amine
Ġle pt
ìĪ ł
Ġcomb in
Ġinf lation
od ic
ĠR S
Ġapp end
ert ation
Ġf ist
Sim ilar
Ġdel ine
z w
ch arge
ĠH CV
Ġdop ed
ĠZe aland
Ġret in
comp ass
iti ves
Ġí ĸ
ce mia
Ġde eper
al is
Ġown ership
Ġtem plate
æ¶ ²
Ġco oper
rup t
Ġdes ire
ap un
itiz ed
us c
Â µ
Ġconstruct ing
é ©
INT RODUCTION
******** ********
Ġind oor
åı ¸
iter ia
Ġcrystall ization
dr ug
ĠëĤĺíĥĢ ë
r d
Ġsoy bean
et ting
it ory
Ġinser ted
ĠPatient en
ĠAl zheimer
Ġpur ification
ĠN K
Ġan s
Ġslow ly
Ġprom ise
Ġcent res
Ġser ial
as c
T NF
ì ¤ĳ
Ġm outh
Ġuter ine
ì¶ ľ
Ġp aro
Ġfu eron
Ġreturn ed
Ġpolymorph isms
Ġm ine
Ġepidem iological
emb rane
ys es
Ġenc aps
ers on
Ġpel vic
åŃ¦ ä¹ł
lu or
Ġenj oy
ĠB ur
a ient
ort y
Ġa per
Ġcy an
Ġbound s
N I
spr ing
¤ Ģ
> <
H I
Ġmultim edia
ars h
ĠCan adian
D alam
åı £
Ð°Ð½ Ð½Ñı
Ġsl udge
Ġin hal
ilm istir
Ġfibrob lasts
Ġup stream
Ġinter leukin
ÛĮ Ø¯
ĠìľĦ íķ´
Ġvag inal
ĠL ake
Ġharm ful
Ġwebs ite
ìķ ¼
åı Ĥ
Ġkeep ing
erc a
ĠS il
Ġmon tre
Ġj enis
åĩ Ĩ
ä»¥ åıĬ
Ġcop ing
ia x
Ġvir ul
M on
Ġmur ine
æľ į
ia o
Ġin jections
ind o
t ub
Ġun expected
Ġdevelop p
200 7
f ahren
Ġopin ions
Ġl umin
12 5
Ġoverex pression
ti rm
è¨ Ģ
Ġcontamin ated
press ure
Ġartic ulo
ank ton
Ġn est
Ġaspect os
å¯ Ł
Ġh olds
oph ysical
Ġd ic
un ch
Ġhome ostasis
Ġl ang
Ġblock ing
Ġremov ing
Ġto uch
Ġsp or
ament os
Ġhyper troph
Ġm ast
Ġtem a
Ġeconom ies
ĠP ost
Ġorig inally
Ġconstitu ents
è¿ĩ ç¨ĭ
aks an
ad itional
az e
ĠL DL
ful ly
Ġâ ĨĴ
Ġber dasarkan
Ġexpand ing
Ġhab en
arr ang
ed ic
Ġr ac
Ġtrans duc
NT s
ĠF ig
rolog ic
K I
Ġdop ing
d epend
olic y
s ized
Ġsup plied
Ġsuccess ive
Ġhydro x
Ġrev is
Ġg angl
ÐµÐ½ ÑĤ
ĠP ower
Ġter b
Ä ģ
el ess
pro t
Ġresearc hes
Ġ Õ
åŁ İ
Ġc able
ĠH S
Ġsolv ents
Ġaggreg ates
Ġbah an
Ġbeg ins
y o
ih at
Ġdehydrogen ase
Ġpharmac okine
mm l
Ġsatur ated
ĠH and
inc ip
Ġsp ite
ant a
ÃŃ s
alah an
Ġcytotox icity
Ġadj uvant
11 1
Ġcontinu ing
Ġm Ã©
F I
ì§ Ī
ĠN orthern
E arly
ĠØ Į
Ġam ph
Ġsatisf ied
ĠL ife
Ġevery day
ĠU p
Ġsal ts
res pectively
ë¡ Ŀ
ĠO f
Ġcour t
ĠV I
Ġre cess
Ġret ail
ud o
Ġconscious ness
b ens
Ġbu y
åį Ĺ
ï¼ ĳ
ĠMic ro
iter rane
Me asure
ob i
ĠG re
Ġê ±
Ġat tain
iz a
Ġprepar ing
åĪ ĩ
Ġwell s
Ġf ond
ualit atif
Ġpl aque
Ġconsum ed
ĉč Ġ
Ï İ
Ġro w
Ġun changed
ĠM L
é¢ Ĩ
Ġcr ypt
æł ¼
h um
erc ial
ib ular
ĠE EG
Ä į
Ġtherm o
Ġp u
Ġprobabil istic
D o
ĠØ´ Ø¯
Ġgreen house
b b
Ġpro spec
æĬ ¥
Ġext inc
Ġappl ies
Ġx en
math rm
Ġw aktu
Ġphen otypes
Ðº Ð¾Ð²
Ġsu as
Ġap rendiz
un its
Ġoffer ing
H er
Ġ198 7
ati le
Ġnur se
Ġdescrip tions
Ġsek olah
E ight
ĠS ARS
ĠC B
Ġunder graduate
c ultural
Ġb ath
h ang
ç§ ¯
Ġne o
Ġlog ical
Ġfo am
T able
if ug
Ġr acial
V is
in vention
ÑģÑĤÐ² ÐµÐ½
Ð» Ñĸ
Ġsurviv ors
ĠMark ov
Ġinform al
Ġtrans genic
l it
Ġdiff ers
on ate
c ou
ĠBo ard
Ġsa at
In stead
Ġemo tions
ts ch
Ï Ĩ
Ġclos er
Ġstat ements
Ġput ative
Ġsoph istic
P al
Ġco exist
ati k
Ġint u
Ġdepos it
Ġmus ical
Ġgr adi
Ġhorm ones
Ġindex es
Ã ´
r ac
Ġbank ing
oplast y
Ġa ort
Ġìĭ ł
Ġdistinc tion
ar ial
Ġfri ends
ĠB C
ĠE ST
p ost
èī º
à¸Ń à¸ĩ
Ġn oc
it arian
ĠW ater
ĠB es
Ġmaxim ize
200 5
ëĲĺ ëĬĶ
Ġpar am
Ġframework s
Ġcot ton
Ġíķ Ļ
adi ol
Ġimp ossible
P ub
Ġinterf acial
ĠB and
Ġga uge
b ox
Ġdial ysis
Ġparticip ating
Ġspati ally
Ġvolati le
Ġsyn th
Ġred und
Ġdiss ociation
Ġk ualitas
us p
Ġpartn ership
â ĨĴ
Ġsu icide
åĮ Ĺ
b ra
Z usammenfassung
Ġë Ĳ
Ġcommerc ially
Ġmy c
id ental
ç© º
Ġs or
Ġres c
Ġep ig
ast om
ĠP an
Ġpen er
op sis
Ġtim ely
Ġ12 5
Ġr ay
Ġe j
Ġc ows
pir ation
f il
Ġsuff ered
Ġì ĥĿ
us cular
Ġob l
Ġg overning
process ing
h ospital
enc i
Ġins ect
Ġkin erja
y rene
Ġcom ments
Ġed ema
Ġsuperv ision
Ġout line
4 50
Ġëħ ¼
Ġtrip le
Ġe ase
Ġsc ans
í ŀ
Ġresol ve
ise e
ial ysis
cop e
l ay
Ġupd ate
Ã© n
Ġcl ones
en er
Ġvacc ines
ĠAgr icult
ĠE X
è Ļ
Ġexper tise
ĠÐ¼ Ðµ
Ġstream s
osynt hetic
ĠP os
Ġcomprehen sion
Ġcardi omy
Ġmalign ancy
Ġperform s
Ġrel acao
Ġsav ings
el ior
roc ytes
Ġdisrup tion
Ġhabit ats
Ġg ear
Ġsupple mented
å Ħ
Ġisot ope
Ġtrans por
Ġs end
å± ±
Q U
Ġco il
Ġsurfact ant
Ġinter mit
Ġport fol
b is
Ġw ors
Ġhid den
Ġphen yl
pos ing
Ġê ¸
Ġmod ular
Ġdifferenti ate
b ase
ĠM ulti
Ġber upa
Ø§ Ú©
Ġan tit
Ñī Ðµ
Ġacqu ire
ĠAr beit
Ġs aving
Ġem it
er int
Ñģ ÑĮ
IN E
Ġ198 5
z ie
Ġless ons
Ġk ull
í İ
g one
Ġassign ment
Ġsearch ing
Ġâ ħ
Ġst orm
Ġ198 6
inf ection
ab etes
çĻ Į
ological ly
Ġc up
ak in
Ġkur ang
Ġembry o
Ġsp arse
Ä Ļ
Ġb ot
First ly
ĠN ot
Ġoutl ined
on ge
Ġobserv asi
Ġl ake
me as
Ġun iqu
) $
Ġìļ Ķ
Ġcre ates
ç Ī
Ġnou vel
Ġw est
s el
Ġro utes
id ium
Ġarchitect ures
sh ore
S el
om in
iss on
ç½ ĳ
ĠìĿ´ ìļ©
ĠGr und
tit ution
Ġeduc ators
par tic
F if
ĠW illi
ĠU l
isc o
ug ar
ĠT V
ĠC hem
atiz ation
Ġheav ily
par ts
Ġplasm id
ĠDise ase
r ite
og e
Ġdis aster
Ġstrengthen ing
ĠWh ite
Ġse perti
Th ird
Ġcontrac ep
re w
Ġjur is
ĠX I
T T
ĠU m
Ġcolon ial
y an
dom ain
ĠU kr
Ġsummar izes
Ġfib res
ë¡ ł
Ġcom unic
ÑģÑĤ Ð²Ð°
Ø§Ø Ń
ĠM O
Ġbi ot
Ġìĺģ íĸ¥
Un fortunately
Ġrig orous
ä¸ ´
ie tic
G B
av ed
éĻ į
Ġconstit utes
Ġpued e
Ġv iv
ol ite
Î¹ Î±
ati al
åĽ Ľ
Ġs acr
Ġo cular
åĳ ¨
d ic
Ġrestric tions
hol der
In iti
aksan akan
ĠIs land
f amily
ĠCon ference
Ġsyn aptic
Ġe urop
Ġport al
Ġqu er
ĠM Pa
lu ent
ĠMalays ia
Ġl ingk
Ġthor acic
ĠE astern
entric ular
Ġfl ap
Ġath letes
Ġv erm
Ġimp osed
Ġmed io
Ġb atch
Ġet ait
iv ation
Ġcharacter ised
T B
Ġpersist ence
Ġop tic
Ġconduc tive
ft ware
F orm
un ting
Ġdis m
Ġcontinu um
ĠH el
Ġseg u
Ġagon ist
ass ay
Ġtend s
s ulf
Ġphyl ogenetic
Ġinduc ing
str ak
Ġde generation
yn chron
Ġinvent ory
ros p
ĠT able
ê± °
Ġbi osynthesis
Ġobstac les
ic he
ĠÃ ¢
aw an
Ġexact ly
Ġtr ache
ĠíĻ ľ
Ġcom orbid
Ġvers ions
as se
ÏĦ Î±
ur ities
Ġagre ed
ymmet ric
ĠStand ard
Ġres tr
ĠUn ter
y cle
Ġreson ant
Ġter res
bal ance
Ġoccas ion
v r
at tered
Â· Â·
Ġme al
Ġcomp rend
Ġcorrel ates
Ġcycl ing
n ed
Ġnormal ized
ti tial
Ġar sen
b ul
Ġeas ier
N eu
Ġload ed
l ocal
Ġorig ins
p ine
S L
Ġn och
Ġm ist
L et
ĠC ro
Ġaer osol
Ġpoll en
Ġ `
Ġen compass
Ġdr illing
æł ¹
Ġadop ting
ĠN AD
erm an
ĠD istrict
Ġclass ify
Ġgradi ents
ore tic
Ġseem ed
è ı
Ġt ack
Ġíĺ ķ
it in
Ġcon hec
à¸£à¸ °
ur c
Ġin er
æ¸ ©
Ġproblem atic
Ġin ev
CS F
00 3
Ġbelong s
Ġest as
ĠE V
app ropri
ik o
Ġaden ocarcinoma
Ð¸ Ð¹
ĠBrazil ian
Ġout patient
ĠC ont
Ġrev ised
S W
Ġch ance
t u
Ġhelp ed
Ġinc lu
ĠM ul
is asi
Ġren der
ä» Ĭ
o yl
Ġattr acted
Ġdem ocratic
um ina
Ġperm its
ovol ta
Ġlip oprotein
Ġg ot
Ġs ans
Ġêµ Ń
Ġexplo it
oc o
ti ap
Ġp ts
ĠìĦ ¤
Ġtr ied
Ġg ather
Ġsuperf icial
Ġpos ts
Ġvers chied
b lic
Ġma upun
Ġcontro le
ic le
nos ti
row ing
ot ensin
ĠP ak
es i
Ġsubgroup s
Ġrefr actory
Ġv ortex
X RD
N G
el ah
Ġrec all
Ġm ostr
grap hic
éľ Ģ
Ġres emb
Ġfrag mentation
çĲĨ è®º
Ġbo ost
Ġp ave
ãģ£ ãģŁ
== ==
ĠPort ug
Ġhold ing
Ġbe ar
Here in
Ġclean ing
Ġcyt os
c irc
ann er
Ġcop y
Ġemphas ized
Ġcaracteristic as
hasil kan
Ġfair ly
Ġp yl
è İ
Ġevap oration
Ġqu in
Ġk ualitatif
Ġseed lings
ãģ ¾
axim um
Ġepid emic
Ġ íķ´
M ultiple
Ġdam aged
Ġupd ated
i tical
ys ter
OBJECTIV ES
éĩĩ çĶ¨
% -
Ġges tion
æĬ Ĺ
Ġd ia
ãĤ ¯
ĠO pen
az ol
Ġrel ativ
Ġtraum atic
ly m
Ġradical s
M aterial
Ġmej or
Ġdevi ations
Ġbe berapa
kelet on
Ġs omatic
ĠÑģ Ð²
Ġdeb t
Ġcolumn s
ĠAn n
Ġens ino
C B
' .
N ext
op hen
ti st
ĠD I
Ġirradi ated
ĠAt lantic
Ġl ors
ç» ´
P ada
Ġmah asiswa
Ġar ises
æ°´ å¹³
cer ol
ĠíĻ ķ
S ystem
Ġek onom
m ium
Ġm s
ĠF is
Ġresil ience
Ġadequ ately
ĠK ota
Ġl ub
Ġdo or
è¯ ģ
Ġtun n
ä¸ Ķ
Ġhom ogen
´ Ī
ico es
Ġstand ing
Ġfit ted
adj usted
ç ĺ
ic ious
d l
Ġspread ing
aim ana
201 7
Ser um
Ð½ Ð¾Ð¼
Ġprecurs ors
Ġill umination
Ġhe par
resp ons
S ed
Ġcoordin ates
ar ity
Ġneighbor hood
Ġdist ant
Ġto dos
ĠìľĦ íķľ
Ġse asons
Ġoutput s
ep at
Ġsurge ons
omorph ic
an tic
Ġansw ers
Ø§ÛĮ ÛĮ
Ġlab eling
nic as
ĠH amilton
ĠS iO
im i
p H
ich i
Ġpuls ed
ĠE M
ĠStr ateg
Ġv Ã½
ï» ¿
ev ent
und en
Ġsummar ize
Ġcas p
Ġpollut ants
Ġb em
Ġdepart ments
è® °
ãĤ ¢
Ġpredic ts
Ġpass ed
Ġexist ed
ĠK en
hal ten
ĠM W
Ġlay out
K A
ĠL ED
Ġintens ities
ĠQ ue
Ġp us
Ġke b
åŁº ç¡
E t
} \
ìĭ ¬
ĠT P
ĠìĦ ł
Ġstom ach
Ġplastic ity
Ġturn ed
Ġas certain
ĠS MA
E p
Ġox ides
Ġsol ids
ĠCol omb
in osa
Ġo ct
Ġaqu atic
Ġhydro ly
Ġgeneral ization
Ġprocess or
Ġphosph atase
ç¾ ¤
anc ial
ov sk
Ġpropor tions
aj ian
ĠL eg
aw anc
Ġoil s
Ġmeng en
ĠO H
o T
Ġmater ia
æĪĳ åĽ½
Ġpub lis
Ġadren al
Ġre ally
Ð¾Ðº Ð°
200 4
Ġget ting
å¿ µ
Ġur gent
l ength
ç ¢
å± Ģ
ian o
Ġcorne al
æĦı ä¹ī
il en
Ġdistinc tive
Ġcon formation
çľ Ł
Ġphen otypic
emp o
Ġen orm
íŀ Ī
it ual
Ġtun ing
Ġsup ern
ore g
Ġmedic inal
E xt
f ish
Ġhos ts
Ġline arly
Ġtransf usion
op timal
at re
Ġmat urity
Ġt ect
Ġì° ¨
ares t
hip s
Im port
t here
Ġhar us
tif ied
ì Ĩį
Ġsim ilarly
Ġcompet ing
ĠL og
Ġunder gone
Ġk unci
Ġassist ed
Ġst one
Ġind igenous
oc a
Ġint en
Ġemb od
æĪ ĺ
ç»ĵ æŀĦ
ort ed
Ġher itage
Ġund ers
pl astic
Ġflux es
otyp ing
Ġì Ļ
ro tic
ut able
f ri
os c
Ġpos itiv
Ġel ast
Ġdisadvant ages
ĠM art
ĠT wo
er as
ĠM M
Ġquad r
Ġco b
ãģ ı
Ġcytoplas mic
çĥ Ń
Ġrhe umat
in j
Ġu pl
Ġan ion
Ġdetect ors
Ġbent uk
à¸²à¸ ¡
Ġmoun ted
ĠD irec
Ġcut aneous
Ġfarm ing
ĠP eng
Ġl ok
Ġt ors
Second ly
L I
re x
ĠL o
Th ough
ĠG ram
Ġes ophageal
Ġpass ing
Ġ #
ç§ »
ĠRes ults
ç« ł
åŁºç¡ Ģ
Ġgest ation
Ð ļ
Ġhaz ards
Ġsett lement
Ġdr ift
Ð» Ð¾Ð²
Ġrobo ts
gr am
is tically
Ġco arse
Ġmod ulated
Ġmus cul
des ign
abil idad
amp u
f action
ĠH O
Ġoff set
Ġparas ite
inter ing
m id
Ġhem odynamic
Ġavoid ed
Ġmem e
L ong
ĠÃ© t
Ġbel um
Ġdis abilities
Ġti ene
Ġo k
Ġc itr
tic os
Ġcoord inated
Ġhab its
it on
Ġgrup os
Ġl ac
ing ual
Ġe osin
ĠEn ter
ent re
Ð½Ð¾ÑģÑĤ ÑĮ
Ġtox in
ement e
ost atic
Ġte a
Ġsil ic
awanc ara
acy cl
ĠCommun ity
åŃĺ åľ¨
Un like
Ġp ode
Ġcons ent
Ġco res
op ausal
Ġg ib
ist ing
ĠT ra
à¸ ³
ĠC he
ĠI NT
Ġce le
act in
or ge
Ġfor t
Ġsubstit uted
Ġg ar
Ġa esthetic
Ġdialog ue
Ġc ues
Ġglut athione
Ġaut onomy
Ġseiz ures
å¾ Ī
Ġrol ling
Ġoptim izing
Ġgo es
i ated
L AB
Ġelimin ated
Ġresis tivity
ĠSt aphylococcus
def icient
Ġg athered
ĠF ound
E B
h our
Ġal arm
Ġ ]
p in
G P
Ġstratif ied
Ġadv ice
Ġsp acing
Ġun ilateral
Ġsqu amous
Ġj ump
ĠÑģ Ñĥ
Ġinvari ant
ir con
Ġded uc
Ġcub ic
Ġper p
opo ietic
Ġgr am
ãģ į
Ġt ap
ìĺ ģ
Ġdep r
Ġpl ain
Ġremark ably
Ġemphas ize
b ol
Eng lish
ew ise
Ġass et
( +)
Ġun ion
Ġalle les
Ġcathod e
Ġpol ice
Ùĩ Ùħ
ĠJ ew
S r
Ġdispers ed
Ġultr aviolet
Ġavoid ance
op ping
oplas tic
on ical
Ġtrat amiento
è Ľ
Ġcreat inine
ĠA MP
Ġin ject
ill ation
Ġanomal y
Ġorganis ations
Ġmak ers
Ġcontinu ity
Ġ Ø§Ø±
nt en
ac ements
di agn
Ġp ale
Ġed ition
å¿ ħ
Ġimplant ed
Ġalk al
Ġwr ite
Ġintere s
n ational
w all
ĠØ± Ø§
Ġout let
ti e
Ġfis her
Ġglob ally
Ð» Ñĥ
Ġkull an
ĠProgr amm
ĠB rit
tis s
Ġmo yen
w estern
Ġber j
est ab
cr yp
Ġmo ved
Ġspeed s
Ġch iral
ĠD en
åĮ ħ
Ġexpl aining
Ġcogn ition
ti ge
Ġpie zo
Ġì Ľ
ĠE P
Ġb ere
Ġpe ace
c ardi
d ig
Ġdies el
e au
ters chied
Ġdiagnos es
ĠV is
ar ang
ed u
T O
Ġacknow led
å® Į
etah uan
ar ts
Ġcollec tions
Ġa ce
Ġcon e
è¯ »
Ġìĸ ´
Ġes cal
tr i
Ġmetod o
Ġweek ly
Ġaud ience
s l
åĽ ¾
Ġsed angkan
ra is
ãģ« ãĤĪ
Ġíļ ¨
Compar ison
Ġdeterm inant
Ð¸ Ð¼
ĠL ong
Ġcyt ometry
Ġneu ros
Ġdiss ection
Ġnic ot
Ġless er
Ġre ward
and on
ĠIs ra
Ġterd iri
ic idal
Ġfacilit ates
æ ¢
He alth
flu id
ĠPr ac
Ġd imer
G H
Ġse j
ĠUn tersuch
Ġegal ement
tis ol
ĠíĨµ íķ´
Ġnam es
Ġrefr active
ĠH o
itos an
stit uted
Ġeff ic
æĢĿ æĥ³
Ġmirr or
ĠAI DS
] -
Ġcondition al
environ ment
Ġflav on
ĠL anguage
ĠB E
ri o
Ġvesic les
a ur
ĠÙħ ÙĤ
ĠL at
Ġsubt ypes
Ġamong st
Ġtrig lycer
Ġe ast
c ore
Ġsho ulder
Ð» Ñİ
ros pective
Ġmo tivated
Ġas tro
Ġê³ ¼
it Ã©
ĠÐ¿ Ð¾Ð´
ch oline
ĠT C
um ing
Ġexplor atory
Ġle uc
Ġrest ing
Ġsurvey ed
ä½ ķ
Ġtr aves
ĠZ r
Ġb uck
åºĶ çĶ¨
Ġco uple
pend icular
pat hetic
ate ur
Ġspl itting
Ġbr as
Ġk eter
Ġarchitect ural
Ã³ g
Ġsen ior
Ġminim izing
ëł ¨
æıĲ åĩº
ati te
Ġrecommend ation
Ġd airy
Ġanat omy
åī Ĥ
Ġan o
Ġdiss ipation
Ġantic o
í Ĩµ
Ġmuc osal
Ġsup por
et ude
ĠTur k
Ġfirst ly
Ġsynchron ization
Bl ood
w in
Ġíı ¬
ì ¤Ģ
Ġcomp uters
P os
ici os
Ġgene tically
Ġ- -
id ation
ed y
Ġsum ber
Ġt ables
Ġsud ah
ãĥ ©
Ġfol d
Ġk an
ä¸ ľ
pol y
Ġthreat s
å¸ ¦
Ġdiges tion
å° Ħ
ĠM Hz
Ġpa ired
Ġexpend iture
ig ma
o que
Ùħ ÙĦ
Ġfoss il
Ġre du
Ġpr inting
Ġdel ays
ent ukan
Ġt ut
é¡ ¹
Ġpr inted
Ġpres cription
ay anan
Ġparticip ant
ar ray
s itu
ãģ ¤
l uss
ozyg ous
mo lecular
ĠL OS
ĠF P
Ch apter
Ġassum ing
Ġpi eces
ph rine
oc ations
ed er
ur able
¯ ¼
ĠBas in
Ħ ë¡ľ
m ar
Ġg em
èį ¯
Ġth i
Ġtempor ary
Ġst o
Ġproxim ity
av or
st an
ode grad
èĨ ľ
ĠG PS
éĩ Į
åħ³ ç³»
Ð½Ñĭ Ð¹
s ix
} {
Ġqu artz
Ġp iv
olog iques
iterrane an
âĪ ¼
Ġchar ging
Ġindividual ly
F E
N OS
enc ao
Ġre arrang
Ġspirit ual
Ġshe ets
artic le
Ġclass ifier
Ġchromos omes
ĠAd ministration
According ly
Ġdemocr acy
z el
ç ĭ
ul sive
ãģ Ŀ
ether lands
ĠCO PD
Ġcopol ymer
Ġun em
Ġspecific ations
ì° ¨
Ġc ig
uj i
ĠTur key
n ÄĽ
ÛĮ Ø´
d et
bl ock
om otor
åı¯ ä»¥
I d
br as
Ġdispos itif
Ġfunc ion
Ġno zz
Ġr hythm
Ġrating s
Ġp obl
In tr
å¹ ²
S iO
Ġin hab
å¤ ĩ
ĳ Ĳ
Ġbehaviour al
C es
Ġh ollow
omm en
ro v
l ad
av i
m atic
T eknik
ÙĪ Ùĩ
Å ĳ
ĠO cean
Ġstyl es
Ġcapac ities
Ġdec ided
l j
form ula
Ġbehavi ours
o tides
Ġinstrument al
Ġreconstr ucted
l ong
Ġab ol
on ly
Ġorgan isation
ĠØ µ
d ip
Ġmon etary
y b
Ð¿ Ð°
Ġamyl oid
Ġsynth ase
ëª ¨
Ġcounter parts
Ġphys iology
Ġbl ade
B O
èģ Į
Ãª ncia
onucle ar
Ġhierarch y
ish ment
Ġasymmet ry
Ġcarbohydr ate
ren te
ĠH PLC
Ġn ull
ëĭ Ī
ĠìĦ ľ
Ġsub c
form ed
Ġform ul
fe eding
r un
Ġcontr ad
Ġcondition ing
æ ħ
Ġthere of
ĠR ich
Ġp ays
Ġphilosoph ical
ĠH all
Ġreserv ed
ĠR et
Ø ¥
ãģ Ĩ
Ġtelev ision
gr amm
Ġl amb
AS E
ĠG er
ĠB en
Ġfarm s
alam i
Ġno v
Ġinfil tr
orn o
in line
Ġh arb
Ġform ulas
Ġbiops ies
c ase
sur face
Ġtransp aren
ĠÙħ ØŃ
Ġs plic
ĠQ UE
Ġb rown
Ġvo or
Ġpow ers
cy te
Ġfacilit ated
Ġuniform ly
Ġmo tions
oc ol
AC ION
Ġloc k
ëł ¤
ĠEnviron mental
phosph ate
ard ia
resp onse
ĠL os
Ġstand s
æĬ ¤
Ġco hes
ĠH E
b ur
Ġcho osing
Ġfil es
Ġmitig ate
Ġcouns eling
Ġtrigg ered
t el
Ġhydro carbon
n elle
per iod
Ĩ ł
Ġinvest ors
in ery
C ont
Ġs ick
Ġmm Hg
ĠÐ ¡
Ġlaborator ies
ë¥ ¸
ĠC N
ĠS econd
Ġinform acion
Ġm ood
ë¬ ´
Ġtr aces
Ġsa ude
squ are
ut a
Ġë°© ë²ķ
Ġwr iter
F uture
ĠL ab
ĠR OS
ack ing
ĠØ§ÙĦ Ø¨
Ġd onde
ari able
ĠN etherlands
Ġk it
Ġdoc tr
Ġsl ip
R C
and em
Ġmod est
lic her
ĠAd v
Ġv a
Ã© es
ti schen
Ġincub ated
ĠG reat
Ġevol ving
le ments
à¸¥ à¸°
CA M
op a
u ah
Ġsocial es
ge w
Ġampl ified
Ġkom un
Ġcr an
Ġanis otropic
Ġdi ode
Ġtradition ally
Ġintest ine
ĠS k
Ġle ave
Ġtop ical
Ġno tice
Ġdifferent ly
iver se
mon ella
Ġelectro static
Ġpred is
at ar
o zo
Ġprem iere
Ġpig ment
Ġpack aging
Ġcasc ade
ĠFac ulty
ĠN T
N K
ul i
Ġelement al
iss ensch
rom es
Ġsu iv
Ġfif th
Ġexplo itation
Ġpurch ase
Ġun ified
Ġdiast olic
è£ ħ
Ġse us
å Ķ
all ic
D el
Ġsymb ol
Ġsynchron ous
Ġnorm ative
Ġoz one
do or
oglob ulin
Ġadv is
å¥ ³
Ġbip olar
ys iological
ĠCh ildren
Ġnive au
Ġc ations
ound s
Ġm ang
ë Ħ
Ġbiom edical
c urrent
.... ..
onse p
D D
ier te
qu al
Ġl y
Ġmod ality
Ġprob abilities
og raft
are a
Ġaut ophag
Ġattrib ute
Ġall ergic
g s
+ /
ometr ial
Ġprote ase
Ġcyt ochrome
Ġmode le
gen er
Ġto ut
Ġmater i
ĠW ith
Ġem erge
ĠK unci
åĬ ¿
ym ers
IC A
B a
æģ ¯
hing ton
acchar ides
Ġirre vers
Ġlact ate
G L
ol ia
Ġrec ons
çŃ ĸ
Ġwe it
Addition al
ĠAr c
we ise
rel ations
Ġde ut
Ġanalog ue
m ention
Ġgest ational
ĠK ec
Ġtub ular
íķĺ ê²Į
Ġhypert ensive
Ġdimin ished
Ġet ud
Ġempir ically
Ġvas cul
Ġte ach
çľ ĭ
Ġo w
Ġgrad ual
ing an
Ġdifferenti ally
èĥ½ åĬĽ
à¸ £
èĮ ĥ
.... .
tr um
Ġcorrespond ence
Ġh apl
ĠC s
ĠS elf
on it
Ġbiod iversity
Ġlook s
Ġjob s
uk u
Ġhydro dynamic
th ing
æł ¸
In s
Ġconstitu tive
Ġsup erc
Ġal an
Ġwithdraw al
Ġab norm
Ġbel t
D ari
d an
Ġaer obic
Ġpsychos ocial
Ð» Ð¾
ĠS am
Ġìŀ ¥
Ġcos m
Ġper cutaneous
Ġsub units
Ġk al
íĥ ľ
Ġt on
Ġextr ap
exp ression
ĠØ ¥
Ġgalax ies
tid os
Ġmoder ately
åı °
oh l
Ú¯ ÛĮ
yn olds
ãĢ Ī
ind en
Ġform e
oc on
Ġquad ratic
åĨ ³
Ġhem isp
200 3
Ġco agulation
ĠRep ort
Ġpul p
Ġmat em
Ġsophistic ated
ad ed
sk i
ĠS MP
æĶ ¯
Ġtra vers
Ġk il
Ġwarm ing
Ġana erobic
Ġinnov ations
ĠCoun ty
gr und
ĠM er
ĠIn s
Ġphys ically
Ġwit ness
ĠX RD
b one
Ġan astom
tt ps
Ġgrad es
r il
ri an
Ġ14 0
Ġconfir ms
ok s
å ĥ
eh atan
Ġsacr ific
Ġper pendicular
Ġw awancara
Ġaver aged
Ġcomp artment
Ġparad ox
der n
ĠL E
Ġpop ul
æ¡ Ī
Ġill umin
ĠS el
Ġk arakter
ÏĦ Î·
åº Ĭ
èĩ ´
Ġatheros clerosis
Ġp ituitary
C ontrol
ri or
d ata
Ġsearc hed
Ġdu a
Ġthresh olds
Ġwork place
Ġeth ylene
Ġf az
l oss
r ig
ĠH il
l ov
Ġv eter
gl ob
G D
æĿ ĳ
ĠJ ava
Ġplay ing
Ġgran ular
ĠØ´ Ø¯Ùĩ
on ial
B as
Ġdent ro
res i
æŁ ¥
In formation
Ġdisl ocation
Ġë ĨĴ
ab ei
he alth
ind ustr
Ġf ell
Ġimp ly
in ely
6 00
it ely
Ġk ap
f igur
lich keit
Ġsim ulator
Ġec ology
Ġall erg
Ġlingk ungan
Ġsm oke
Ġmem p
ĠI CT
Ġhe ated
Ġcategor ized
ĠThe se
ĠÐ ¶
ak it
j ats
le b
Ġrect angular
Ġneglig ible
Ġc row
Øª ÙĪ
Ġadsorb ed
Ġbiomark er
ĠCons ult
Ġ10 5
Ġgrad uate
a ud
ind an
Ġavoid ing
ĠE sp
eff icacy
tr action
xim ately
ĠH ow
ç® Ĺ
Ġef e
Ġn ond
opl ankton
med ian
af ety
Ġt ind
o S
èĢ ģ
Ġal un
Ġcrack s
Ġreg imens
ĠChr ist
Ġproblem as
ĠW il
Ġbill ion
Ġac ryl
Ġmod o
mod el
ass en
ic tor
Ø¹ ÙĦ
Ġan tiv
op enia
Ġpit ch
åı Ī
Ġth read
ional es
A ut
Ġfall s
éħ į
l act
ress ions
Ġg amb
Ġweak ly
os i
æĺİ æĺ¾
Ġcommunic ate
Ġp ine
Ġdi as
Ġh ur
Ġderm at
itor ing
un s
an os
ĠServ ices
ĠF L
Ġhas ta
Ġta ught
Ġtens or
Ġjuven ile
Ġsu ited
è§ ģ
at ro
Ġshif ted
å¾ ģ
de g
Ġex plic
ov iet
opro t
ĠPar is
å¸ ĥ
Ġultr ason
è§ Ĵ
Ġlob e
mention ed
ĠR io
im id
Ġch ond
Ġover head
Ġt ant
ĠHist ory
rec ip
Ġmerc ury
Ġpeng gunaan
k on
Ġtr unc
ĠB ud
Ġcondens ation
Ġpel aksanaan
ĠSp ace
Ġpres erve
ĠÐº Ð¾Ð¼
ear t
Ġmar riage
Ġcom plic
Ġprem ier
Ġest ado
ç¦ »
Ġcre ep
Ch anges
Ġoff spring
Ġ198 4
Ġlymph ocyte
Ġneuro de
Ġaim ing
Ġk ontrol
Ġutil izes
Ġspe aking
Ġl ungs
Ġterr itor
Ġdep ths
ĠìĹ ¬
eng ths
for ce
l ines
Ġrais es
Ġpar al
pl atin
Ġop posed
af ts
U ntuk
re ment
Ġnumer o
part um
Ġk as
ä¸» ä¹ī
onstr uction
clus ive
MD A
Ġpedagog ical
Ĥ ¨
ĠAmer icans
pl ikasi
ĠEnt wick
Ġdoub t
Ġtamb em
] [
Res p
Ġqu ar
ĠÐ´ Ðµ
ograf ia
Ġreform s
Ġaff ective
å½¢ æĪĲ
Ġdynam ically
Ġoste opor
es pec
ak si
Ġaccomp any
Ġfl our
ĠUn it
ĠN C
amet ric
s ocial
Ġpoly ethylene
Ġw is
ĠCS F
Ġe cho
Ġgeometr ical
ĠPer iod
T est
ple te
stand ard
ĠIn form
Ġend emic
Ġcomm od
b ere
Ġgl ands
Ġdesign ated
Ġy r
éĹ ¨
Ø¹ Ùĩ
ĠIC U
Ġgr ating
ula ire
m el
é¢ Ħ
Ð½Ð¾ ÑĹ
Ġsuc rose
Ġchar ges
Ġì ¦Ŀ
he p
b ond
ëĲĺ ìĸ´
omm un
ĠH ER
Ġk ond
Ġdef icient
Ġen cephal
u ve
St atistical
do i
C ase
obacter ium
Ġam elior
an ja
Ġlead er
Ġenc oded
Ġop ioid
ic ol
in ase
e z
åķ Ĩ
) =
Ġoverl apping
n ung
è® ®
od o
hib ition
Ġt one
1 000
ĠQuestion naire
Ġch ir
am ment
åĽ½ å®¶
Ġdefin ite
Ġb oy
Ġturn s
em os
Ġíķ Ħ
Ġevid enced
Ġsub d
Ġfast ing
ĠZe it
v ar
Ġdeploy ed
åİ ĭ
Ú© ÛĮ
Ġdest ro
åĪ Ĺ
Ġfro zen
role um
ĠG P
C ell
ĠE CG
åĲ ¸
ĠEst ado
200 2
Ġterrit ory
Ġat as
Ð¸ Ð·
Ġhydro xy
ĠL y
irec tional
åģ ļ
Ġo re
Ġval ores
Ġ %)
Ġsc oring
ign al
D engan
ĠF igure
Ġconv ection
an tib
Ġtransl ocation
Ġpr icing
Ġin activation
Ġent ered
ne ys
im ate
ë Ķ
Ġ13 0
Ġqu en
åħ¬ åı¸
Ġexerc ises
amy cin
ĠOff ice
C d
Ġg iant
d am
Ġar ms
ĠD a
Ġqual ities
Ġrespir ation
ence phal
bl ind
Ġsp ac
ìŀ ħ
st off
t op
Ġk ateg
ĠMed iterranean
ig uous
ge f
ĠAr ticle
ĠT ime
ĠL ang
Ġf iscal
Ġrel ie
çĽ¸ åħ³
ĠPh ase
brid ge
Subsequ ently
ĠB re
Ġsc av
K e
abil idade
éŁ ³
Ġaux iliary
Ġatr aves
Ġpre term
Ġì¶ Ķ
ĠC NS
Ġempl oys
Ġte lec
Ã© m
ĠH BV
Ġc ros
åİ »
Ġper oxide
åį ĩ
Ġcontain er
Ġë³ ¸
Ġcarcin omas
Ġimmun o
.... ...
Ġmat ters
Ġconcentr ate
Ġtamb ien
Ġdef ines
ĠB A
ìľ ¨
ÙĨ ÛĮ
Ġmus cular
Ġinterfer on
grap hy
à¸²à¸ Ļ
Ġl atit
com b
ĠJ ose
Ġengine ers
Ġëı Ħ
Ġno tic
Ġwavegu ide
Ġse tiap
Pr imary
Ġcomm and
Ġbusiness es
Ġf un
Ġpeng umpulan
Ġinters titial
Ġoscill ation
ug s
Ġpo ison
Ġtrans action
iz able
u atan
Ġr am
T en
00 4
b oth
Ġex tern
Ġr ated
ĠReg ion
Ġtrad ing
â Ĥ¬
æĬ Ĭ
Ġsole ly
Ġabsorb ed
Ġcul tivated
Ġm ise
Ġcasp ase
y ang
ĠM r
Ġexplo ited
se g
Ġdiss ertation
ĠM ont
cy cle
Ġtranscrip ts
P our
Ġmach ining
Ġgl auc
201 8
Ġy on
In tern
abul ary
Ġphen ol
Ġdist int
ĠO l
Ġpro d
ord ered
Ġelong ation
z u
hus us
AS A
Ġregul ates
Ġoxid ase
Ġmultiple x
Ġplan es
et o
ĠX X
Est a
Ġprospec ts
Ġmod ulate
ren ces
Ġcir rh
Ġimmunohist ochemistry
Ġphot ovolta
angs ung
ier on
å§ Ķ
Ġn ations
Ġdevelopp ement
Ġnanot ubes
ĠT A
Ġcontin ental
Ġdissem ination
Ġterr or
Ġdiff ering
Ġtr ap
Ġz o
Ġhighlight ing
Ġimportant ly
Ġfu els
Ġper itoneal
ë¥ ĺ
åĨ į
Ġplate lets
ov al
Ġfertil ization
vol tage
ĠD S
Ġhem od
lev ant
Ġde br
cryst alline
å ¡
Ġjur id
Ġt il
Ġsurge on
Ġrespond en
al dehyde
ore tical
Ġrel ay
Ġcon vey
Ġcour ts
oc ortic
Ġintrac ranial
Ġat ypical
Ñģ Ð°
Ġuncom mon
å¾ ®
Ġrecycl ing
Ġgraph ite
ut ter
ĠL es
s he
æĶ¹ éĿ©
Ġti empo
en chymal
al d
R H
Ġscler osis
Ð½Ð¸ Ñı
Ġexplan ations
Ġoutl ines
Ġcentr ifug
Ġph r
integr ation
Ġinterpret ations
ĠW HO
ĠKing dom
- [
ic iones
Ġmicro M
ĠL D
Ġdiam ond
æİ §
d L
aw are
f en
Ġsol l
ĠSwed en
µ ľ
mat ched
ĠEr geb
ÑĤÐ¸ ÑĩÐµÑģÐº
Ġterres trial
ox acin
Ġto do
Ġend ocrine
Ġk or
Ġterm ed
Ġpl a
Ġampl itudes
EM S
Ġelig ible
Z r
Ġsam p
Ġentre v
Ġlub ric
c at
Ġpoli tica
roph ot
Ġexc ision
f ed
Ġcolle ges
till ation
T ER
Ġdest e
hydro x
ĠA CT
Ġalgebra ic
æ¿ Ģ
ul g
Ġharm on
Ġg raz
Ġì ¹
Ð» ÐµÐ½Ð¸Ñı
l iquid
Ġneur on
ĠMus lim
Ġchick en
il ih
P atient
Ġnot hing
Ã¶ n
Ġda erah
Ġmetod ologia
agm atic
Ġchrom atin
ĠRes p
no ise
cell s
Ġtest osterone
ic ard
ĠA v
æŁ ĵ
mod ified
u ite
Ġaug mented
ĠO ver
Ġin quiry
uny ai
ov ascular
Ġge gen
ib ilities
Ġc ystic
Ġaccess ibility
Ġmanus cript
Ġfen omen
Ġcop e
br ain
label ed
ack age
Ġincen tives
Ġglut amate
æıĲ ä¾Ľ
Ġdr ied
ĠDi agn
Ġpod er
Ġsm okers
opath ology
ug inosa
ied er
Ġbr an
æĹ ı
i ative
Ġas ph
Ġstud i
Ġmagne tization
ĠS ens
isti k
Ġvirt ually
ud ad
carb ons
Ġreconstr uct
Ġrel ational
ĠC ox
Ã¤ r
H IV
ĠRe ynolds
Ġcompr ise
Ġper o
t arget
Ġmon t
ãĤ ·
og le
Ùħ ÙĪ
T ime
ĠEcon omic
Ġfa ith
l ies
tiv as
it amin
Ġiniti ative
æİ¢ è®¨
Ġseb uah
Ġover weight
Ġatt ending
ill ar
Ġc ited
ode f
Ġbre aking
ab etic
Ġregul ators
Ġmulti disciplinary
ac id
end ers
Ġampl ifier
Ġdip ole
Ġen cryp
in formation
Ġm undo
Â° ,
Ġprot ecting
Ġhippocamp us
uc as
l t
Ïģ Î¿
èī ¯
Ġpro sp
ĠE t
Ġlogistic s
un iform
Ġactiv ate
Ġg ait
Ġje j
ĠL H
â ģ
ãģĦ ãģ¦
Ġpresent a
Ġrec re
ĠM es
Ġun n
åĨ µ
Ġreservoir s
Ġse aw
Ġnom inal
Ġvictim s
if at
ak o
Ġmeng alami
pr ise
Ġl id
ĠF lor
Ġbur st
Ġnod ules
ĠE arly
ì§ ¸
Ġpow ders
Ġlo ve
V C
ĠT or
ĠF ood
ĠH DL
Ð ľ
Ġmant le
Ġyield ing
ì ¦Ŀ
Ġcatal og
Under standing
Ġpat ent
ĠR O
Ġdi j
Ġb ore
Ġs ar
Ġcele br
c ao
Ġaf in
Ġphen olic
Ġpropos als
til es
ç» Ļ
ĠD EL
Ġintra operative
ĠR ay
olog ias
ĠAr gent
Ġas pek
Ġmon omer
W M
Ġsusp ended
Ġtr ying
Ġdisc ours
ĠB ased
ĠAl g
Ġcolon ies
ograph ically
ĠP ath
ĠP B
Ġ Å¾
ĠĠĠĠĠĠĠĠ ĠĠĠĠĠĠĠĠ
Ġ16 0
ĠCh ild
Ġman era
ati ven
t ance
Ġindirect ly
ĠD an
T aking
Ġenfor cement
AN CE
Ġconduct ance
v inyl
SI S
Ġmoun tain
ëį °
otox in
Ġl um
ust ur
Ġscal ar
Ġd ot
Ġmunicip al
ophil a
Ġfer ro
ear son
Ġobstr uctive
Ġp ond
Ġnan of
Ġdest ination
Ġhim self
Ġex ecutive
Ġexpos ures
Ġpr int
ap ai
Ġenvelop e
ĠA NO
ah y
Ġcirrh osis
ĠÎº Î±Î¹
lik ely
Ġrec tal
è¶ Ĭ
Ġmalign ancies
Ġprincip ales
te es
y ch
Ġobser ver
Ġins ulation
Ġcapac itance
Ġremod eling
Ġbah asa
å¸Ĥ åľº
Ġstabil ized
Ġm ampu
Ġno tions
Ö Ģ
ÑĢÐ° Ð½
Ġrecurs os
av en
Ġpr one
ĠG ene
orb ent
Ġautom ation
OR T
ah un
p p
Ġestim ator
Ġhere in
Ġshap ing
ĠPa ul
co ated
Ġun w
Ð Ķ
s es
Ġle aving
ĠFound ation
Ġneg lected
Ġrest ored
Ġeff iciencies
Ġsu itability
ĠO N
Ġre vel
Ġdil ution
oc ellular
n itro
iv ial
èĽ ĭ
ÙĬ Ø±
Ġprocess us
res olved
Ġstre pt
Ġreveal ing
Ġdiver gence
Ġs intering
AR Y
Ġev oked
Ġworksh op
Ġsynerg istic
ij n
Ġinvest ments
æī į
IC AL
Ġcre ativity
Ġpro jected
Ġconf ound
op ing
Ġvibr ational
Ġtrans it
Ġp enc
V al
Ġ198 3
or ic
anj ut
ab an
åĳ ½
istic s
Ø² ÛĮ
Ġhelp ing
Ġpolar ized
Ġencour aging
Ġpriv ile
ĠS ummary
Ob serv
Ġresult ant
Ġint ent
Ġregular ly
Ġse vent
uj ian
ff ected
M ain
gi ene
Ġmo tility
ãĤ ¿
f order
ì Ĭ
f s
Ġh ors
he ther
Ġd ific
P rob
m ing
Ġan ode
Ġs lic
Ġcent uries
Ġê²ĥ ìĿ´ëĭ¤
Ġ198 2
íĻ ĺ
h os
b st
ĠÐ¿ Ð°
Amer ican
Ġprovid er
ie ur
Ġag enda
Ġun tersuch
íĺ Ħ
r ont
Ġë° ĺ
Ġmedi ate
ec tiveness
Ġer up
Ġfacilit ating
ãĥ ĥ
Ġidenti ties
ob serv
Ġpiezo electric
g re
Ġdif eren
Ġdepend ency
åĪ Ļ
ĠT im
Ġarr ival
re active
H s
ĠC ard
Ġd iter
Ġ uk
ep tides
Ġ %,
ì ĭ¤
Ġexperi encing
cent ury
Ġconstitu ent
Ġfinanc ing
un ya
Where as
ol uminescence
Ġpent ing
Ġapop totic
Ġrun s
k el
angan ese
è· µ
Ġsho ot
Ġstimul ating
Ġh anya
ķ Į
Ġh us
ĠÐ¾Ñģ Ð½Ð¾Ð²
Ġgly copro
ĠO A
h arm
Ġstr aw
Ġnucle ation
ĠH C
ĠÑĩ ÑĤÐ¾
appropri ate
ëł Ī
us er
Mic ro
ic ted
% (
Ġre venue
rol if
Ġplus ieurs
Ġbatter ies
Ġinter personal
ĠH en
Ġmitig ation
Ġcoh orts
ĠDav id
ĠD L
AC S
Ġdegrad ed
un i
ì§ ģ
Ġmamm als
Ġextinc tion
ĠL T
bed aan
Ġsel en
Ġco ff
D em
pos ites
t ase
est ock
al ign
Ġc ow
ĠT I
Ġcareg ivers
Ġwhere by
ìļ ´
tiv ities
Ġwavel engths
Ġvolunt ary
Ġj aw
Ġíı ī
Ġmin ute
Ġoutbre ak
R ed
e urs
Ġê² Ģ
ìŀ ĳ
Ġchlor ophyll
ĠAc adem
M in
í ģ¬
æĹ¶ éĹ´
Ø± Ø¨
Ġ19 50
isp ens
ĠO bs
éĻ ¤
ĠT EM
Ġpolymer ic
Ġr as
at ab
çĶŁ æ´»
an za
Be fore
cion es
ãĥ Ń
ti p
erint ah
Ġd yst
Ġcriti que
ÑĢÐ° Ðº
ĠTex as
Ġpredom in
ĠWas hington
Ġequ il
R ather
Ġsub system
Ġbub ble
Ġdomin ance
Ġsecond s
Ġfluor ide
Ġliter atura
Ġot ros
Ġrobo tic
Ġcytoplas m
Tod ay
Ġguid ing
Ġk ek
F orty
On ce
ti sche
ĠS y
o L
Ġcertain ly
ĠÙħ ÙĪ
Ġch i
Ġk Da
Ġcortic oster
Ġterr ain
Ðº Ð¾Ð½
ang unan
Ġoxid ized
Ġlink ing
2 50
ĠB ol
Ġterr itorial
Ġinequ alities
S ing
Ġconn ect
ç§ĳ åŃ¦
ĠT w
Ġsc attered
Ġeconom ical
200 1
Ġman e
Ġdistric ts
Ġ7 00
uk ary
tor al
ĠD et
ato ire
Ġaneurys m
Ġorder ing
Ġexc av
Ø± Ùħ
åŃ Ĺ
Ġfluct uation
Ġcast ing
Ġtr yp
ij a
Ġdeduc ed
Ġconstit utional
ĠB usiness
Ġìļ °
âĢĻ âĢĻ
Sub jects
Ġun related
Ġpeng embangan
V ol
åľ Ł
Ġhy br
Ġtro is
ĠCom put
Ġdec is
th ird
ades h
Ġsign alling
ĠØ¨ ÙĪØ¯
aj i
åĦ ¿
Ġhistor ies
Ġdischarg ed
Ġspecial ists
T HE
Ġcoun ting
Ġme g
Ġconf ig
elec tronic
Ġm apped
ÙĪØ± Ø¯
Ġdispos al
Ġhepar in
as m
ĠÙħ Ø¯
Ġcon gestion
Ġz ircon
ĠÎ¼ M
ĠD ar
Ġarrang ements
Ġexhaus t
Ġmanifest ation
Ġmemp unyai
Ġtext book
Ġinter disciplinary
eff ect
ĠB ere
ap tive
n ologi
anc angan
ens ure
Ġ ik
Ġstar ts
Ġìŀ ¬
Ġw ing
Ġhospital ized
Ġcollis ions
f al
è ŀ
Ġimag ery
Ġalk ali
ĠD ie
Ġs ab
S N
ol f
Ġtem po
Ġlower ing
E in
ĠR u
e lement
Ġhydro thermal
ç ¯
Ġpartic ulate
l inking
V s
Ġsal ud
Ġdiscuss ing
inc ome
ich lor
Ġh ay
Ġt ach
ĠK el
Ġincre mental
Ġref ined
Ġtet ra
Ġintermit tent
Ġdeep ly
ĠN ov
Disc ussion
à¸²à¸ ĩ
é ¼
å§ ĭ
AT A
Ġshel f
Ġb ac
Ġpsych iat
ĠD igital
Ġaort a
w ind
Ġsenti do
il is
Ġadvertis ing
ĠForm ation
Ġab andon
Ġs tir
Ġgon ad
Ġpap el
ord in
ĠG M
ç»ĵ è®º
Ġsistem as
Incre asing
Ġwr ong
Ġperturb ations
ÙĪ ÛĮ
Ġbind s
ur face
Ġproduc ers
Ġsur g
ĠIn vent
ĠA rea
Ġass er
æ£Ģ æµĭ
ĠÐ¼ ÐµÑĤ
E nt
Ġun o
omet ers
ĠComp uter
ä» ĭ
Ġentreprene ur
Ġslow er
æľī æķĪ
ĠÎ ·
âĢĶ âĢĶ
tr an
Ġinflu ential
io res
Ġextract ing
ĠÐ´ Ð¸
Ġelastic ity
j ug
ĠÐ ł
ĠN Ps
eres tim
ĠM ax
ĠÏ ĩ
ĠB D
b ach
ĠH P
çī ĩ
Ġpeng etahuan
Ġelse where
ion i
å¾ ·
Ġdeb ates
Ġl ived
iment os
Ġgraf ts
Ġdec ide
ĠG y
B ei
b ir
æ´» åĬ¨
Ġas oci
Ġwh ilst
Ġregard s
ĠRe v
Ġmengen ai
Ġestud ios
Ġadip ose
Ġoccup ation
Ø¬ Ùĩ
est a
Ġper lu
iz z
as alahan
ĠC orpor
G I
ĠC AR
Ã© c
but uhan
Ġdif erenc
Ġconsult ation
Ġad ul
The rm
Ġradi ological
ĠPark inson
o arth
Ġrais ing
æĪĲ ä¸º
Ġdiagram s
ĠN d
Ġch or
pos ure
ed a
Ã Ĥ
Ġpen ulis
Ġmere ly
v in
Ð³ Ð¸
Ġwork load
Ġmus e
Ġur g
ĠF all
MATERIAL S
Ġcompeti tiveness
Ġar ts
Ġnot able
Ġgrav it
T aken
am yl
rep resent
Ġfulf ill
Ġput s
ĠL in
E vidence
Ġ10 6
à¹ģ à¸¥à¸°
Ġtur ning
fr ont
Ġpes erta
Ġsynd romes
Ġmal ad
Ġg ra
ĠA ff
Ġproblem a
Ġme hr
ĠÐ Ĵ
E d
Ġpyl ori
Ġbreat hing
Ġ[ (
Ġrecord ings
ad ow
Ġth rombo
Ġgr ay
ĠC re
Ġins ects
ì ±
ang ing
Ġto ugh
ETHO D
f ect
oc or
Ġtr im
Ġmembers hip
Ġinterview ed
åĪ Ŀ
æ¶ Ī
Ġwrit ers
arg o
Ð¼ Ñĥ
å¯¹ çħ§
Ġtend on
aph r
ÑģÑģ Ð»ÐµÐ´
EE E
Ġvolati lity
im ientos
Ġstain less
è ©
Ġclin ics
ĠPseud omonas
ĠSal monella
in iti
Ġhydro carbons
inc re
Ġhistor ia
Ġsuperconduc ting
at as
ĠIm p
ÂłÂł ÂłÂł
arb oxyl
Ġch ief
bab kan
s al
Ġl oyal
valu es
Ġdefin itive
ac her
ĠP ot
Ap pro
Ġcaps ule
Ġem br
ĠN R
f irst
Ġìķ Ĭ
Ġsent ence
B etween
Ġmean ings
ti um
Ġfor th
Ġbi odegrad
åĲĮ æĹ¶
ĠM il
ul u
ut os
Ġal veolar
åĨ Ļ
Ġs ust
ograph ie
ar um
B G
Ġelectronic s
el ian
Ġdec entral
Ġelucid ated
h ttp
ist en
Ġaer uginosa
Ġsegreg ation
Ġparas ites
ogen es
Ġrealiz ado
en as
ĠBrit ain
Ġf ra
t et
P K
am ines
Ġtransform ing
ep s
ti tis
Ġportfol io
Ġ ents
Ġcritic ism
Ġno vo
Ġsubs ets
ab in
ÏĦ Î¹Îº
Ġhydro chlor
Ġprev ents
æ Ĵ
ãģ ³
Ġsel ama
Ð ¢
Ġcomp ost
åĭ ķ
Ġpossess es
Ġres idence
ĠF rom
ati e
Ġdi ameters
Ġdraw s
Ġin hom
Ġpro pr
éļ ¾
t etr
Ġiod ine
Ġprom pt
Ġrol l
R em
Ĵ Ī
Ġd uty
ĠÑģÐ¸ ÑģÑĤ
Ġword en
Ø± Ø³ÛĮ
Ġpor tions
Ġtr ic
DES IGN
Ġgroup ed
Ġl ugar
Ñĥ ÑĢ
w rit
H V
Õ ¸
c os
Ġrun off
P t
ĠS ection
e ight
ìĭľ í
T G
ĠV ari
åİĨ åı²
ĠT RA
onit rile
Ġdies em
osp heric
Ġproced e
Ġneu rom
Ġestab lec
Ġpur ity
Ġmet er
Ġak tivitas
çĻ º
ar ith
Ġtot ally
Ġinn ate
S te
uk up
Ġper cep
èĽĭ çĻ½
Ġê° Ĳ
pl asty
Ġperm iti
ecess ary
Ġfibr illation
ass er
Ġaden osine
Ġpo res
ologic os
Ġund erestim
Ġsup posed
Or gan
ë Ĥ´
ĠD ev
Ġtrans duction
Ġmic ron
Ġcor tisol
Ġrank ing
Ġanti p
Ph ys
ĠCol l
ĠCM OS
Ġun likely
c z
Ġvol um
le ase
Ñĩ ÐµÐ½
ĠI U
ĠH al
ti er
è®¾ è®¡
Ġal titude
ament al
Ġinte ger
v iral
Ġ198 1
Ġp g
Ùģ Ø§Ø¯Ùĩ
Ġes cr
ĠMat hem
Ġv iz
ï¿½ï¿½ ï¿½ï¿½
obacter ia
Ġhist opathological
ot he
æ ĳ
Ð¾Ð´ Ð°
Ġlas ers
B MI
Ġn emat
ĠL ow
Ġmetabol ite
iz ado
Ġclon ed
R et
ou ver
ĠE u
ĠB rown
Ġkad ar
tif s
o il
Ġcontrol lers
Ġf os
Ġharvest ing
amp ilan
Ġsc in
Ġlo ops
ĠP atients
c yt
atid yl
are an
Ġbras ile
K E
Ġsign atures
Ġr ies
Ġcas h
Ġangi ogenesis
Ġfamil ial
yr in
åĬ ŀ
Ġag ro
W ork
og rap
ao tic
Ġser ie
s ter
enti eth
ev olution
Ġth irty
Ġpros pectively
ĠF ield
ock et
Ġm ult
Ġdetr iment
Ġtas te
Ġm ir
Ġtransform er
Ġent ering
ĠÐ´ Ð¾
Ġshr ink
duc ing
Ġdetermin istic
us tain
se x
Ġend ometri
Ġpot encial
yn ec
rogen ic
V O
Ġc hel
iax ial
Ġtransparen cy
ä¹ Ĳ
ih ak
b ow
Ġb are
W ater
el es
T EM
Ġhundred s
Ġun like
ĠSm ith
io x
Ġmac roscopic
S ocial
Ġqu arter
Ġd y
Ġc res
Ġem pt
avail ability
stim ulated
Ġ íķľëĭ¤
s ource
Ġopen ed
m is
Ġrout inely
ĠMe V
as ikan
ÏĢ Î¿
Y S
Ø¹ Ø¯
an ing
Ġcont ing
Å ¡
AN T
h yp
n im
Ġall ocated
ation en
Ġaccel erate
Ġt ujuan
Ġfurn ace
ol one
Ġtid al
Ġjud icial
Ġpathophys iology
ì¡ ±
åı ·
Ġpercent ages
Ġeconom ically
Ġle ver
Ġbroad ly
Ġprog ester
Ġvoc ational
ĠH ong
Ġexpl os
Ġelement os
ap ia
Ġcal idad
Ġ20 21
ther ap
Ġbroad cast
ĠMin istry
g rowth
oc in
ac ity
l ist
Ġk husus
Ġal at
Ġplant ing
Ġs v
he astern
Ġo h
Ġelic ited
F F
åĪ© çĶ¨
ES S
ëŁ¬ íķľ
Ġpancre as
it ch
otox icity
Ġverte br
Ġout standing
Ġgeometr ies
L ED
Ø§Ùħ ÙĦ
ĠI l
Ġel lo
Ġpe uvent
Ġrel atives
ie val
imens ion
ĠB io
æľ ª
ted ir
as ar
Ġeng ines
Ġmon oc
æĺ¾ èĳĹ
Ġberb agai
ĠìĤ¬ íļĮ
Ġsub type
Ġchem ically
P ers
o qu
Ġdisp on
Ġthous ands
ect om
Ġjudg ment
Ġ197 9
Ġm ad
ĠG L
Ġenferm ed
S ol
Ġbiof ilm
ĠS oviet
serv ice
ĠF R
Ġpro jections
Ġemphas izes
Ġph ag
Ġconv olution
Ġnan ow
Ġpos es
Ġstrik ing
Ġen anti
Ġantagon ists
å®ŀ è·µ
Ġol an
Ġvoc abulary
s econd
Ġproduc ao
omet h
ĠL as
Ġres erve
Ġhom es
F ET
h ana
Ġsuc ceed
Ġsuperv is
Ġsim ulating
enc a
Ġf an
enh anced
t ag
Ġincorpor ates
ĠDe ut
atin um
Ġdisc re
h ow
id em
ĠIn str
Ġass oc
Ġre ti
ĠE GFR
ac cess
ot onin
echn ical
Ġ ï¼
Ġap ical
ch rom
Ġep oxy
æ ¥
ĠT G
Ġhead ache
N et
Ġchalleng ed
Ġchromos omal
Ġcont our
sens itivity
Ġmes ure
Ġnecess it
Ġnot ably
y tical
Ġhom ologous
ç§ °
éª ¨
Hy dro
Ġind ispens
Ġele k
åĪĨ åĪ«
Ġdr ag
Ġpre natal
Ġuna ffected
asi en
Ġpre y
anc he
op tic
Ġvirul ence
tif ic
Ġrheumat oid
Ġpr ace
Ġe ut
Ġempres as
z ial
Ġdil at
Ġs ong
Ġav ant
ĠV L
h op
Ġpal m
M it
Ġfeel ings
Ġstrong est
Ġisot opic
ĠCon f
Ġcad re
ĠP olicy
Ġnerv es
at ellite
Ġsp iral
Ġglobal ization
äº Ķ
ete enth
ĠMich ael
Ġred is
Ġar te
åĸ Ħ
ä½¿ çĶ¨
ĠØ§ÙĦ Ø£
10 5
we ighted
ĠB acillus
Ġprof iling
b les
per g
å± ŀ
ĠìĦ ¸
Ġepis ode
Ġalign ed
Ġbet r
Ġsurv ive
i em
Ġred es
aw ai
Ġcommit tee
ut ors
Ġsitu ated
æ± Ł
Ġstrict ly
Ġinvestig ators
ĠG IS
ec l
ek tedir
Ġinter section
ĠG reek
Ð½Ñĭ Ð¼
éĻ Ĳ
Ġep istem
Ġexhib iting
Ġspe akers
Ġe igh
res pective
organ ization
Ġm engan
Ġkateg ori
Ġnozz le
ent an
B o
ie b
Ġidentific ar
Ġcou ples
Ġdraw back
Ġpo le
è¡¨ æĺİ
ĠI ll
æ¨¡ å¼ı
Ġm og
Ġphotovolta ic
ĠN acional
Ġë ķĮ
W A
Ġs ave
ĠI M
Ġat rophy
stell ung
Ġrespons iveness
ĠP end
ro cyte
hen ol
asi tic
Ġs tig
Ġdu oden
Ġcob alt
Ġqualit atively
Ġlow ered
ĠT LR
Ġrich ness
P ET
ĠC X
Ġevalu ates
are r
Im pro
Ġsp ots
af e
P N
ĠCong ress
ul ators
Ġac uity
Ġfact ores
Ġgen re
ĠF il
Ġmedi ating
Ġtect onic
ug as
N one
Ġend ometrial
se k
ot ation
´ ĳ
Ġs ah
ĠCh i
Ġpurpos ive
Ã¢ n
Ġpregn ancies
and ed
acryl ate
emb angkan
Ġproces os
Ġb erg
Ġdiagn ose
le ft
Ġrespons ive
ur ic
Ġincl usive
Ġmo ves
yroid ism
Ġnarr atives
ompati bility
Ġmas cul
Ġechocardi ography
C er
Ġ ÚĨ
ĠKec amatan
ocy cl
ce mic
Ġtransl ated
Ġs ink
ĠV iet
ĠC ivil
ÏĦ Î¿
Ġrh iz
Ġreflec tions
ĠâĢĺ âĢĺ
Ġepiderm al
ec ed
Ġrend ah
ìĬ¤ íħ
Ġis lands
Ġpath ologic
Ġ ................................
a ver
ĠN I
Ġre nt
ĠB M
çµ Ĳ
y ah
åı¯ èĥ½
Ġcop ies
h ai
se p
ÑĢÐ° Ð·
Ġvolcan ic
Ġv ocal
and ida
Ġl up
Ġform ulate
ol ated
ÅĽ ci
Ġfe eling
gu ided
Ġport able
ĠStre pt
Ġconsolid ation
sm all
ĠØ§Ø³Øª ÙģØ§Ø¯Ùĩ
Ġcompati bility
Ġadd itives
Ġv iel
Ġmanufact ured
ater nal
ÙĨ ÙĪ
ĠSpec ial
Ġse al
Ġscaff old
Ġc ess
Ø§Ø ¬
Ġprogester one
ĠJ ac
ĠE xt
ugh ter
ĠÙĩ Ùħ
unc t
Ġbur ning
Ġconform ational
Ġpay ment
Ġprophyl axis
Ġex ert
Ġceramic s
åıĳ çĶŁ
å¿ Ĺ
Ġbif urc
Ġaper ture
Ġsymb olic
ĠM em
Ġs out
Ġserious ly
raw ing
ing ga
Ġoccup ied
Ġesc ape
but yl
v irus
Ġinsp ired
â Ĥ
Ġprofess or
Ä Ł
Ġcharacter izing
Ġgraf ting
od a
ìĦ ¤
Ġv ale
Ġtop ography
Ġanomal ous
Ġfore c
ĠJ ames
Ġcult ura
Ġo vers
Ġpot ato
Ġj am
ĠANO VA
Ø§Ø µ
ĠU sing
Ġsym pathetic
ĠD utch
ĠÎ ½
Ġneighb our
Ġ10 4
ĠL ew
¶ Į
Ġpresent ations
Ġdec or
te enth
Ġrespond ing
åĥ ı
Ð¾ÑĤ Ð¾ÑĢ
E X
L L
Ġt ong
Ġdend ritic
Ġexclus ive
Ġinfer red
Pro f
Ap p
Ġretrie ved
iz umab
ar ah
Ġpat ches
è½ ¦
ist ar
Ġe ukary
Ġmarg ins
Ġam en
L ast
Ġseman tics
Ġhippocamp al
Ġmethod e
ci Ã³n
r ons
Ġsu ite
ãģ§ ãģ¯
Ġfil ament
ãĥ »
tic k
ĠC RP
Ġwaters hed
] ).
met al
Ġspectrom eter
is ite
ie g
ãĤī ãĤĮ
Ġoutperform s
Ġle thal
Ġserv ing
Ġspec if
f at
Ġgr ant
Ġdep ressed
Ġconven ience
P resent
rect omy
red it
Ind ividual
Ġinoc ulated
l age
Ġday a
Ġkond isi
Ġp ick
Ġvic inity
Ġinoc ulation
ĠP f
Ġìķ Į
d B
v ier
Ġconstant ly
ĠTh omas
e ared
Ġminim ally
Ġet ching
ep it
Ġo phthal
çĽ Ĭ
Ġimmun ore
Ġambient e
Ġimp ulse
T c
Ø§Ø ³Øª
Ġj un
ĠB ro
s um
Ġspecial ist
Ġìĺģíĸ¥ ìĿĦ
Ġthough ts
Ġnou ve
Ġchar t
ropol itan
Ġrefer ral
ne h
Ġbor on
Ġund es
ãĢ į
crip tions
Ġr u
T OR
th ood
ch t
Ġtoler ated
ill es
Ġlar val
Ġperiod e
rel im
H igher
u icao
ëĵ¤ ìĿĺ
Ġf ont
Ġestudi antes
Ġexceed ed
Ġadv ent
Dies e
Ġpreced ing
Ġbro ken
Ð´ Ñĥ
alk yl
Ġê²½ ìļ°
åŁ¹ åħ»
Ġ !
CR P
Ġp ile
Ġanalog ues
Ġdiarr hea
ĠAp pro
Ġachieve ments
uth ors
ç Į
ĠT S
Ġgran ules
å·® å¼Ĥ
ococ cal
Ġkon nen
Ġd amp
Q R
çĲ ĥ
az o
æ¯Ķ è¾ĥ
Ġdisclos ed
Ġfunction ally
lim ited
ĠA uthor
Ġspect rophot
Ġb an
å®ŀ çİ°
A IM
ch i
ab led
ĠM ED
l aw
ĠPo isson
oc us
W I
¹ Ħì
Ġg ing
Measure ments
unk tion
Ġmemb uat
åĩ ł
çķ ¥
Ġpreserv ing
Ġì Ĭ¤
Ġshif ting
in ces
ĠE v
à¹ Ĥ
ĠC VD
Ġh oney
ç»ĵ åĲĪ
Ġdr ink
Ñĭ Ðµ
Ġsuper oxide
ĠST AT
Ġassemb led
ãģĦ ãĤĭ
Ġmetam orph
Ġprogress ively
ĠâĦ ĥ
Ġco val
ag ens
ec n
Î¼ Î±
Gen eral
Ġd ell
Ġqu el
akt adir
produc ing
Ġu z
ot om
Ġre pos
re ement
Ġcomb at
Ġconf er
W s
Ġag ua
Ġdebr is
ĠM G
relim inary
Ġprom p
Ġsqu ares
Ð £
Ġequ ality
C ar
Sed angkan
Ġdiagnos tics
Ġimpact ed
er k
li est
Ġantic ancer
ĠUnivers idad
Ġartif acts
Ġamb igu
Or ig
ĠØ¹ÙĦ Ùī
Ġlig ament
otox ic
à¹ Ħ
Ġmacroph age
Ð½Ð° Ñı
Ġad vers
Ø¨ Ø±
Ġat tained
Ġl lev
Ġhoriz on
Ġpl ac
Ġw ake
ĠC och
æĿ ĥ
ure th
st ation
Ġpel ayanan
ĠAcadem y
éĸ ĵ
à¸ ľ
ĠP s
èĲ ¥
ĠT N
Ġst ained
w eg
Gen er
w elling
b p
Ð¾ ÑĢÐ¸
å¿ «
iss en
í ĽĦ
Ġcoff ee
ĠWh at
Ġins ectic
Ġear nings
t in
ub in
ä¾ Ŀ
ĠPak istan
ell sch
Ab out
Ġmut agen
ges ch
Ġauthentic ation
Ġmanus ia
Ġper bedaan
Ġ ich
Ġs orption
ĠY ang
med ia
ard a
Ġcor ner
ĠG ABA
Ġ3 50
Ġorient ations
M AP
uccess ful
Ġwork flow
åı ª
Ġsediment ation
ãĢ Į
Ġseiz ure
Ġtw in
uantit ative
Ġtrans vers
ich tig
Ġrecip ient
ag ers
arm ac
Ġpopular ity
ĠTe il
Ġt ung
ĠØ¨Ø± Ø§ÛĮ
ro st
Ġcan onical
ien en
æ ¹
MS E
ex per
Ġrhe tor
ĠPol and
ĥ ī
ĠJ ur
Ġgre w
Ġdifferen ts
ĠSup port
ĠD ivision
Ġbrid ges
Ġn M
er os
Ġdisc urs
imm ing
ĠP ER
ĠL ib
Ġmyel oid
ĠL S
ÑĨÐ¸ Ð¾Ð½
Ġt ons
Ġcy ber
Ġ icin
Ġp ict
ĠC ase
mod ern
ĠY oung
Ġsem akin
ĠC z
Ø ¦
Ġk onsep
re as
r at
it Ã¤t
ĠK n
Ġincons istent
ar ting
ĠK ong
lip id
é¦ ĸ
ob enz
Ġanalys ing
c ur
Ġro se
ëĭ ¹
æķĻ å¸Ī
Ġphysic ochemical
ä¸ ĩ
Ġobserv ing
Ġpet roleum
Ġreper fusion
Ġdisapp ear
Ġanten nas
Ġfat her
Ġnanoc ryst
Ġdi lem
ÙĤ ÛĮ
ĠR R
is y
ĠD ay
n te
Ġinstit uc
b est
ãģĭ ãĤī
Ġinstr uct
y al
ĠD ynamic
Ġap o
Ġpot ency
Ġposition ed
Ġunem ployment
aps ed
Ġpo etry
ĠìĹ°êµ¬ ëĬĶ
spec ies
D ef
Ġreflect ance
Ġpl aus
Ġhypertroph y
W omen
ĠA ML
Ġimmunohist ochemical
iv ary
az i
ess ion
Ø§Ø ¡
cl ude
us hing
Stud ents
Ġpres crib
ie ux
ary ng
è¯ Ĺ
Ġ19 78
Ġch itosan
M a
Ġenorm ous
Ġflo ating
ä¼ Ĺ
oflu orescence
ien ne
il aku
is ant
f re
Ġradi ographic
cent ered
Ġw ish
Ġliv estock
arb y
Ġëª ©
Ġinter play
ne x
à¹ĥ à¸Ļ
Ġinterp olation
Ġf ight
Ġk ar
ĠÑĤÐ° Ðº
Ġactiv ator
uc ao
Ġor ally
ÙĢ ÙĢ
Ġlay ered
od ec
Ġimmun odef
Ġscholars hip
Ġtradition s
Ġle m
Ġ %.
Ĥ ¤
Ġwork er
Ġt am
ro plasty
Ġintr aper
Ġbes ides
Ġperspec tiva
Ġunder ground
201 9
Ġy ak
Ġlight ing
Ġess ence
Ġb isa
M ajor
st ant
Ġfound ations
ati ka
ĠA fter
Ġappropri ately
ĠN A
Ġpost operatively
leg al
Ġro z
em ale
ect os
- )
Ġver ific
Ġreason ably
ĠL u
Ġmit ral
o ic
ular ly
çļĦ ä¸Ģ
T ogether
ê° Ĳ
men opausal
ĠPhys ics
Ġwor st
ĠH ep
Ġcap t
Ġre tain
Ġprov isions
Ġtele phone
Ġhistor ic
Ġl ute
Q L
it re
Ġbr ach
ock s
Ġdec omp
aret te
ĠD irect
ĠÙĨ Ùħ
ot rophic
oc t
cont in
Ġcompl aints
Ġencoun ter
åı ¤
Ġref lux
Ġanalog ous
ĠEx periment
Ġmere ka
å¤ ´
Ġs ib
Ġveget able
Ġper in
æľį åĬ¡
ĠColomb ia
Ġz ak
te k
tr ical
ĠM i
Ġinver ter
t otal
Ġantiv iral
Ġbre ad
Ġdrople t
Ġide ological
Ġes truct
ock ing
atis m
Ġangi otensin
ag ent
Ġpl acent
Ġemp ower
Ġventric le
gen erative
çĶŁ äº§
çŁ ³
Se ven
åħ ĭ
ant u
Ġm uj
Ġan kle
Ġphotocatal ytic
al b
r u
issensch aft
Ġan ter
Ġes ters
Ġstratif ication
Ã¤ h
Ġ Äĳ
ĠC AP
éĺ ²
Ø§Ø ·
ont o
Ġsci entif
Ġnotic ed
Ð¶ Ðµ
Ġgen omes
Ġstatis tic
ad el
Ġ ig
Ġst aging
Ġor t
ard en
Ġhom ology
Ġab road
Ġhip ot
exist ing
Ġinstr uctions
flu or
Ġrational e
s yn
ĠE valuation
ĠFund ing
A uthor
ĠAg ency
Ġradio active
N b
Ġgraph ical
ph i
Ġaer ial
ä¸ĸ çķĮ
Ġsecre ted
be am
e b
Ġex ceeding
ĠH L
ag land
Ġcrack ing
éĥ¨ åĪĨ
op en
Ġex it
Ġc uring
Ġdanger ous
ëŀ ĺ
L o
Ġstrateg i
ĠØ¯ Ø§Ø±
ent uk
ary ing
Ġautophag y
ĠT F
ĠC hen
ĠS en
ip uti
ĠB L
Ġde hydr
S ens
Ġexpect ation
ĠO B
ãĥ¼ ãĥ
ĠS AR
Ġis otropic
Ġsubs id
Ġquen ching
ĠSc ot
Ġinj ured
onic a
Ġmanager ial
Ġanticip ated
ĠÙĨ Ø´
Ġres pec
Ġshock s
Ġf ate
espec ially
Ġd imethyl
prec ed
ation ally
Ġalumin ium
util isation
Ġob ra
Ġph ant
Ġorigin ated
Ġus aha
Ġcl oth
ĠG old
Ġpoli ticas
ÑĤ Ñĭ
Ġinc id
âĦ ¢
om ent
Ġfamil ia
ub ahan
Ġpl ug
ler in
Ġd ict
Ġnan om
Ch ar
Ġdesign ers
Ġpr atic
Ġdisclos ure
ac hen
un ing
Ġgrad ed
ĠV II
" >
ĠSch w
Ġb ene
ĠÐ° Ð½Ð°
Ġingred ients
it el
Ġconsum ing
S elec
Ġon der
clos ure
Ġev apor
C AT
Ġpro to
Ġont ology
è¯¾ ç¨ĭ
Ġaltern ating
st yle
ĠG DP
Ġë¬¸ ìłľ
Ġaument o
CT s
iti vely
Ø§ÛĮ Ø´
igr ation
Ġalun os
Ġeng aging
ä¿ ĥ
Ġem ulsion
Ġperiod ontal
Ġabs cess
Ġstrugg le
ĠUn der
Ġcon ject
w orth
Ġe ing
Ġure th
Ġprov es
Ġinstruction al
Ġsel on
Ġcad mium
ast atin
Ġhemat opoietic
Ġglyc os
U RE
Ġ10 3
Ġpoliti que
ace tic
osph ate
ĠS un
Ġem ple
ple mentation
ĠN atural
ï¼ ı
Ġf le
Ġdrople ts
Ġab ortion
Ġfl ash
Ġmach inery
Ġfresh water
Ġve ins
Ġbal ancing
Ġrepro duce
Ġubiquit ous
Ġis other
ond ere
Ġterm ination
amb il
Ġn acional
Ġvibr ations
ĠViet nam
off s
ĠPh ysical
Ġsp heres
éĺ ³
tib le
yt hem
ĠPer formance
ÑĤ Ð¾ÑĢ
ë³ Ħ
P op
Ġk lin
Ġcost ly
am id
éĢ Ĥ
ct omy
er te
Ġpan els
è´¨ éĩı
ĠC ell
Ġpack ing
Ġbenz ene
Ġinc or
Ġcross ing
ĠCR C
nov ation
r or
ep ing
Ġmod ifying
Ġneon ates
Ġreproduc ibility
è¯ Ŀ
ĠRe al
ensure math
Ġcomput ations
ĠM oun
Ġaug mentation
æĻ ¯
Ġb iliary
ĠP ap
Ġactiv ating
ST M
ĠV III
Ġneutroph ils
Ġf rec
Ġliqu ids
Ġp ember
Ġutil ise
Ġrest ore
Ġphot onic
Ġguid eline
Ġref inement
19 98
iz ada
Ġrevers al
Ġb zw
è¶ ħ
b ing
Ġci udad
ĠM V
ter al
ich te
Ã¼ hr
ÐµÐ½Ð¸ Ð¹
åİ ¿
Ġap res
AT I
b ec
up an
ë£ ¨
ear ly
Ġhybr ids
so ft
Ġin k
Ġhorm onal
ĠëĤĺíĥĢë Ĥ¬
c ience
Ġaspir ation
ĠÙħ Øª
P red
Ġhe lic
Ġgene tics
ay lor
ij ing
ay aan
Ġgroup e
Ġrece p
p an
èĭ ±
Ġharvest ed
Ġg un
ĠCh ile
o lec
ut in
åĨħ å®¹
Ġosteopor osis
Ġimmun ological
ĠSwed ish
aps es
ĠC ode
P res
l agen
ĠØ ©
UL T
Ġpost natal
al ar
UD Y
min istr
Ġw en
ĠL im
10 4
ĠN b
Ġch aotic
p ressive
ĠS N
Ġsh am
pl us
Ġt andem
oph ore
Ġn y
ob le
erenti ally
ven ues
Ġqual idade
sub stituted
ÑĦ Ð¸
Ġst ems
P lasma
Ġsuppor tive
rel and
ie e
Ġappro val
Ġcur ative
Ġestrateg ias
Ġper ceptual
æĸ¹ å¼ı
p al
13 0
Ġw il
Ġprof itability
x ia
Ġcolon ization
il ik
urs ing
Ġc ysts
Ġmorph ine
ari k
Ġl amp
Ġin active
direc ted
Ġmicrobi ota
Ġencour aged
ĠIsra el
ari ans
Ġis omer
Ġkes ehatan
preced ented
Ġimmun ization
Ġa an
åıĺ åĮĸ
A v
fri endly
åĬŁ èĥ½
co ol
å¯ Ĩ
on io
Ġespec ies
Ġf used
Ġresid ent
åį İ
n ucle
oplas mic
Ġg ast
Ġ10 2
Ġel le
ç £
n ine
as ional
AL L
Incre ased
Ġactu ator
Ġpure ly
Ġimmun oglobulin
P ER
ucl ide
imp ulkan
Con tr
çª ģ
Ġmengan al
v re
Ġele g
Ġattrib utable
Ġequival ence
IC E
vol ume
ì ¸
Ġwa iting
Ġexperi encia
Ġso it
Ġr id
Ġage ing
Ġmu y
Ġfree zing
Ġembed ding
ĠM DA
ĠE inf
ind ung
un al
Ġret ina
Ġbl ank
10 6
p rom
af ten
on ian
pers on
í ĳľ
n u
us ter
å· ±
Ġpar k
Ġout door
par ticle
me ga
Ġd un
Ġb low
Ġinher ited
Ġdes emp
ĠReg ional
Ġoscill ator
Result ados
c oun
Ġvac cin
ĠìĹ Ń
Ġke butuhan
on ectin
Ġdes orption
19 99
i endo
Ġperi operative
Ġproduk si
ä¸´ åºĬ
ÑĦ Ð¾ÑĢ
ĠB et
m eng
Ġirrevers ible
Ġb p
Ġreag ent
Ġblock ade
ĠM B
I B
Ġmod elled
ĠM ag
alam us
t emporal
ĠI SO
ĠÃ ¡
ĠÑĦ Ð¾ÑĢ
Ġm uss
Ġflow er
Ġsocial ly
TS D
è¶ ³
Ã© t
Ġë° °
Ġorigin ating
Ñģ Ðµ
Ġrealiz ar
und e
ÑģÑĤ ÑĮ
ĠV O
Ġw ent
åŁº åĽł
Ġr RNA
ÑĤÐµ ÑĢÐ¸
Ġenvironment ally
ç® Ģ
n utrition
Ġl ists
Diff erences
Ġcons ecu
et in
Med ian
Ïĥ Î·
Ġhy giene
å¾ Į
Ġperoxid ase
äº Ĵ
Ġestud os
Ġspontaneous ly
Ġmanif old
äº ī
a ute
ìĬ¤íħ ľ
Ġr ivers
l le
ĠA RT
ĠP i
S amples
ÛĮØ± ÛĮ
Ġverte bral
Ġaccompl ish
im port
Ġcis platin
ĠR isk
om od
è¿Ľè¡Į äºĨ
Ġcon na
Ġv oid
ĠZ usamm
Ġthorough ly
duc ts
Ġform acao
M at
Ġm anganese
Ġm ating
ad emic
Ġdur ability
Ġne arby
In c
ie ben
ĠPa ulo
AI DS
ãģ Ī
Ġì ¸¡
Ġt ick
Ġnew sp
Ġí ĳľ
Ġê° ģ
ĠRob ert
Ch ildren
ĠTrans port
Ġh oc
Ġcontr acts
ical s
ĠR V
Ġidi opathic
ĠR a
Ġfa ire
I r
Ġsynthes ize
Ġu yg
Ġc rown
U se
Ġcat ech
Ġsent ences
Ġnetwork ing
Ġt itr
Ġpro jet
Ġes ophag
Ġefek tif
ĠAlg orith
åģ ¥
e j
Ġ19 75
f it
ÙĬ Ùħ
fall s
> </
Ġcoron avirus
Ġdid ik
sych ological
Ġartis tic
ĠM en
g enden
ĠA ge
åº ·
ula res
Ġmulti f
Ġfail s
Ġbus ca
AN D
Ġmel iputi
Ġo ocytes
íı ¬
Ġball oon
Ġun ity
ĠCh urch
Mul tiv
ÙĨ Øª
s em
Ġtel es
an in
Ð² Ð°Ð½Ð½Ñı
appro ach
has one
ĠO nt
ns ic
Ġfam ous
tra it
Ġekonom i
ĠG S
hal b
Ġoff shore
Ġaug ment
ĠPres ident
ĠS ul
Sing le
Ġpain ting
Ġun precedented
Ġhom olog
Ġd yes
ĠíķĦ ìļĶ
Ġmos qu
uk ung
Å ¼
yr ight
Spec ific
anc as
Ġcomp ressed
Ġtail ored
Ġpestic ides
Ġb on
ĠS ons
Ġvide os
Ġquer ies
o ce
C an
Ġcamp us
Ġfe et
ogn ition
Ġpe ers
ati han
ç» Ń
Ġscar ce
icht ung
Ġentrepreneurs hip
ĠPub Med
Ġgravit ational
ĺĲ íķľ
Ġpred etermined
Ġpartition ing
le ist
Ġstruct urally
Ġref le
Ġrece ption
Ġstraight forward
Ġpl atinum
ĠëĶ° ëĿ¼
Ġp ist
Ġtw entieth
ric a
Ġcorrec tions
Ġcir cle
Ġtransmit ting
Ġm ismo
man agement
Ġrealiz ada
ä¿¡ æģ¯
ĠR P
j ets
Ġtr av
Ġdiagnostic o
ĠR ah
Ġtro ub
oarth ritis
Ø± Ø§Ø±
Ġpost partum
çļĦ å½±åĵį
uh kan
Ïģ Î±
ĠI mmun
tid ine
Ġfist ula
Ġc ats
Ġbio active
Ġstock s
èı Į
Ġp ull
ĠÑģÐ¸ÑģÑĤ ÐµÐ¼
m ain
enti st
c it
Ġsatisf ying
Ġmedic ines
Ġmim ic
Ġoper ates
Ð¿ ÑĢÐ°Ð²
ĠT T
Ġa inda
ĠÐ¸ ÑģÑģÐ»ÐµÐ´
Ġem uls
out put
èĤ Ŀ
he at
ĠM ur
ber ry
æ §
Ġtermin als
at ology
Ġprac tically
Ġc AMP
ac yl
Ġmen er
Ġref eren
Ġrough ly
Ġê° ķ
Ġmamm ary
Ġle an
a verage
Ġle aching
Ġphot ographs
V T
Ġseg undo
Ġs ad
ro cal
Ġmain stream
Ġw at
Ġe jection
ĠM ann
ĠUkr aine
E urop
Ġextr ac
Ġepidem iology
ĠP EG
Ġanti dep
åĽ ´
Ġp ek
Ġemb argo
çİ¯ å¢ĥ
Ġindic ative
Ġmedi ators
w orm
ĠÎ ¸
ĠØ§ÙĦ Ø¹
16 0
ful ness
acc ion
sp e
Ġiniti ate
pro v
ax el
çī Ī
Ġsp ending
Ġb os
Ġster oids
Id entif
o C
j en
Ġdestro y
be h
K T
Ġweak er
ĠG O
uk a
Ġt in
ary l
Ġser otonin
åĬ ©
Ġer ythem
ĠP el
ĠC ath
Ġim balance
Ġsmall est
Ġfac il
00 6
Ġatt ended
Ġw enn
ĠM use
çĺ ¤
tit udes
Ġtrans actions
ĠEd itor
ograph ics
Ġgraz ing
}$ $
( \
Ġmechan istic
Ġquant o
Ġtable ts
al amic
ĠI reland
ist ors
R L
etz t
Ġì µľ
ĠP ur
ab en
ĠGo ogle
ĠLe vel
Ġform as
Ġconflic ting
Ġun less
od ds
aff e
Ġl akes
Ġimp r
Ġhist one
emb ang
Ġhe d
à ¥
+ )-
ĠÙģ Ø±
IS C
is ations
i vel
Ġbiological ly
Ġpix els
as te
Ġstrom al
ATION S
Ġpued en
Ġp ush
Ġcompar atively
p ressed
Ġn ort
Ġimmobil ized
Ġsediment ary
ÑĤÐµ ÑĢ
ro oms
ĠH an
Ġprior ities
ä» ħ
Ġvisc ous
z ed
Mod el
ur uh
G u
yl a
ĠW T
Ġeff et
Ġreg istr
Ġventi l
ail and
Ġc ukup
Ġec o
Ġpave ment
m ade
ĠN eg
Ap plication
ub a
Ġmulti pl
Ġemit ted
ĠF ram
ï¼ Ĵ
Ġre ar
atur ation
ĠÂµ g
imp ulan
Ð½Ð¾ Ðµ
all ow
Pr ac
) ).
Ġhyper plasia
Ad v
Ġneutroph il
Ġp ihak
Ġveget ables
Ġro of
Ġmerc ado
Ġdifferent es
Ġup regulated
Ġdas ar
Ġv entral
Ġperm ite
P ot
ator io
Ġk end
up s
E spec
Ġkem udian
Ġh in
Ġdil aksanakan
Ġgu inea
n ich
Ġme ant
isti ques
ĠÑģ Ðµ
Ġla unc
ay an
Ġview point
Ġglass es
el um
K S
Ġanalis ar
Ġadvance ment
Ġreli ably
Ġwel d
Ġign ored
Ġíĺ Ħ
produc t
Ġlex ical
E ine
Ġnin eteenth
ĠComp any
ism us
èŀ į
ot onic
onym ous
Ġpall iative
Ġinc ision
Ġdys p
Ġmoment o
ĠØ±ÙĪ Ø´
Ġlet ters
Ġpool ed
Ġmanufacture rs
Ð¿ Ð¸
Ġelectr ically
Ġreduc tase
Ġp asien
Ġdiff us
alle y
b olic
Ġíı¬ íķ¨
Ġcomorbid ities
Ġtransmit ter
Ġsubs urface
Ġg aining
Ġgro ove
Ġresult ado
eng ing
pir ical
rais al
op ia
ĠL ou
m ac
Ġtr ies
Ġrandom ised
Ġneighb oring
ol k
Ġh ttps
Ġsp ike
Ġdr ives
ĠVer b
Ġentit led
lo ud
ĠÙħ Ø±
g ov
ĠS qu
ure a
Ġown ers
Úĺ ÙĪÙĩ
Ġmotiv asi
Ġmicros p
le h
Ġwar ning
Ġfri endly
Ġconf ront
Ġglauc oma
ro te
ĠFis her
ĠØ§Ø ³
v ille
Ġsurv ived
M ulti
rog ate
Ġtr unk
Ġst ores
ĠS DS
g em
Ġh ak
p ent
Ġline age
Ġcat ar
ij k
H yp
Ġmonol ayer
Ġs ays
Ġfl ag
Ġin versely
Ġinten tions
ĠA U
rop ical
Ġdetriment al
Ġen de
Å ³
Ġradi ative
çļ ®
ĠI EEE
Ġcess ation
ĠíĻ ĺ
Ä ĥ
ak tion
Ø² Ùħ
Ġreproduc ible
Ġac erca
ë¶Ģ íĦ°
Ġuntersuch t
Ġm ik
amb ilan
æĺ ĵ
P d
ere k
Ġanalges ia
or ang
ell ites
Ġpress ing
ĠÐ± Ñĭ
ãģ§ãģĤ ãĤĭ
è¿ ŀ
Ġfung us
Ġdirec tional
Ġmo i
v ac
Ġbroad band
Ġimportant es
ĠM F
Ġet k
ult ur
ĠA lex
èİ ·
ĠArgent ina
mo tic
ĠIndones ian
Ġsh ares
gluc ose
Ġb ones
Ġtrans istor
Ġcalibr ated
ĠìĽ Ĳ
Ã¡ n
ab out
sol uble
ìł Ī
Ġextens ions
an fa
Ġf oster
åĪĽ æĸ°
å¯¹çħ§ ç»Ħ
Ġch urch
Ġasph alt
uz zy
Ġestr ut
Ġimm ature
Ġresearc hed
Ġtrat amento
ê· ¼
Ġê° Ļ
Ġmult in
Ġd ates
Ġincl usions
ant um
er ce
Ġum um
ch ip
Ġnanopartic le
as tically
Ġc rec
c oding
í ĴĪ
g ap
Ġpro tr
åº ľ
m ill
ĠGa As
Ġutiliz ando
ass ic
Ġmicrogr ams
Ġtw elve
omet hyl
Sm all
Ġprim ers
åıį åºĶ
ens ions
ĠD oc
Ġwas hing
pro blem
ĠS B
g ang
æ² ¡
Ġgrand es
amet hasone
ĠW ind
Ġv erg
L arge
im age
Ġc iv
é£ Ł
as ters
æ³ ¢
Ġarsen ic
Ġcomm ission
Ġtecn ica
k om
ĠInvent ory
Ġin appropriate
Ġrail way
Ġfre ely
Ġincor rect
el o
te br
up uncture
= .
Ġimport Ã¢ncia
Ġpr ison
IS H
Ġincl us
Ġagon ists
ĠF o
Ġdevelop ers
Ġgr inding
Ø§ÙĨ Ùĩ
r ays
Ġt ell
Ġir respective
Ġpump ing
Ð ķ
Ġconhec imento
od em
Ġbel ir
Ġspe aker
Ġhol istic
Ġp are
ĠL ev
Ġhist ology
ĠB ah
Ø§Ù Ĭ
ÚĺÙĪÙĩ Ø´
Ġtec nicas
Ġju ice
Ġs it
Ġtherm ally
Ġtom ato
qu er
ter min
ĠâĪ Ī
çĶ »
Ġwel che
Ġconver t
ull a
ĠTh ree
Ġmor ning
as y
Ġderiv ation
Ġinstant aneous
Ġfr anc
Ġtex to
ĠC G
Ġdok ument
atab ase
Ġpresum ably
ĠJ ah
æ¼ Ķ
Ġconfirm ing
Ġantit umor
çİ° ä»£
Ġtour ist
ap ac
Ġm aj
Ġnot re
Ġsp ind
Ġinsuff iciency
lak uan
Ġabnorm ality
uit o
ut ung
s ided
ost en
Ġp esso
au ter
Ġpict ures
par ametric
Ġcomputation ally
v able
Ġstret ching
Ġ uc
ĠB ild
Ġc ic
omy c
Ġbring ing
Ġde i
Ġbund le
Ġmil ieu
Ġeffect or
j ud
ĠAr g
Ð¸ Ð½
ic ides
Ġmulti dimensional
Ġanti s
ĠÐ² Ð¾Ð·
Ġb row
d omen
Ġanthrop ogenic
æ¯ ı
ĠIn vestig
Ġunn ecessary
ĠT ahun
Ġide ology
it ably
Ġconsequ ent
Ġf ic
Ġl angsung
Ġtri ang
ï¼ ĭ
art ments
Ġpener apan
ëĲĺ ê³ł
Ġmanifest ed
à¸ģ à¸
er ic
as ted
ĠC K
Ġperm is
Ġkid neys
Ġdam ages
ĠSt ock
Ġprim itive
ĠM IC
Ġfol ding
itz er
kr ank
ç Ĩ
ologic as
se lective
Ð² Ðµ
Ġ( âĢľ
ê± ´
Ġtong ue
Ïİ Î½
Ġit er
Ġdiscrep ancy
Ġax es
Ġsl ot
ĠEx per
Ġm A
ĠT ri
Ġw age
it et
Ġeduc acion
ĠM ah
Ġgen ital
ros ophila
v ir
ĠW omen
k al
Ġconf ron
Ġh on
Ġcent ered
tr ip
ek s
ĠBe itr
Ġepig enetic
ĠFr ank
è¯ į
ibil idad
se ven
ãģ ĳ
Ġsle e
Ġpancre atitis
pos ium
Ġover load
N MR
rop athy
MS Cs
Ġmues tra
Ġintern acional
atis tics
form ations
esthe tics
Ġsection al
oblast oma
ar beit
Ġfall ing
Ġaud i
gr av
Ġproced ural
M uch
Ġse hr
An ti
Ġcloud s
Ä ĩ
ä¼ł ç»Ł
Ġthr ust
w age
ĠAn ti
åį ³
Ġë° Ķ
anal isis
Ġcontrol l
Ġaer odynamic
ĠStud ent
Ġmodel os
ec raft
Ġrepl acing
Ġprincipal mente
Ġcomp te
Ġprogram a
Ġinf l
Ġobstac le
æ° §
ì¡ ´
r ist
Ġster il
ge bras
d ocument
gr up
Ġpo orer
ï¼ Ĳ
ĠT otal
ĠG I
ob jective
Ġam ine
Ġun p
Ġbe et
Ġpoli tic
ĠSp e
Ġ197 6
Com o
ter a
P EG
Ġl uc
Ġm ata
Con versely
Ġmeteor ological
Ġspec ially
ĠGes ch
ìķ ĺ
ĠSp ect
Ġindispens able
is ure
Ġt estic
æĬ ķ
ĠC er
ĠD F
Ġtah ap
us tice
ack et
ĠP rop
Ġalg ae
Ġberb asis
Ġlim bs
Ġlog arith
Ġpneumonia e
ĠL AS
uh i
Ġar ith
Ġsub tle
ure au
Ġëħ ¸
ze it
Ð± Ð¾
erv ised
Ġse at
Ġnot amment
t w
ĠF erm
en al
Ġcav ities
Ġbed s
oh ol
Ġvolum etric
Ġsepar ating
åħ ħ
M V
ĠO ri
è® ©
ÑİÑĤ ÑģÑı
uz z
S al
ĠM it
Ð¶ Ð°
Ġsim plicity
Ġa plikasi
Ġmism atch
Ġmicro g
am el
idel ity
Fif ty
Ġsp ons
Ġc elle
ì± ħ
k op
onstr uk
Ġtr an
Ġaccompany ing
ĠV an
Ġkin ases
Ġobje tivos
. ;
åº ı
Ġcondition ed
/ (
Ġtrem end
Ġex on
ĠE lement
Ġs uture
ĠS LE
Ġsuppl ies
Ġrepresent atives
Ġsamp ai
h at
ahy dro
iss ement
comp onent
ir as
8 00
Ġmetod os
ĠA SD
Ġexplo iting
Ġìĺ Ī
occ up
Ġantidep ress
Ġseed ling
Ġschol arly
Ġconstit ution
Ġvis cer
Ġim plication
Ġop ens
ìŀ Ħ
Ġmens tr
Ġqual ified
Ġker atin
ion ine
Ġchrom ium
íĻ ľ
ĠSec urity
hem e
Ġread y
åį ı
Reg arding
ji ang
Ġ9 00
ĠM ess
Ġj unctions
Ġsex es
Ġih rer
Ġsal ivary
ĠOr th
en os
it ron
val ence
ec a
å¤ ±
Ġc ef
ĠMar x
å¾ ĭ
Ġx yl
Ġstre et
åĳ Ĭ
Øª Ø¨
M ar
es a
Ġtext ual
ĠInt ellig
v arying
Ġrepeti tive
ĠN ord
Ġhe ro
Ġpac iente
Ġprior i
estab lished
Ġsoci etal
Ġdef iciencies
et hel
Ġbag aimana
ĠÙĨ ÛĮ
ãĢ ĳ
Ġaccording ly
Ġw orm
Ġwilling ness
Ġover lo
Ġmi RNAs
Ġbond ed
Ġcontr ain
ap id
---------------- ----------------
U r
Ġeff luent
äº ¬
Ġdon c
ãĢ Ĳ
ob a
¬ ģ
ĠL ocal
Ġpossib il
Ġkary awan
P reliminary
Ġear liest
Ġkin ematic
Ġ ers
Ġobs c
ĠS ud
ons et
Ġmend apatkan
å®ŀ éªĮ
Di agn
Ġcompet encies
ik al
Ġconoc imiento
Ġih re
14 0
Ġtind akan
Ġphot osynthetic
IF N
Õ ¶
hy pert
Ġplate au
Ġimp ression
Ġanat omic
oprop yl
tif icial
Ġdos ing
ny ch
Ġpen j
Ġimmunodef iciency
re b
ĠÐº Ð¾ÑĤÐ¾ÑĢ
ìĿ ĳ
Ġsy nov
Ġìŀ ĳ
unic ations
Ġsl ab
ĠT erm
Ġmenc apai
Ġin effective
Ġconf usion
ĠB ern
Ġproy ecto
ĠF orsch
Ġhard ly
Ġex iste
ĠP ed
ĠK ur
develop ed
Ġst ellar
ĠN D
n ost
ĠÙĦ ÙĦ
ĠDes a
Ġtr apped
ri que
Ġsc ored
Ġseb elum
Ġob t
Ġaltern ate
Ġcompens ate
est one
ĠF amily
ĠÏ ī
Ġtax onomic
Ġz ijn
Ġbreat h
ë§ Ī
Ġtough ness
aj emen
ĠÑĢ Ð¾Ð·
ĠCommun ication
Ġtransduc er
bal anced
ĠÙĨ Ø¸
ut ely
çº ª
ĠT reatment
ê² ©
Ġ197 7
æº ¶
Ġrespons ibilities
Ġë¶ Ī
âĪ ¶
L F
y i
Ġi i
Ġfish ing
Ġol m
ĠIg M
ut usan
ĠS ym
åı Į
Ġco ugh
ëĲľ ëĭ¤
Ġin ability
is o
Ġ Ø§Ùģ
Ġroad s
Ġgener ators
ĠH istor
r ib
Ġd iri
Ġexceed s
R ad
Ġs z
re i
ens itive
Ġpen eliti
k at
ethel ess
ĠS he
Espec ially
ĠNS CLC
S b
ose x
Ġê° Ħ
ĠB y
Ġk uantit
Ġhist ologic
p ur
T w
Ġre use
Ġval ence
Ú¯ Ø±
Ġë°ľ ëªħ
Øª ÙĦ
Ġpyro lysis
èīº æľ¯
Ġse aling
Ð»ÑĮ ÑĤÐ°
Ġsp ik
ĠNetwork s
è¦ģ æ±Ĥ
ry ing
com ings
abil ite
sh ift
lar in
Ġevol ve
Ġcontamin ants
Ġperce ive
Ġmon ocytes
Ġcar ies
ri j
Ġentrepreneur ial
Ġpos ed
Ġmes enchymal
Ġflex ion
Ġpolar ity
g os
æ ¦
Ġcapac itor
Ġcomprom ise
ĠFlor ida
Ġl uminescence
Ġconstruc tions
ĠC urrent
ĠØ¨ Ø§ÙĦ
om ials
Ġmeet ings
ä¿ ®
. %
Ġdep uis
Ġa le
Ġdis ag
Ġcommit ted
_ {\
Ġmicro tub
Ġstress ed
ET T
c ross
A ge
Ġcar ries
ro ck
Ġsaf ely
Ġmem pengaruh
S AR
ç¬¬ ä¸Ģ
cl ero
Ġconstit uted
Ġcop yright
Ġout flow
Ġw ine
ip e
Ġprov inces
ĠÐ Ĳ
19 90
Ġconsum o
Ġfract al
ĠR oyal
Ġbeg un
ĠS istem
Ġapproxim ations
æĥħ åĨµ
tr ag
p unk
Î¯ Î±
ĠV ictor
av al
Ġwe ap
ĠUnivers idade
Ġzwe i
ĠD T
ul m
Ġrep orter
ĠG as
et ts
ĠG rup
Ġlab els
ĠÐºÐ° Ðº
Ġin patient
Ob je
Â ´
Ġgrad uates
Ġdim ana
g eme
ĠA CE
ĠH em
Ġmand atory
re ib
Ġle verage
Ġd iction
Ġdel le
l auf
Ġ< /
Ġtib ial
Ġop tics
u angan
Ġhepat ocellular
Ġst ark
Ġwas tes
Ġla id
if era
Ġstr ati
Ġcl one
Ġdib er
Ġcheck ing
Ġwound s
u arga
or iasis
é Ĥ£
M ark
U I
Ġintermedi ates
Ġap ro
Ġprov inc
inf rared
Ġmand ibular
Ġman iere
Ġmel hor
ĠM iss
Ġimp urities
Ġdisapp eared
str ain
Ġple ural
K O
Ġcan opy
Ġth ing
Ġant eced
Ġtr apping
Ġthan k
æĻ Ĥ
Ġreag ents
ĠAl though
10 3
Ġhyp ogly
crip tive
em ple
Ġp ione
Ġchromat ographic
Ġsto ichi
im ide
ĠS um
en zyme
Ġsound s
Ġmineral ization
Ġcation ic
ç²¾ ç¥ŀ
Ġfo is
ict ory
Ġformal ism
Ùģ ÛĮ
Ġflow ering
Ġofficial s
Ġdeliver ing
ĠTh ailand
on ite
d ate
Ġdepr ivation
Ġthan ks
Ðµ ÑĢÐ°
ì ħ
ron tal
Ġmultil ayer
åħ¶ ä¸Ń
as ia
åĽ º
ë ¯¼
Ġglomer ular
Ġtransf ected
Ġan Ã¡
Ġsl ag
U P
v or
ke ys
Ġexec uted
m ort
Ġìĸ ĳ
ĠL O
Ġin exp
Spec ial
20 20
f ast
åħ į
Ġconfig ured
Ġfrec u
Ð¾Ð» Ðµ
ĠÙ ĥ
Ġde ger
G ly
Ð½Ð¸ Ð¹
RA M
Import antly
å¤Ħ çĲĨ
Ġview ing
Ġen qu
Ġinstrument ation
pret ation
é© ¬
ĠClass ification
Ġd c
ĠDr ug
ov es
Ġcontr al
am pl
Ġelimin ating
omp et
p resent
ra x
ay ed
H M
00 7
Ġhepat ocytes
opol ys
Ġmill ing
ĠAc cess
Ġpe u
in st
op ulmonary
gr an
im us
Ġk ay
Ġsulf ide
Ġvor lie
yn aptic
Ġresc ue
or f
ok en
C hem
ç´ ¢
å· ŀ
Ġens ures
m em
Ġmeng hasilkan
Ġsubstit ute
mic ro
ãĥ ķ
Ġìł Ģ
Ġace tic
Ġdi har
ĠBe ijing
op tim
Ġhydrox ide
on ents
Ġv ap
struct ure
d ad
erg ie
Ġimmigr ants
Ġaccommod ate
ank s
Ġflow ers
Ġanne es
Ġter nary
ĠO ther
ull ary
Ġfor cing
Ġmet ers
aut res
Ġp est
Ġs anc
itect ure
op os
ĠëĲ ĺ
Ġautom o
Ab s
Ġthem atic
Ġof the
ure n
G G
P B
+ +
ur rence
ĠAD HD
ĠG ulf
Ġprolif erative
åĩ ı
us un
Gener ally
Ġed ad
10 2
Ġsl ur
ze ug
Ġperson as
m y
Ġdef end
ĠØ º
F L
lu kan
ĠCoch rane
å¯ Į
ĠÐ¿ Ð¾Ñģ
Ġthous and
Ġinform ative
aw asan
Â» ,
ĠEnviron ment
' '
Ġnucle ic
or tions
ĠJ ahren
R ev
Ġneoplas ms
ĠØ¨Ø± Ø±Ø³ÛĮ
ain es
aut re
Ġiso forms
L og
Ġcovari ance
Ġbl ends
Ġanch or
N am
Ġsal v
amps ia
à¸§ à¸²à¸¡
Ġmoi ety
L DL
or ie
uest o
Ġel ite
Ġca ud
Ġsub p
è ³
Ġsuppress or
Ġëħ¼ ë¬¸
Ġanti fung
ãĥ ¬
ĠRich ard
St and
ç¼ º
R o
Ġcircum ference
Ġmecan ism
ìĬ µ
Ġrum ah
Ġseaw ater
Ġimplement ations
Ġpolyp eptide
og a
ĠCa rol
ĠSur gery
Un ivers
Ġshe ath
Ġke V
uel a
ab ine
ĠH yp
assemb ly
V E
char acter
Ġcl ot
UN G
Ġpar asitic
Ġscal able
ak ah
E th
anding kan
Ġb erm
Ġinter ven
hy per
Ġover w
og l
Ġcol itis
Ġrequ ests
Ġper ovsk
Ġins ulating
Ġsoc iais
ĠJ o
us ep
Ġenerge tic
respons ive
Ġdef ective
Ġiss ued
MM ARY
Ġtan ah
ÑĤÐ¸ Ñı
Ġobst etric
åł Ĥ
Ġshort comings
Ġweakness es
Ġpre requ
ĠEntwick lung
ar is
Ġdistingu ishing
Ġimper ative
Ġjed och
Ġres s
Ġa w
é ¾
Ġdec oding
Ġaut ologous
Ġwa fer
Ġpiv otal
Ph ysical
week s
Ġgu an
Ġmempengaruh i
Ġpos ter
L ocal
ìŀĲ ìĿĺ
l ang
ac il
Ġa h
Ġesc olar
Ġhystere sis
Ñģ Ñĥ
Ġconfirm ation
In vestig
ĠRNA s
Ġrepeated ly
Å ĵ
Ġest ad
å¯ ¾
Ġin m
ĠL ate
ĠÐ ľ
Ġhead s
Ġqu ark
ĠK o
M ETHOD
èĩª å·±
ë¥ ´
åŁº æľ¬
ĠF lu
Ġto us
Ġtr aps
Ġbl end
Ġ10 8
Ġste ep
OL OG
acet ate
Ġpel ajaran
Ġoc or
} ,
Ġer fol
Ġexp ense
Ġed itor
Ġr itual
ĠA PP
Î ¾
Ġelec tive
Ġdivers os
per imen
Ġgovern ed
Ġuniform ity
evalu ation
Ġmotif s
atis faction
Ġtranspor ter
Ġdi aphr
am pling
à¸²à¸ ģ
ĠConsult ancy
cl ose
Ġshrink age
is ional
K M
Ġeduc acao
ill age
Ġtek nologi
hen d
Ġpermet tant
æķĪ æŀľ
Ġch amb
ä¹ Ī
P rior
Ġconf inement
Ġneuro trans
so ver
Ġground s
N L
usep ackage
ĠF ore
Ġabol ished
Ġrepro duced
Ġmon onuclear
ĠA z
Ġal ors
Com put
id enti
bu ilding
ĠêµĲ ìľ¡
tid a
Ġhors es
Ġcon gr
Ġpel os
j as
eff ects
Ġconjug ate
Ġreflec tive
Ñ Ĭ
re port
Ex amples
ĠC andida
ç» ¼
Ġsynt he
Ġm V
ĠR C
ynchron ous
Ġmas a
Ġvill ages
Ġinterf ere
Ġpref erentially
Ġo utr
Ġrefr iger
Ġbi ases
Ġun terschied
æĿ¡ ä»¶
Ġprop ensity
Ð·Ñĥ Ð»ÑĮÑĤÐ°
h ost
ozo ic
Ġpl acing
Ġíķ ¨
ic ago
od g
................................................................ ................................
ĠF er
ĠÙ¾ ÚĺÙĪÙĩØ´
ĠK i
Ġo ve
ĠÐ ļ
Ġbe e
Ġfund ed
Ġbre aks
Ġvolt amm
Ġread ings
Ġher bal
Ġë¬ ´
ell o
Ġswit ched
Ġsuperior ity
í Ĩł
ĠGr ad
Ġal ta
Ġman ure
Ġlup us
ÑĤ Ð¾Ð²
Ġtransl ational
Ðº Ðµ
ĠI oT
Ġdepend ed
Ġpe g
çĭ ¬
Ġse am
ici encia
Ġ197 4
Ġ4 50
Ġoffic ers
Ġtransport ed
ER T
ĠSi C
Ġrepeti tion
å®ī åħ¨
Ġslic es
Ġtunn eling
Ġ1 15
Ġover t
] ;
Re al
Ġbi os
Ġdig it
S ci
Ġries go
oun ting
ig an
Ø¯ Ùħ
ĠëĮĢ ìĥģ
Ġintegr ates
Ġnot ation
%) ;
Ġf ecal
Ġnanocom posites
ÑĨÑĸ ÑĹ
Ġì§ Ħ
Ġperin atal
our d
ek t
Ġautomo tive
o ured
Ġsecret ory
Ġus ability
bed a
ĠU s
Ġneurop athy
ĠW al
pi ece
s hell
id ential
Ð½Ð¸ Ðµ
Ġsequ enced
ĠC ross
ina e
ĠWilli am
ie ure
Ġhydr ation
ÑĨÐ¸ Ñı
Ġbe ings
Ġgluc ocortic
th reat
Ġswe et
Ġdecl ared
Ġdiv ide
Ġengine ered
ib eral
ì¹ĺ ëĬĶ
ĠR em
Ġtrans c
ĠS in
Ġjustif ied
G N
ĠM yc
ac le
ew e
on ation
Ġwave form
Ġcheck ed
Ġco le
ĠK nowledge
Ġadd s
iz in
otherap eutic
Ġhypot he
Ġed itorial
Ġaut onomic
G y
S ec
Ġtransplant ed
Ġ1 12
ĠN ach
Ġcon g
u asan
Ġf ark
Ġultrason ography
Ġabs or
Up on
at on
Ġpath ologies
spec tral
iaz ep
Ġvom iting
cor rec
Ġadul thood
Ġtr uly
ack s
Ġcap it
stead y
ĠF E
oxid ation
as uk
åĽ ¢
W hether
Ġgly cerol
pir atory
Ġmethod es
Ġ iv
ãĥ Ĺ
Ġimport ancia
c onstr
t umor
Ġìķ Ī
Ġconstr u
ĠW istar
ĠMAT LAB
Ġearthqu akes
ĠIs s
n ers
ĠV erg
Ġback ward
Ġreg resi
Ġm issions
Ġcur ved
Ġar yl
ĠP SA
Ġan ions
ĠJew ish
ess ional
Ġm osa
ar ti
ag ian
opter a
Ġdihar apkan
ĠH eart
Ġnav ig
ati an
Ġpr ise
as ion
Now adays
Ġëį °
es tim
ĠP earson
æĿ Ĥ
Ð¾Ð´ Ðµ
Ġvolt ages
Aim s
Ġarchae ological
Ġlist ening
æĭ ¬
Ġcontral ateral
è¯ Ĭ
Ġneuro t
Ġf im
Ġpeng el
yl ate
on te
f ib
Ġempres a
Ġen vol
Ġp om
æĿ ¿
Ð¸ Ñı
Ġminim ization
R AS
Ġh am
ĠM ultiple
ĠB AL
he im
î Ĺ
Ġab domen
Ġbran ching
Ġal umina
Ġallev iate
ĠD rosophila
Ġexc iting
f as
ĠB cl
ĠM ary
p f
Ġcons iste
ost omy
Ġg els
ĠÐ» Ð¸
ĠS OD
Ġultr af
Ġmigr ants
Ð¾Ð½Ð° Ð»ÑĮ
ä¹ĭ éĹ´
è¿Ļ ä¸Ģ
ĠS and
Ġre ef
$ -
n ie
ten e
ĠS anta
ĠIg E
Ġw ob
Ġmi RNA
Ġpublic ly
Ġnicot ine
æŀ Ĺ
åĪ Ĵ
ëĵ¤ ìĿ´
Ġpro hib
inter vention
em ukan
AN S
ĠL et
èģ ļ
Ġë ©
Ġhydroph ilic
ĠNew ton
Ġins ignificant
z ero
Ġdo is
ë¦ ½
Ġox al
Ġgre y
Ġay ant
Ġativ idades
w ich
Ġp aling
at osis
ä»· åĢ¼
Ġmy th
ĠPl ant
Ġwarr anted
Ġcho lec
r ank
ze ich
æĶ¿ åºľ
Ġmen os
Ġswit ches
Ġr ays
Ġdec ou
Ġ( âĪĴ
ilos op
ĠTe aching
Ġmen ye
Ġfac ile
Ġdirec tor
Ġhemod ialysis
Ġt s
Cl ass
Ġcont re
il ine
Ġan te
v id
i ologic
ì¶ ķ
Ġadop ts
Ġsen es
ĠâĢ Ŀ
C et
Anal isis
o elastic
Ġanaly tically
he id
P o
Ġset elah
ul try
Ġì Ĥ°
pol ymer
v ens
ks i
ãģ£ ãģ¦
Ġw aren
Ġv ista
Ġ ili
Ġf ase
Ġviol ent
Ġparad ig
Ġ ÑĪ
eng k
he its
ĠÐ· Ð½Ð°
Ġsymb ols
Al tern
AC R
Ġt au
ĠÙĩ Ø§ÛĮ
Ġfavour able
å¦Ĥ ä½ķ
eff ectiveness
00 8
Ġê´Ģ íķľ
Ġfill er
ve is
ÑĢ Ñĭ
h in
M IC
zo a
Ġp ok
ad er
ç ¿
inn en
a ug
Ġbacter ium
z ep
ĠP emb
Ġand eren
ĠSo ftware
Ġbio availability
be its
Ġlegisl ative
ati a
Ġreserv es
Le vel
b on
A CT
Im plications
ay ah
tiv al
į ¨
Ġsl opes
ĠD ir
Ġdis put
Ġbackground s
r andom
B H
Ġcultiv ar
Ġkons umen
ĠEr f
v ia
çĶ ²
ĠB angl
Ġcl amp
Ġam in
ĠHamilton ian
Ġon em
Ġasc orb
ç¼ ĸ
od il
èµ °
ik s
æĢ§ çļĦ
Ġa ur
Mo lecular
ag as
S elf
Ġv ice
Ġ erm
Ġbrom ide
Ġ197 3
Ġaff ili
Ġc ass
çŁ¥ è¯Ĩ
ĠFor ce
ĠS ek
in ality
ad ora
ardi ac
b red
ĠH ung
Ġí ĽĦ
ub icin
Res umen
åī §
Ġbes timm
Ġrot ary
Ġlept in
ĠObs erv
Ġground ed
Ġë§ ¤
Ġjoint ly
oler ance
omple x
Ġpup ils
ĠB ede
Ġê´Ģ ëł¨
Ġanalges ic
Ġa lem
ĠOp tim
Ġc ache
ir ubin
ĠN ations
Ġman ually
Ġce phal
Ġexplan atory
Ġk Hz
Ġlands l
$ ,
Ø¯ Ùģ
ograf ica
ĠPh D
ĠM OD
Ġp uis
Ġclaim ed
Ġsemicon duc
deg ree
ĠAnn ual
Ġal d
Q uantitative
ec cion
Ġexpl osion
tra umatic
Ġactiv idad
Ġestablis hes
method ology
Ġcontrovers y
og as
uc hes
H b
in te
Ġinterpre ting
Ġback bone
Ġforec asts
B io
ë¦¬ ê³ł
Ġshort age
Ġc ured
Ġcual es
ĠÐ¿ Ð¾Ð²
Ġphoto electron
ÑĢÐµÐ´ Ðµ
Ġtransf ers
ide o
a emia
å¼ ł
ĠVis ual
ìĹ° êµ¬
Ġreview ing
Ġcoun ty
R u
Ġrecogn ised
ich ts
ç³ ĸ
Ġincen tive
ĠÙħ Ø·
Ġequil ibr
Ġimmun otherapy
Ġinc on
if en
Ġinexp ensive
Ġbre ed
Ġwar f
Ġbas ins
Ġinter rup
Ġphot ons
ob ut
ĠF orest
Ġun ivariate
Ġch amp
Ġset tle
gr ained
os keletal
Ġsched uled
Ð· Ñĭ
ĠCz ech
Ġun iverse
ad ec
Ġsw arm
Ġass urance
iz i
Õ ¥
Ġprev ailing
Ġau tism
Ġelectro cardi
Ġres usc
Ġaf ect
a Ã§Ãµes
Ġper ubahan
Ïģ Î¹
Ġoccasion ally
ĠPol y
er j
ol Ã³g
rolif erative
Ġop position
Ġinhab it
ĠÐ¿ÑĢÐ¾ ÑĨÐµ
Ġkin em
ĠC KD
Ġdiscrimin ate
Ġ( [
19 97
ĠÑĢÐ°Ð· Ð²Ð¸
Ġaddition ally
ator ia
Ġ ×
on ing
Ġsort ing
ond yl
Ġendot helium
Ġde alt
Ġem itting
n els
ex c
Ġz un
ê ¹
Ġ Ð¾ÑĢ
Ġmill ions
Ø¨ Øª
Ġun expl
eng ue
ĠM arc
I Z
18 0
Ġde ren
Ġbl o
Ġann ually
Ġencryp tion
ak ter
Ġparticul ier
æĽ ²
load ed
ase ous
truct ured
Ġìł Ĳ
Ġent ang
ĠK or
os o
ĠCO MP
Ġprost hesis
Ġc uestion
Ã¼ n
Ġmobil ization
ĠMe eting
Ġfr onti
res tric
ĠØ¯ ÙĪ
ë³ Ģ
iel s
ìĦ± ìĿ´
æ¨¡ åŀĭ
Ġ âĢĻ
Ġapresent a
Ã³ s
ĠErgeb nisse
Ġattr act
Ġk illed
Ġen v
ĠC as
ĠLew is
Ġunder p
Ġsupern at
d eterm
Ġsh unt
F M
Ġg an
Ġrece ives
Ġaccount ability
Ø§Ø ¶
in hib
Ġ( Â±
ĠT ok
ac hers
l ungs
ĠÙĨØ´ Ø§ÙĨ
Ġíļ¨ ê³¼
Ġcat he
ĠR ights
åıĳ çİ°
Ġper mitted
Ġlast ing
Ġperm asalahan
clero tic
Ġassoci ate
EM ENT
omat ous
Ġpolyn omials
Ġod d
Ġcam eras
romy cin
Ġagre ements
Ġplay er
ĠR andom
Ġcig arette
ome gal
par ameter
Ġmenganal isis
Ġsu jet
Ġscaff olds
Ġent hal
is ien
æĸĩ åŃ¦
Ġhous es
ĠÏĦ Î·ÏĤ
Ġpre clinical
Ġpharmacokine tic
h istor
ĠAm az
Ġtr acer
ĠI SS
w irk
Ð°Ð½ Ð¾Ð²
An y
W B
Ġstret ch
ex ual
Ġpesqu is
f ilm
l end
Ġmark s
ten ing
Ġcod ed
Ġ1 11
Ġconjug ated
Ġexer ted
ĠB or
l oc
ĠFT IR
Ġalgun os
aro t
im ilar
ĠD P
çĤ İ
Õ «
Ġkomun ikasi
Ġë³Ģ íĻĶ
Ġw ires
Ġam p
ëĲĺ ìĹĪëĭ¤
Ġfir ing
C ross
ot in
ent ation
ĠE A
Ġtr as
sup ervised
S event
Ġn uest
ur t
Ġreg ister
Ġper ilaku
Ġs ect
ê¸ ī
Ġassum es
Ġps ic
ĠPen elitian
ad d
Ġarith metic
up lex
Ġdoctr ine
Ġrender ing
Ġo tras
Ġìłľ ê³µ
Ġqu as
Ġse wage
Ġinver ted
il ia
Ġut ama
Ġmicro c
Ġ10 7
Ġfix ing
å¤§ åŃ¦
eng ah
Ġur anium
Dep artment
Ġbi ased
M us
Ġb ull
ause a
Ġneurode generative
Ġcor rob
e ived
Ġintere ss
Ġbi ore
Ġana esthesia
ompati ble
Ġin gestion
F U
Ġser ine
Ġhazard ous
Ġphot od
apor an
Ġprolif er
ric k
Ġíķ ł
Ġov ary
çļĦ éĩįè¦ģ
ĠL ie
Ġdes p
in jection
trib uted
Ġb omb
S in
Ġbe an
ak h
ur us
Ġrecon figur
Ġmicro environment
ĠEm erg
Ġmod ulating
Ġpoison ing
uk ti
) ),
Ġdiber ikan
Ġemb ol
Ġ Ñī
IC U
ĠTurk ish
Ġcontr adic
ter ase
Ġaspir in
Ġlaunc hed
Ġch a
n em
Ġnow adays
alan ine
Ġg ore
ind ex
cept ors
Ġus u
Ì ģ
ĠMod ern
se vier
acryl amide
re ceptor
ar ct
æĹ ©
ĠThe rm
Ġdis posed
ãĥ Ĩ
âħ ¡
Ñĸ Ñĩ
Ð¾Ð» Ð¸
æ ½
Ġreact ed
ĠM ill
Ġflood ing
ĠB I
h ot
geb en
Ġinev itable
Ġcor ruption
Ġl umen
. '
19 95
inf lu
P ath
Ġdischarg es
Ġob jeto
V EGF
Ġcat ast
ĠK ey
Ġsh adow
ãģ« ãģĬ
centr ation
ĠCol umb
Ġsom at
gl ich
ĠH u
ĠRel ations
Ġli ability
sp an
Ġf erm
cycl ic
Ġ24 0
æ¤ ľ
pl acement
ĠIg A
ur so
ox icity
R OS
se y
Ġdis position
is an
Ġkuantit atif
æ¤ į
Ġ10 9
Ġhe red
em in
è§Ĥ å¯Ł
ë³ µ
ĠG E
e it
Ġsimpl er
ĠÏĦ Î¿Ïħ
Ġlign in
ĠNe ural
f ill
ĠM ean
ĠÙħ ÙĪØ±Ø¯
Ġadm issions
æĸ ¯
In tegr
Ġf um
ect able
Ġurban ization
é Ĥ
ver t
ĠS ix
$ .
Ġprocess ors
Ġneurop ath
Ġent wick
Ġnon invasive
Ġport e
Ġneu rob
iz ados
Ġsl a
ĠPe ople
Ġmicro array
Ġdivers ification
umb uhan
z ug
ĠE s
Ġfl ora
av y
Ġpro xy
æ ĵ
çļĦ åıĳå±ķ
Ġemerg ent
Ġdrop s
Ġpropor cion
Ġke uangan
ĠA E
Ġmedi ation
Ä Ĺ
ĠI MP
Ġwind ows
ĠCO X
Ġlook ed
Ġethn icity
Ġnanos tructures
å°± æĺ¯
ycl ic
Ġ ..
Ġbronch ial
Ġge f
Ġsub jec
ara an
ud ed
Ġess ays
E duc
Ġspac ecraft
Ġhex agonal
ur i
ĠIn iti
H B
ì§ ĳ
z ess
Ġmen ur
Ġw ww
Ġab ras
Ġda ÃŁ
re tro
Ġverte x
æ» ¡
Ġson dern
Ġconver ting
å·¥ ç¨ĭ
Ġle isure
Ø§ÛĮ Ø¬
Ġcon vention
Ġbacter i
G enetic
éĴ Ī
Ġl ift
Ġconv inc
Ġprost agland
arg in
Ġsh ut
Ġphosph atidyl
ĠF as
ì į¨
Ġul cers
ĠArc tic
Y ou
Ġh ace
abil itas
Ġqu ando
ĠR ol
ä¸Ń å¿ĥ
Ġk t
ĠL ip
ĠVer fahren
Ġblot ting
ĠPol ish
E U
vis ual
Ġpor tr
Ġk Ã¶n
Ġinterconn ected
åĩº çİ°
ĠC hemical
Ġup ward
èĬ ±
Ġh ari
ĠS NPs
Ġf iction
ce k
ĠÎ ¿
ĠÑĸ Ð½
zie h
Ġimp urity
Ġsk ew
ê ¶Į
Ġsuc tion
ellsch aft
Ðµ Ð·
Ġconj unto
Ġte oria
IN D
19 96
Ġdep olar
ĠE sc
Ġfore nsic
erenc anaan
Ġag gl
n ant
ĠM aterials
Ġ ÑĩÐ°
Ġdid apatkan
ph oton
Ġan ge
az ard
Ġdis impulkan
Ġ ud
Ġfer r
æłĩ åĩĨ
Ġcr ises
ĠMart in
Ġaut res
Ġl un
D irect
Ġtri angular
ĠDel ta
Ġcirc adian
itiv o
RO M
Ġnm ol
ÙĦ ÙĪ
å£ °
Ġacqu iring
Ġman eu
Ġdetermin ar
Ġfibrob last
out s
Ġint ubation
Ġassim ilation
Ġpobl acion
ap op
c aten
Ġhipot esis
Ġpack ed
perg illus
uc ks
p it
ceed ings
iel le
Ġimmers ion
AN O
Ġrecogn izing
Ġa un
Ġpap ill
Ġpor ph
ĠB T
Ne ither
m emb
Ġexchang er
ti ka
ogy akarta
Ġeryth rocytes
Ġadd iction
st a
C ontin
Ġar tist
ĠP em
éļı çĿĢ
Ġretic ulum
Es tim
im um
k ov
Ð¾ Ðµ
åħ¨ åĽ½
Ġm Ã¡s
Ġbi osens
Ùģ Ø±
E very
ad an
Ġsuccess ion
v ival
Ġhel ium
Ġelec tion
Ġdispl acements
Ġcy steine
cl im
Ġloc ate
æĻ ®
Ġcoc aine
Ġrec up
Ġreflex ion
ĠPrac tice
ĠMed ia
Ġit eration
Ġked ua
ond ial
Ġne arest
Ġvis ually
ram ient
Ġt een
ĠAn s
Ġess enti
ur red
å¹´ æĿ¥
ow ed
Ġup aya
iv ate
ĠíĮ Į
or ial
Ġver tices
Ġcran ial
ĠArm y
ak ed
este em
clos ed
ĠÃ ħ
ĠFr age
Ġhistor i
tiv amente
k ins
gr ass
f i
ce ived
tid o
Ġneu rologic
Ġ urb
D rawing
Ġbid ang
op les
Ġpla ques
isp anic
å ª
Char acter
æ Ĥ
abor atory
ĠKen ya
å¯¹ äºİ
èĦ ī
W F
Ġp he
ĠM AC
Ġjud ged
lym ph
Ġbi j
Ġrec onc
ç ·
âĢĿ )
meas ures
Ġknock down
od i
Ġìłľ ìĭľ
par a
æŃ »
Ġhom ogeneity
Ph ot
ĠS G
Ġantifung al
Ġcu id
Ġdivers as
ens ing
Ġtable t
Ð¼ Ñĭ
Ġto das
Ġextrem ity
Ġassay ed
an je
ulf ide
Ġsugges tion
Ø¯ Ø§Ø±
Ġcu enta
nah me
ĠH ub
ĠF M
èĲ ½
Ġsugges tive
um as
Ġplaus ible
M MP
ĠEg ypt
Ġspan ning
Ġtet api
ÐµÐº ÑĤÐ¸Ð²
Ġpor cine
ĠÏ Ĩ
et re
if ikasi
wend ung
ant en
Ġfib rous
ob lasts
Ġdeform ations
st yrene
Ġsem ua
le in
Ġmut ually
gr iff
Ġfemin ist
Ġchar ts
ç² Ĵ
ell um
Ġbright ness
ĠSt ation
ĠR atio
c ium
Ñħ Ð¾Ð´
Ġsuperv ised
íļ ¨
Ġproduc cion
ĠH Cl
Ġbes ch
ĠE ins
Ġmen or
Ġdiagnos ing
c ancer
atur an
íĮ Ĳ
G al
Ġì ´Ī
çº ¦
Ġsk ull
Ġrev ol
Ġand rogen
Ġcopol ymers
Ġend point
ĠBeh and
Ġspind le
Ġinf low
Ġv y
Ġbas ement
ì ¢ħ
Ġfa una
gal act
n ight
Ġsi ec
Ġagg ression
Ġmetaph or
ĠëĤĺíĥĢëĤ¬ ëĭ¤
t ol
Ġobser vers
Ġvari ational
Ġpod em
Ġdef lection
Ġwe ed
âĪ ŀ
Ġunder water
Ġdys plasia
Ġaneurys ms
Ġgrad ing
Ġhid up
Ġindustr i
Ġv inc
Ġ ï¿½
h l
Ġh orn
tik el
ustain able
ĠW OR
Ġmeas urable
Ġmultiv ariable
W estern
Ġtun able
or ado
C K
ĠAm b
av ir
æĿĲ æĸĻ
ĠÚ© Ø§Ø±
Ġì§ ģ
Ġin acc
ê° ķ
bil ical
Ġbar u
em ed
Ex pression
Ġlens es
ĠGe orge
æ ©
Ġreact ors
Ġelect rom
ĠR adi
F inal
Ġke ine
ypt oph
Ã³ w
Ġhist amine
ĠÐ Ł
Ġac yl
ten ess
Ġbreast feeding
Ġtransm embrane
Ġmac romo
Ġg aran
Ġev ac
respond ing
d rop
Ġs ino
ur nal
ap ers
âĢĿ ï¼Į
Ġste els
æİ Ĵ
Ġtr acing
A ct
Ġdest ac
Ġe cc
Ġpar ity
Ġvers atile
Ġprosp ect
ì ¦
Ġinflu encia
ĠBel g
al so
w ir
ĠR os
Ġher nia
Ġdisplay ing
Ġd ating
I E
Ġrep utation
1 12
Ġbi aya
eff iciency
Ġprim era
ĠÐºÐ¾Ð¼ Ð¿
Ġso uvent
ĠV A
Ġstr uktur
Ġassembl ages
G ood
Î¿ Î½
Ġestim ators
Ġinher itance
Ġappro ached
N ormal
ĠHy dro
ÑĤÑĮ ÑģÑı
ob acillus
th ick
Ġhel ical
Ġn ed
cons cious
ST R
ĠÏĦ Î·
Ġmort al
Ġib u
Ġinfer tility
ä»£ è¡¨
Ġlib er
lu oro
ĠD aten
Ġinter acts
Ġder ni
Ġland mark
ent ase
w ert
Ġg aseous
in oc
Ġol factory
Ġloyal ty
ëĵ ±
ic it
å® ¤
æ¯ Ĵ
Ġgangl ion
Ġprogen itor
Ġstop ped
ĠT c
Ġm asing
Ġflow ing
in et
M al
Ġfil aments
Ġcond iciones
Ġfl aw
uhr t
ip ine
om ed
Cons ider
Ġwork force
Ġa ward
bes ondere
ĠL act
Ġìłķ ë³´
Ġplac ental
ang ers
i osis
Ġdist orted
ann ers
éĿ Ĵ
Ġknow ing
ĠÑģÑĤÐ° ÑĤÑĮ
Ġc och
Ġins ol
Ġsem en
ĠC atal
é ¥
Ġtestic ular
re view
Ġdo ts
Ġpersonal ized
Ġmuj eres
g ende
Ġdispers al
z one
èĦ ĳ
Ġdiscours es
Ġdis ordered
Ġsol d
Ġh arga
le igh
Ġher ramient
U m
________________ ________________
H ER
un ter
ĠU se
Ġmaintain s
Ġcatar act
Ġenlarg ed
ĠDep ression
ab aya
Ġdiss ip
Ġped estr
Ġpolymorph ic
Ġsearc hes
Ġfree ze
threat ening
v os
ÑģÑĤ Ð°
Ġhe arts
or um
Ġbene ath
ÐºÐ¾Ð½ Ð¾Ð¼
Six ty
Ġlymph oid
ï¼ ľ
Ġempower ment
B W
load ing
ch ol
now led
s ome
Ġdispar ities
Ġform ations
ĠA UC
ĠP eter
Ġë§ Ī
is ters
Ġclar ified
Ġw in
Ġantico agul
duc ible
Ġfet us
ĠF actor
Ġprincip ais
omm end
Ġimpair ments
ov ing
Ġfer romagnetic
Ġph ilosop
av ras
d ie
Ġak hir
âĢ ĳ
ĠA ch
Ġst ones
ĠPhil ipp
re y
it ated
est ellt
eh r
Ġno isy
pr ac
çĪ ±
Ġuns aturated
agg reg
æķ° æį®
ĠProt ection
Ġmyocard ium
low er
ĠF ace
F ew
iti me
SO D
Ġsel uruh
Ġfollic ular
Ġk ol
" ;
Ġaplic acion
Ġcondu it
it ungan
H a
ĠH or
Ġstrengthen ed
ĠB S
ĠP artic
ĠÙħ Ø´
Ġ197 2
ĠI A
Ġer sten
ils on
Ġmulti plication
} _{
Ġhistor ically
Ġbas ically
éľĢ è¦ģ
it em
Ġper lakuan
li ament
ĠC y
Ġjustif y
ĠM ain
Ġh olog
Ð¾ Ñı
ess el
h ui
L im
id opsis
Ġpack ets
Ġdem ographics
Ã ¯
G Hz
Ġcros sover
Ġcapt uring
se a
Ġextr usion
Ġimm er
ĠC p
im inant
at akan
åħ ´
C ES
Ġtrab aj
Ġli vel
Ġg ent
Ex periment
Ġmo uld
Ġphot ore
Ġcitizens hip
Ġarth roplasty
ig o
Ġperk embangan
ryst all
Ġshel ls
+ .
com plex
Ġed iting
M ac
an ian
Ġsulph ate
t os
çĸ «
th romb
Ġhyper gly
Ġquad rup
Ð¾ Ñĩ
adel ph
U til
Ġfound ed
omm e
Ġrecip rocal
at ten
Ġguarante es
Ġfac on
å° Ķ
ĠN one
Ġpo ultry
Ġphot oluminescence
Ġr hyth
ĠBeitr ag
ĠBede utung
Ġef ic
Ġtight ly
ir teen
Ġanalyz er
ĠR D
æĻ ¶
ç« ¯
Ġdemand ing
Ġshort ening
Ġdies es
Ġs keleton
ad u
Ġnormal ization
Ġcontex te
tis ch
ĠS afety
ogen icity
Ġk illing
çľ ¼
Ġwe igh
ĠM aster
Ġt ion
éĽ »
Ġconvers ation
recip itation
ĠCon clusion
. <
Ú¯ Ø§Ùĩ
ĠìŀĪ ìĸ´
Ġperipher y
F D
id ers
in z
Ġgel atin
ĠP ad
ĠAn gel
ãģĿ ãģ®
Ġcut off
å¾ Ħ
Ġnanocom posite
Ġeks perimen
Ġhapp ens
ĠV alley
ov id
ä¸ ¥
si vely
Ġmultim odal
ĠK ol
Ġcarbon yl
ĠPro duk
Ġketer ampilan
Ġfac ies
Ġirr ig
in tr
MP a
Ġper d
ox ane
ag ia
ĠBangl adesh
Ġthromb ocyt
Ġk l
ib at
Ġcar c
Ġìŀ ħ
Ġpl ur
ĠìĹ Ĩ
d in
= -
im aging
Ġb ajo
10 9
Ġintr usion
Ġpert inent
Ġinc ontin
Pol y
Ġaccum ulate
ĠÐ¼ Ð¸
om i
Ġpa ediatric
Ġdiges tive
Ġb ars
ĠS Y
math bb
ï¼ Ł
Ġkon nte
ore m
b ro
es ophageal
ek i
ç¨ ³
Ġgli oma
ĠL ag
Ġform acion
Ġup grad
Ġmedi ator
Ġz ona
Ġhyd rological
ada an
Ġs arcoma
ĠØª Ø±
Ġsenti ment
Ġleuk ocyte
am ientos
à¸ ł
Ġguarante ed
eg u
ë ¹Ħì
ĠOx ford
al o
Ġtrans istors
ë¶Ħ ìĦĿ
Ġdecl ining
stud y
ut en
Ġphant om
Ġest ate
ĠDi abetes
Ġbab y
Ġglycopro tein
Ġmax illary
ĠD atabase
Ġcontr a
an tit
Ġtremend ous
ĠJ i
esp anol
od os
Ġend oscopy
çº ¢
Ġtack le
oscop e
Ġspe ak
Ġcentral ized
Ġenrol l
ut uhkan
Ġcaus ative
ĠC PU
S il
o ter
æĶ¿ æ²»
Ġwob ei
åĳ Ī
ĠE CM
ax y
ä¸ĵ ä¸ļ
S a
Ġperfor ation
ist es
Ġfif ty
Ġparadig ms
Ġall oc
Ġw rote
Ġsc arc
Ġestr adiol
å¢ŀ åĬł
é¼ ł
Ġde uter
ĠM OS
Ġflex ural
à¤ ¾
Ġperoxid ation
Ġprot ons
Ġtens ions
ĠArab ic
Ġimpact o
ĠBeh avior
Ġam end
ish man
incip al
Ġt ed
Ġsignif ik
ure ment
ic illin
Ġmar ried
Ġenc odes
ĠU C
Ġcatech ol
Ġn el
ĠFerm i
æĬ ĳ
oxygen ase
ê¸ Ī
Ġëĭ¤ ìĸĳ
ul omb
Ġtex tile
Ġg yr
Ġas tron
ST IT
ĠMal ang
Ġmem ories
Ġun fold
D epend
Ġal tering
eth anol
u o
odon tic
g ers
Ġtem p
igh ter
Ġpais es
ĠF ol
åħ ¸
Ġbur ied
ĠÐ¿ ÑĢÐµ
f ly
Ġsem ester
SU MMARY
tib ility
Initi al
Ġstandard ization
ub s
ĠG ood
ĠÐ¸ ÑģÐ¿
Ġë Ĥ
T s
Ġfraction ation
Ġtun ed
ĠS ao
cou pled
Ġed itors
Ġb urs
Ġpem erintah
Ġps oriasis
å¾ Ģ
ĠH onor
C yt
Ġat e
Ø¹ ÛĮ
ĠUnivers itas
Ġcu ando
In tro
cryst al
Ġbul an
S alah
Ġpo inting
Ġlandsc apes
ĠT aylor
g reen
ĠCS R
Ġcontrib u
Ġanaliz ar
Second ary
adelph ia
ap ore
< .
H PLC
Ġge ography
Ġgir l
rosp inal
Ġconv ective
u elle
Ġt iga
X A
ĠElec tronic
Ġber ada
åĽ½ éĻħ
Ð² ÐµÑĢ
Ùħ ÛĮ
op per
Ã¨ re
Ġstr and
ĠStand ards
Ġproceed s
erv ed
AS S
UT ION
en uhi
Ġtr action
Ġ íķĺëĬĶ
ä½ĵ ç³»
Ġhapp en
ĠR p
Ġdokument asi
Ġsal iva
Ġdev ised
ãĤ ı
æİ§ åĪ¶
Î½ Î±
Ġab rupt
Ġt ienen
Ġabstr action
Ġimmun ofluorescence
Ġplacent a
ic ian
Ġfil os
Ġtr ata
eg o
Ġdesc ending
Ġ( ~
Ġadvantage ous
à¸²à¸ £à¸
Ġgas tr
Ġrealiz o
ĠComm on
ĠFed eration
à¸Ħ à¸§à¸²à¸¡
che id
Ġcampaign s
ĠG d
Ġb inder
Ġval ves
Ġhapp ened
Ġvis ibility
Ġf its
L ike
Ġdef ault
Ġenc ore
az a
Ġsal ient
Ġclass ifiers
ĠT om
Ġmoun ting
Ġcos mic
Ġfer ment
w i
Ġmar ital
Ġqu ais
Ġaut ores
Ġbud aya
Ġaut umn
ĠEl sevier
Ġdisc om
Ġprofess ores
Ġves tib
id ir
Ġmes op
ĠER K
K nowledge
ĠS NP
pend ix
Ġim plied
Ġpoly g
Ø¯ ÛĮ
Ġste ering
Ġacid ity
Ð¾Ð³ ÑĢÐ°
m asing
caten in
abs orption
f unctions
Ġb ay
v ial
Ġartis ts
ĠCath olic
Ġout ros
Ch ronic
Ġpr i
an us
Ġign ition
ust ered
ĠJ er
ĠM ET
Ġchlor o
op tical
ÙĪØ± ÛĮ
L s
Ġtoler ant
ÑģÐº Ð¾Ð¹
valu ed
Ġsp ill
ĠMex ican
en y
ĠT b
Ġkel uarga
ne ur
Ġmicro gl
Ġu it
Ġpend ant
Ġwrit ings
Ġbag ian
Ġautom obile
aj ak
gen der
ad ition
Ġclos ing
Ġëį Ķ
Ġphosphory lated
ific acion
Ġoutbre aks
T ype
ĠAdv anced
c ad
Ġgramm ar
ag it
ĠPK C
Ñĸ Ð¹
Ġg ets
of l
Ġor ange
ess a
Ġorganis ational
Ġt ape
Ã ¥
Ġadministr ators
at onin
Ġê°Ģ ëĬ¥
Ùĩ Ø±
resist ance
Ġnod al
ETT ING
avor able
Ġtrans itional
å»º ç«ĭ
Ġradi ographs
Ġgener o
Ġpossess ed
ĠP CI
ãĤ °
Ġpo uv
Ġcompress or
Ġsat ellites
Ġn ausea
ia h
Ð½Ð¾ÑģÑĤ Ñĸ
Ġoste oarthritis
am ing
Ġ2 20
Ġpain ful
æ²¡ æľī
Ġdiver gent
our ism
Ġ @
OR M
Ġacc ord
w es
through put
Ġfin ished
M el
Ġprogramm ed
n ac
Ġlack s
b etween
ĠP as
ob lastic
Ġtrack s
ÑĤ ÑĢÐ¸
ar at
ophil ia
Ġminim ized
N ine
hythm ias
ĠIndustr ial
ra it
Ġw anted
Ġtumor igen
ul ph
ĠD SM
Ġso f
apun ov
Ġhard ening
Ġto lu
us al
dis pers
Ġsurprising ly
is ierung
Ġlear ner
Ġze olite
ãĢ ī
Ġstabil izing
Ġmigr aine
Tr aditional
F ield
K L
è¡ ĵ
Ġu ro
íĮ Į
Ġcoll oidal
ĠÎ¼ mol
ä¸ ¾
Ġp als
Ġmes mo
ì ¼
çĽ ĳ
ĠMe asure
Ġtach yc
lis her
ĠíĶ Ħë¡ľ
ĠC U
Ġm ati
ĠD N
ĠFram ework
ç»Ł è®¡
Ġmer its
Ġdis eno
El le
ĠBer lin
ip ro
Ġdis asters
part ate
ĠTr ich
vere ign
qu ar
ĠM and
ĠP las
äº§ åĵģ
Ġch ose
Ġuter us
Ġsk et
Ġthere after
Ġì Ĥ´
Ġde ve
Ġpost ulated
Ġscen es
Ġscav enging
Ġfactor ial
à¸ģà¸²à¸ £
éļ ľ
ater nary
ĠP ID
oler ant
ord inate
Ġpref erential
ogene ic
çı ¾
IC O
Ġfil tered
à¸ģà¸ ©
un es
Ac ute
Ġbifurc ation
of ol
an im
Ġcl as
ess er
ex posed
Ġë§ İ
ĠS l
ol ateral
Ġsex ually
ra q
Ġfor ty
Ġ17 0
Ġcorrob or
ĠM ars
Ġpack ages
Ġìłģ ìļ©
âģ Ħ
ĠÎ¼ Îµ
ĠMuse um
ĠPart y
ĠH SP
Ġpr agmatic
ĠD D
ĠPl ate
é ł
IC H
ir atory
ist ant
Ġris que
ail ure
Ġspecial ty
ro u
un ity
Ñĥ Ð½
Ġbe ads
Ġrest aur
Ġcol onic
Ġtransvers al
Ġê°Ģ ì§Ģ
Ġpeng ujian
Un iversity
ĠW ir
int ensity
19 94
ĠSci entific
tsch aft
ĠA SM
Ġretard ation
k Da
ost o
Ġ Ø§Ùħ
Ð¼ Ñĸ
ĠN G
ĠH ouse
Ġt aux
Res ume
Ġ1 17
Ġhaem at
Ġcel ui
Ġinf est
Ġâī Ī
Ġth yro
Ġapro xim
E W
Eff ects
Ġcardiomy opathy
ens ed
at ement
Ġpublic a
Ġel s
Ġk un
Ġdes ain
Ġnonlinear ity
ut ase
res tim
Ġre taining
vis iae
æ² ¹
Ġaver aging
éĸ ¢
Ġn ie
Ġpist on
Ġgather ing
crip ts
èµĦ æºĲ
Ġfac teurs
Ġslur ry
Ð° Ñı
ĠB ureau
Ġpres encia
Ġellip tic
Ġbeh and
art an
Ġcatal ysis
With out
y to
r adi
G lobal
Ġcar t
z ne
Ġup regulation
åĮħ æĭ¬
Ġcereb ellar
ĠS out
Ġambigu ity
i ros
Ġm isc
e le
Multiv ariate
Ġf rente
Ġcollec tor
Ġcan ine
Ġimp uls
Ġk cal
Ġal lem
ĠHb A
lo ok
U nd
Ġhydro gel
ĠÏ ģ
Ġexception al
Ġincons ist
Ġmicro f
â ĭ
Ġpublis hing
AD A
ìĹĲ ëĬĶ
ëĵ¤ ìĿĦ
ëıĦ ë¡Ŀ
Ġon de
Ġìĭľ ìĬ¤íħľ
os h
Ġë§ Į
Ġme ets
ow a
os arcoma
Ġco oking
ĠW irk
Ġobserv able
olog ischen
Ġpres chool
Ġimmunosup pressive
Ġolig onucle
Ġster ile
Ġher pes
ĠN umber
Ġdi analisis
Ġdi odes
ke hr
d rome
ĠSh ang
Ġpro jeto
Ð² Ð»Ñı
am t
æĸ° çļĦ
Ġêµ¬ ìĦ±
So il
comp uter
èħ º
ĠN ature
ecl ampsia
ĠTr aining
s olid
Ġrefer ring
> >
Ġre jected
ĠE G
Ġjud ge
Ġog ren
Ġper taining
h Ã¤
Ġcombin atorial
amp ung
as ant
ç» Ī
ĠO h
Ġmacro economic
Ġheter os
oc he
Ġinv ited
z in
V S
ak ult
ĠØ ¶
Ġdisturb ed
Ġaut osomal
ä¼ ¤
ĠEx change
äºº æ°ĳ
ĠB ew
os idase
èª į
Ar g
Ġapproach ing
Ġjudg ments
Ġprophyl actic
iss ible
Ġempt y
íķĺ ì§Ģ
Ġin icial
Ġutiliz ado
Ġreson ances
åŁİ å¸Ĥ
Ġcou pl
Ġê± °
ac qu
ÙĪÙĨ Ùĩ
Ġanal isa
ell i
Ġsh ot
Ġbes chr
angk at
ĠS CI
Ġconduc tor
Ġaprendiz aje
itt el
ĠLou is
ĠNor way
Ġcur so
Ġenfermed ad
Ġer st
Ġscal ability
ach lor
id is
Ġsurround ed
Ġsal mon
æ¦ Ĥ
ä¿ĥ è¿Ľ
Ġthor ac
hep atic
ä¾ ¿
Ġstabil ize
Ġpass enger
Ġlig ation
Ġb its
Ġsim ult
ĠCh icago
ond ers
Ġterm asuk
ĠAr beits
ĠCO D
raz ole
Ġgalax y
i ances
Ġf el
uv o
ER V
DO I
ococ ci
h ari
ĠN ursing
ĠÂµ m
ate urs
ic us
ĠT D
ĠEth iop
til led
Ġr ic
Ġp eren
ĠK ep
ine tic
ĠO P
Ġstor ing
Ġste ad
è Ń
Ġlinear ity
Ġhigh way
Ø¬ Ø§Ùħ
ĠT un
De velop
Ġapprec iation
ĠB ibli
Ġdex amethasone
Ġtem pl
O l
Ġdr astically
Al ong
ah aman
Ġkas us
Ġbar ley
Ġto wer
ĠAgricult ural
å®ŀ æĸ½
éħ ¶
Ã§ a
u ents
amin ergic
ĠB MD
Ġpass es
à¸ ¨
Ġflavon oids
ĠSur abaya
Ġsc anner
Ġdiscom fort
rop ortion
âĢ °
Ġun m
Ġk i
Ġvisc oelastic
Ġdispers ive
ï½ ħ
Ġutiliz ados
Ġsig lo
à¸Ĥ à¸Ńà¸ĩ
ot emporal
Ġgrow s
Ġsik ap
Ö Ĥ
Ġë ĳĲ
Ġpost ure
Ġlab elled
Ġtar af
Ġhydrochlor ide
ĠF unction
ĠRah men
at ri
@ @
Ġstep wise
Ġsput tering
Ġelic it
ĠSa udi
ĠR I
ila ian
c ause
Ġveget ative
m ica
Ġall a
Ġviscer al
amb da
Ġtroub les
R isk
Ġair borne
Ġkinem atics
V P
H DL
ove ment
Ġhyp oxic
ens ation
Ch ina
Ġplan et
an ning
Ġsol ute
The oretical
ØŃ Ø«
Ġnovel s
ĠH op
Ġcell ules
Ġl ose
ĠP enn
ĠÐ¿ ÐµÑĢ
Ġìł Ħì
uc a
ĠÛĮ Ú©
Ġavali ar
Ġsplic ing
Ġhe ights
ĠK ir
Ġsim ul
ĠT en
Ġc inc
ë ĺĲíķľ
Ġum bilical
Ġf ot
Ġann ular
diff usion
Ġg or
h ave
res ion
Ġ }
N B
éĺ ¶
ac ious
z ahl
èĤ ¿
enter ic
Ġpersist ed
ĠM HC
ĠG overn
é Ĩ
Ġrelativ istic
ure tic
ĠS CC
Ġalong side
Ġ1 13
at he
æ Ĳ
Ġal umn
Ġt orn
it ures
com mer
ï¼ į
åĽł ç´ł
R ob
Ġsupple ments
Ġmarc o
Ġë°ľ ìĥĿ
Stand ard
ÙĦ Ùĩ
ĠP TSD
ĠL P
Ġet aient
Ġmet ropolitan
Ġmyel oma
y k
Ġch aque
Ġredis tribution
Ã¨ s
lu k
Ġpos itivity
ëª ©
ond itions
ÑĨÑĸ Ð¹
Ġor n
Ġ( âĪ¼
Ġpol a
äºº çļĦ
v s
Ġa head
Ġcl ad
v ity
åª Ĵ
Comp uter
Ġa fore
Ġshield ing
Ġdrop ped
10 8
s hip
Ġcol ors
Ġso vereign
ur gery
commer ce
ck nowled
Ġbott len
Ġ19 30
in ities
ah kan
ĠP ART
Ġmer it
Ġunivers it
Ġz ug
Ġneg ara
Ġapp raisal
Ġpresent ly
ĠComm ons
æĭ ©
Ġove restim
Ġcompet e
Ġoh ne
Ġnucle otides
Ġambient al
cons uming
Ġall ergy
ĠFP GA
Ĩ ¡
Ġ197 1
AR CH
f eld
Ġro ds
ch ro
pr ises
ãĤ ³
Ġrank ed
r av
Ġclinic ian
W R
Ġê· ¼
Ġcomprehen sively
ph ysical
Ġcarb ide
å ¨
ĠIm pro
Ġmiss ed
æī ĵ
ij i
F lu
æµ ĵ
Ġadjust ments
Ġstr ata
Ġhypot hes
emb re
if ted
Ġb im
ĠÐ´ Ð°Ð½
S ie
Ġrev ascular
Ga As
im pro
Ġkhusus nya
æķ ħ
ĠÐ¿ ÑĸÐ´
Ġpar s
Ġam ines
aryn x
ĠB ig
ĠBo ok
ath yroid
Ð¿ ÑĢÐ¸
in ating
ĠY ogyakarta
Ġwebs ites
ìľ¼ë¡ľ ìį¨
Ġhemisp here
ĠB an
Ġreson ator
Ġ1 14
Ġappe al
ĠíĻľ ìļ©
ĠLe e
Ġlif ting
Ġcitiz en
Ġnitr ide
P ATI
Ġv end
Ġpharm acy
Ġinflu x
ka it
Ġrh in
yptoph an
Ġìĺ ¤
if ers
Ġmon omers
Ġrearrang ement
Ġtors ion
Ġch ips
Ġcer tification
ut ations
ĠHy per
Ġath le
ĠC ulture
Ġreinfor cing
il in
ç»¼ åĲĪ
ĠN ASA
ast ing
ĠÐ¿Ðµ ÑĢÐµ
o lem
Ġsystem es
Ġp lex
Ġíķľ êµŃ
ord inary
çĽ® æłĩ
Ġgen u
ĠM ore
Ġre k
ut t
Ġselen ium
ph ys
Ġutil isation
ĠmRNA s
Ã °
ĠS K
Ġphenomen ological
eng ers
int ro
Ġcomprom ised
t ail
Ġdrawback s
Ġë ĺĲ
lipid emia
Ġconstit ue
Ġpractition er
Ġt all
èĤ º
ĠVir gin
ãĤ ¸
ä¸Ĭ çļĦ
amm onium
Ġ( "
o a
ĠM emb
Ġgraph ics
Ġsho ots
EL ISA
Ġsoci ology
Ġjo in
ĠLe bens
Ġbig gest
ĠN ormal
Ġpip es
d f
Ġpr atica
uch t
í ĭ
Ġter l
Ġg ang
ĠE uler
inc iples
ĠëĮĢ íķ´
ĠGe org
Ġbo iling
æ ļ
y ph
Ġf ading
Ġorgan izing
Ġinter rog
Ġenlarg ement
Ġundergo es
EN D
SI T
or it
Ġnewborn s
Ġperovsk ite
ĠØ§ÙĦ Ø¥
ik ation
Ġprocess os
Ġod or
Last ly
ĠÃ ľ
Ġbe ef
ĠE B
Ġp ill
Ġíĸ ¥
Ġimp lying
Ġis cha
Ġcan cell
ix ing
V R
ie es
on yl
åį ´
Ġfilos of
è¡¨ çİ°
Ġpresent es
um ann
Ġprest asi
Ġper ox
ĠT s
ê³Ħ ë¥¼
ĠM uh
åĪ¶ åº¦
ĠP erm
Ġber p
ĠM CF
Ġdis tr
ĠB erg
ãĥ ģ
Ġn s
Ġconn ective
Ġus ia
Ġter j
Ùħ Ø§ÙĨ
Ġincl ined
fr ame
ÐµÐ½Ð¸ Ð¸
For am
Ġpret ende
ÑĤ Ð¾Ð¼
ĠG SH
at able
itzer land
imer ic
W L
A UC
lor a
ìĿ´ ë¥¼
Ġexpon entially
ãĥ ł
Ġcere visiae
ĠO ld
lin ic
f u
c as
Ġcomp iled
ĠM aterial
Con f
ĠPortug ues
Ġte lem
ĠA BC
Ġeukary otic
Ġepid ural
Elec tro
ograph ies
Ġappear ing
Ġphot osynthesis
Ġnic he
Ġcomputer ized
Ġmagnet o
ĠIm age
F O
P ublic
Ġpurs uit
äº§ çĶŁ
ilit as
Ġanastom osis
Ġcommod ity
Ġsep tic
Ġansw ered
00 9
k appa
Ġgr ids
Ġcarc ass
reng th
opath ologic
ĠH IF
Ġspec ify
ire less
Numer ous
Ġpas te
s ignificant
Ġelabor ated
k n
ĠS ac
ĠD ER
pos es
ĠMach ine
Ġimmigr ation
Ġber beda
Ġun con
acycl ine
aria h
ä¸į æĸŃ
T echn
T a
c ens
Ø¬ ÙĪØ¯
Ġativ idade
en yl
ĠK im
Ġrespect o
ç¬ Ķ
aj u
ĠAnt arc
Ġpo z
Ġenc u
ÑģÐ¿ Ðµ
Ġimp regn
Ġreal izing
ang un
Ġbab ies
Ġins ec
or h
10 7
G ene
ĠI BD
S tructural
Ġalcoh ols
Ġeff lux
Ġcap ita
Ġval ley
Ġo tro
umines cent
Ġrem ed
ik ir
Ġoverw hel
ĠPortug al
Ġsil icate
à¹Ģ à¸£à¸
ãĤ Ħ
äº ļ
al in
Ġupd ating
ç± ³
ĠBand ung
Ġdo it
til is
or ubicin
Ġm art
æį Ł
w art
ĥ Ī
Ġbreak through
Ġt ilt
ĠCH D
Ġto pl
Ġph age
W C
Ġcereb ro
Ġmem enuhi
ic ional
Ġcomp re
jec tif
ĠU t
Ġexp ed
le ep
p pm
ç» ľ
ĠI b
ĠF I
Ġsocied ade
Ġë¯¸ ì¹ĺëĬĶ
} (
Ġbub bles
19 93
EL D
ĠR he
ĠS u
Ġwet land
Ġchlor ine
Ġsug ars
ek ing
amp el
Ġcalor imetry
ĠA ud
Ġl actic
Ġac upuncture
Ġmot ors
se par
ad ministration
Ġrest or
Ġge ochemical
Ġattr action
pred ict
Ġfr ustr
Ġbrid ging
Ġc affe
Ġloc king
Ġp ace
Ñĩ ÐµÐ½Ð¸Ñı
Ġhot el
Ġis othermal
èĥ Į
Ġsil encing
Ġak tif
ĠR H
Ġr an
vel ength
Ġsam a
Ġmaxim a
Per formance
ĠA Î²
Ġav al
Ø¨ Ùĩ
aus es
Ġpember ian
å¤§ çļĦ
Ġdu as
Ġparent ing
ĠG n
ophosph ate
ï¼ī ãĢĤ
ìĭľí Ĥ¤
Ġpestic ide
ĠAlgorith m
id one
Ġinduc tive
Ġpar c
Ġderm atitis
identif ied
ex change
Ġê²ĥ ìĿ´
ê· ¹
Ġsocied ad
æ¸ ¸
bir th
T F
Ġsur rogate
åľ° åĮº
ĠP N
ĠM U
h ub
Ġsusp ensions
Î £
f ont
Ġa ids
Ġre ass
Ġfr uct
Ġde re
aph th
Ġcar p
f oc
ĠCo ast
FT IR
avail able
Ġr idge
ÑĨ ÐµÐ½
ÙĦÛĮ ÙĦ
pl ants
ins ula
Ġmac ular
Ġh ams
ap atan
Ġaccept or
Ġg ynec
Ġmon keys
Ð¾ÐºÐ° Ð·Ð°
Ġd av
Ġsequ entially
Ġe cl
Ġbir ths
ĠW a
Ġla unch
ä»ĸ ä»¬
Ġpeng g
ĠRay leigh
ĠF ar
/ âĪĴ
ĠPh ilosoph
] :
m echanical
oderm a
Ġcomp artments
êµĲ ìľ¡
Ġcal ves
Ã© g
Ġë³ µ
her in
ĠìĻ ¸
ok ines
Ġjour ney
w ort
ep tid
ĠO C
Appro ximately
Ġil isk
ĠOn line
å¤ ī
ĠEduc acao
Ġafore mentioned
ĠG ol
Ġprofes ional
ell ik
Ġbenef ici
l anguage
ĠÃ©t Ã©
ek si
V III
Ġ12 8
produc ts
Ġassess es
Ġredund ant
uv ate
mu ir
In stit
ĠOb jective
ĠArab idopsis
Ġcor ps
Ġt ort
i eme
ĠSup er
Ġarg on
Ġcommit tees
Ġstack ing
Ġwas h
Ī ¬
Ġfas c
Ġantioxid ants
r t
de velopment
L ik
Ġto k
ĠUp per
åĨ Ľ
Ġhypothe tical
Ġpe oples
E valuation
G raph
Ġh it
Ġtr is
ĠVol ume
Ġang ina
el lement
ĠJ es
Ġout s
Ġsilic one
Ġmes es
n ak
Ġrep ar
ro ve
Ġrealiz adas
Ġcl ustered
Ġresusc itation
Ġdec lar
Ġexpon ent
Ġter ap
cent er
he ren
Ġacknowled ged
ĠW all
ex perimental
y te
Ġdiscrep ancies
ì ĥī
ä¸Ģ æŃ¥
Ġt esis
ĠQ oS
er ia
ĠAb s
ĠSing apore
Ġcounter part
Ġinc idents
ĠChar les
Ġmed idas
Ġmicrosp heres
Ġden omin
ĠAgricult ure
ĠD PP
Ġpurch asing
Ġtraff icking
Ġmod if
ab atic
Ġreinfor ce
Ġleg s
Ġanalog s
L earning
Ġemerg es
ĠDO I
Ġoptim isation
è½ ½
ul ent
Ġpolic ym
Ġeryth rocyte
M ay
â ĳ
Ġac ous
Ġoverlo oked
ĠC at
ir s
Ġk V
ãĤĪ ãģ³
Ġcontrast ing
spec ial
ĠMAP K
im o
b ank
ij akan
Ġamb iguous
Ġì¦Ŀ ê°Ģ
ĠM ol
Ġw are
Ġacceler ator
å¾Ĺ åĪ°
per fusion
Ġold ugu
Ġvis ited
Ġad ecu
Ġb orders
uc hen
F low
Ġte ori
Ġmol yb
ĠR am
Ġmal nutrition
Ġweight ing
Ġser vers
duc tive
ĠLy apunov
Ġan ces
aph thal
in ous
c ytes
ĠD own
å£ «
ĠJose ph
ĠT ax
so il
Ġdet erg
ĠCF D
Ġíĸ ī
Z T
ĠPlan ning
Ġ1 16
Ġ19 68
if ts
Ġleg acy
Ġt utor
Ġy as
ĠM ens
Ġmosa ic
7 00
Ġsec ular
sk y
Ġquel ques
Ġ0 1
Ġíļ Į
romy ces
ĠÑģ Ð°
ĠM agn
L M
Ġ( +
ĠJ ahr
ater n
ET X
ĠPend idikan
0 25
ĠId entif
ump s
Ġcommunic ating
ur ning
Ġal ive
ÙĬ ÙĦ
ak aan
ìĺ ¤
Ġrem edi
Ġdisadvant age
odg kin
ĠM N
Ġincontin ence
ĠU ber
Ġcohes ion
S on
Ġbuild s
A verage
ondition ing
Ġat u
ç¨ĭ åº¦
Ġexpect ancy
benz ene
Ġd abei
ĠC ontin
ĠC AT
Sur face
Ġde be
Ġartic ular
å® ³
C NTs
Ġfundament ally
Ġdeform ed
ec onom
Ġmuscul oskeletal
sy nt
ĠRe volution
ãģ¨ ãģĹãģ¦
Me as
Ġmanufacture r
Ġdegen erative
ly s
Ġtr if
Â° .
Ġsh ale
Ġpes o
D eterm
ang ian
ĠG TP
Ġsatisf ies
Ġlap angan
as ome
Ġtransform s
Ġca ution
Ġh acia
j an
Ġneoplas tic
Ġd ance
Ġadv ancing
Ġdism utase
ATP ase
Ġalb icans
Ġcos metic
ãĤ «
Ġdehydr ation
âĢ ĭ
ĠDirec tor
Ġ1 18
Ġeff ets
é» Ħ
Ġcontrib utors
ĠW nt
Ġvisual ized
Ġfl ank
Ġpharmacokine tics
Ġintra ocular
è®¤ ä¸º
Ġpo ols
ĠÑģ Ð¾ÑģÑĤ
ĠCom plex
ĠVal ue
Ð¾Ñģ Ñĥ
Ġchick ens
a ide
Ġn ested
Ġl av
Cl in
Ġnever theless
Ġinhal ation
Ġadoles cence
ĠÐ² ÑĸÐ´
ĠI raq
Ġhistor ians
B re
Ġnanos cale
ab ol
Comb ined
ĠF ab
è´ ¹
Ġ15 00
Ġcompet ent
Ġf ission
erc ise
Ġtest es
Æ °
Ġg az
am idal
vari ant
educ ation
erenti ated
al id
Ġnan or
uest as
Ġsol der
ĠAs pergillus
Ġcompet ency
Ġcomp ose
ÑĦ Ðµ
Ġmed ida
Ġnouvel le
P RO
ĠK l
ĠW hen
Pro v
Ġfem ur
Ġì¤ĳ ìļĶ
Ġì ¢ħ
Ġglyc ogen
ly l
Ġrec tif
à¸ ĺ
Ġop tically
Ġfol k
fl oxacin
U RES
Ġcommunic ative
w hen
Ġcertain s
Ġleuk ocytes
==== ====
W O
Ġparticul iere
Ġl onge
Ġtransf ection
Ġent hus
ĠM ak
rop ic
Ġop to
Ġmol ten
ĠM u
xim ab
ĠÑĦ Ð°
Ġsc atter
Ġcontinu ation
olog ische
Ġdec id
ĠSc ore
çī¹ çĤ¹
Ġabord agem
Ġep ist
em erg
ĠM ental
Ġent end
tr ig
Ġenthus ias
neh men
cul o
Ġparticip atory
qu ilibrium
Ð¾Ñģ ÑģÐ¸
n ent
Ġre plicated
åĲ« éĩı
Ġmal icious
Ġdown ward
à¸Ľ à¸£à¸°
es ent
Ġmulti level
Ġimmobil ization
ar as
Ġdam it
c s
Â» .
ï Ģ
Ġnanow ires
Îµ Î¹
ĠCar ib
è ĸ
å¥½ çļĦ
ĠÐ°Ð½Ð° Ð»Ð¸
Ġcorticoster oids
Ġa wal
Prob lem
Ġlact ation
Ġadsorb ent
Ġmal formations
Ġsi RNA
Ġke ber
Ġjo ined
åį Ĭ
AL T
ĠI NF
aut y
Ð¾Ð»Ð¾Ð³ Ð¸ÑĩÐµÑģÐº
b au
Ġneg lect
Ġprodu z
ä½ľ åĵģ
] ),
e tit
ĠCom par
ĠSM K
Ġslee ve
Ġef ecto
Ġmechan ically
Ġform ats
Intern ational
Ġmod ific
Ġfung si
Ð± Ð¾ÑĤ
Ġsurg ically
n in
del ta
Ġend urance
ret aceous
nc ias
Ġpun to
ission ais
Ġapp oint
Mod ern
le ading
Ġline ages
Ġtem pat
k yl
12 3
Ä± n
Ġcult urally
Ġ ips
ĠD er
ë©´ ìĦľ
ĠØ§ÙĦ ØŃ
ĠGre ece
ĠR as
Ġdispl aced
Ġophthal m
k ap
Ġillness es
Ġcontin ent
Ġfor age
ĠTrans form
Ġaccept ability
Un til
c ulture
iss ue
Ġpeng ambilan
ĠGe V
Ġiniti ating
on ary
ol aan
Ġsh opping
W hy
19 92
Ġsw imming
Ġalgun as
ĠAc tion
Ġcap tures
ĠK re
ĠS b
Ġtung sten
Ġch im
Ġìł ĳ
eg al
ĠIndustr y
Ġal gebras
Ġlo an
ĠF ried
Ġmed ieval
Ġparas it
a qu
ĠK h
Ġrol ler
ĠÙĤ Ø±Ø§Ø±
Ġberj umlah
Pe ople
ĠS ynt
cknowled g
Ġsy ll
Ġk ajian
Ġmulti ples
Ġfat ores
çī¹ å¾ģ
Ġê°ľ ë°ľ
d x
Ġamb os
ĠDeut sch
Ġorganis asi
ĠW ood
Ġactiv idades
tit utional
bild ung
Ġch air
æī ¿
Ġconject ure
ĠDe b
Ġgu ard
Ġbi odies
Ġter t
Ġthrombo emb
Ġacet one
bi ased
Ġcircum f
pro duction
Ġneph ropathy
Ġk J
ãĥ ī
æķ £
ĠBud d
ym ethyl
Ġvirt ue
ĠM IM
Ġtrim ester
Ġc age
Ġtes tis
ser ver
Ġso ul
Ġass ure
Ġconver ters
Ø ¤
ĠR ech
tr ained
ĠGu ang
Ġintram olecular
Ġdirect ors
ÑĪ Ðµ
Ġdiff ic
R adi
og on
Ġex pose
è Ĺ
et an
Ġvul gar
Ġmet ac
ĠSem arang
if ting
Ġect opic
Ġcamb ios
ĠRo ad
Ġíıī ê°Ģ
Ġredund ancy
ere bral
Ġcompren ant
Ġsperm ato
Ġatheros clerotic
earc hers
Ġsoci odem
Ġk ars
ãģĬ ãĤĪãģ³
math cal
Ġelabor ate
ens emble
Ġlys ine
Ġp on
ĠÚ¯ Ø±Ùģ
ach ine
Ġpenal ty
Ġbeh ave
Ġsocial e
ĠL I
etz ung
Ġasympt o
retro viral
Ġreal ise
Ġb uc
âĢĿ ãĢĤ
iv os
æĢ ¥
Ġmicrob iological
Ġcar ing
Ġreg istry
Ġtrigg ers
or ax
ëıĦ ë¥¼
Det ailed
N M
ĠOnt ario
Ġspl en
ĠGr ande
Ġinterfer ing
ies en
Ġchamb ers
ĠCh ange
h aps
Ġperfect ly
Ġtriglycer ide
ĠChem istry
ĠM AN
Ġg ob
aren ts
ĠS ep
rog ens
ÑģÑĤ Ð°Ð²
Ġdik etahui
Ġam put
O leh
resh old
CO VID
Ġd ream
Ġsolub il
Ġtip os
ĠÑĢÐµ Ð·ÑĥÐ»ÑĮÑĤÐ°
ok us
O per
ĠV R
Ġrelig ios
opolys accharide
z as
Ġnecess idade
ĠP ediatric
Ġpar ag
ĠØ¨ ÛĮÙĨ
Ġpromp ted
ĠÎ ©
Re view
ĠCM V
ĠSM Es
Ġaberr ant
Ġbig ger
H ier
ÑģÐº Ð¾Ð³Ð¾
esthe tized
Ġpost menopausal
Ġvis itors
L ittle
Ġqu o
Ġjus qu
ĠÐ¿ÑĢ Ð¾Ð±
Ġvalu ation
Ġabsorb ing
Ġdestr uctive
Ġst ator
Method ology
ĠSup reme
h ous
Ġsymmet rical
Sel ain
Ġexperiment ation
Ġsix th
Ð½Ñĭ Ð¼Ð¸
ABSTRA K
Ġuniqu ely
st rom
alam an
ah n
L ess
Ġprescrib ing
Ġlo os
ĠColumb ia
Ġcontr actions
ĠÙĨ ÙĪ
Ġb ark
Ġê· ľ
p arent
ort al
anc o
ĠS elec
Ġcur s
Ġpos ible
b ell
Ġpurs ue
Ġdeform ity
ÐºÑĤ Ñĥ
Ġplan etary
Ġw inding
Ġadapt ations
Ġtermin ology
De velopment
Ġout re
epend ant
n og
ĠW ales
hypert ensive
in el
Ġpl ut
Ġtrigger ing
ĠPr imary
ĠV eter
è¯¾ åłĤ
Ġpr atiques
Ġmotiv ations
ĠN an
g ood
Ġ2 10
ab ras
Ġfra ud
Ġdet achment
ĠS ir
Ġcab o
åıĳå±ķ çļĦ
m ine
ĠD on
Ġdur able
Ġrhe ological
Ġuniqu eness
Ġcas ual
ĠStrept ococcus
Ġle p
Ġv inyl
Ġde emed
Ġacetyl choline
Ext ensive
Anal yses
az u
ac oustic
Ġim id
Ġet ant
L INE
pe ak
Ġex clude
Ġdef ence
Ġgr ado
Ġob jek
Ġtachyc ardia
ei ro
Ġtolu ene
Ġso zial
Õ¸ ÖĤ
Ġamb ulatory
Ġprof its
Ġdetermin ations
Ġverschied enen
ĠJ ul
éĢī æĭ©
ĠFin land
Ġphyt oplankton
ros es
Ġsched ules
ver te
Med ical
iaz ole
Ġ ÑĩÐµ
Ġquantif ying
on ance
Ġpolys accharide
mat rix
ĠHe ad
id ene
En viron
Ġknock out
Ġìļ ´
icient e
.< <
Ġdeple ted
Ġp uncture
è¿Ļ äºĽ
åģ¥ åº·
Compar ing
Ġy er
Ġver tically
Ġin efficient
Ġencu entr
S equ
ol ium
op ause
gen erated
Ġcereb rospinal
ĠO k
Ġcatal yzed
ĠJohn son
ff in
Ġanaliz a
Ġsend iri
ä¸Ģ å®ļ
Ġor den
Ġtan aman
Ġpre test
æ² ³
Ġl ado
Ġglob e
è® ¸
: "
Ġin ert
eti tive
Ġrad ion
Ġtrans national
Ġdib andingkan
catal yzed
ĠSw itzerland
ĠMathem atics
Ġiner tia
Ġmicros tructures
Ġvalu ed
ĠJ ean
Ġman ajemen
r ag
Ġcompos itional
Ġonc ology
ĠP LA
Ġíĺķ ìĦ±
Ġpals y
Ġf oci
Ġcor al
Ġ {\
u Å¾
æł¹ æį®
ĠL inear
oph yl
Ġwater mark
en em
Ġviol ation
Ġcomp action
CM V
Ġdel ib
+ ]
Ġcaracter istiques
p ire
ene z
il o
IO NAL
Ġop t
Ġmedi ast
Sh ort
ĠJ ane
Ġsupplement ary
ar ic
Ð¼ Ð¾
Ġap ort
d ens
âĢ º
Ġtour ists
tr act
Ġback sc
Ġdecl ines
Ġferro electric
r ho
ĠEcon omics
Ġos motic
Ġdisappear ance
Ex pl
Ġbiodies el
Ġacceler ating
Ġtriglycer ides
t able
Ġow ner
row s
ol is
l ate
W E
Ġcont empl
Ġpar iet
è® ²
Ġaggreg ated
Ġacadem ics
ÙĦ Ø§Ùħ
ĠT ib
Ġpert umbuhan
ãģ ©
Ø± ÙĬ
Ġintu itive
ĠI CP
Ġcatal ase
Ġiner tial
Ġty ph
chro tron
Pro tein
og s
Ġad i
å° ¿
æľº åĪ¶
Ġcarcin ogenesis
id ia
Ġdilat ation
Ġbo ards
Ġavali acao
Ġemphas izing
Ġcontracep tive
Ġdro it
AN G
ĠM echan
Ġ _
ser um
so u
Ġad mit
it ura
çİ ĭ
Ġis omers
Ġinhabit ants
Ð Ĺ
Ġnam un
ĠHonor aria
ab ah
Ġ13 5
cont act
ĠH art
ist ine
c ult
Ġflav or
Ġo st
Ġaqu ifer
ger ies
u en
inform atics
form in
Ġtrunc ated
Ġconstruc ao
anjut nya
ich ten
Ð¿ Ðµ
Ġreg ist
ĠJah re
he ld
Ġtax es
um i
Ġexpend itures
Ġloc omo
Ġstimul ates
en ol
ç»ĵæŀľ è¡¨æĺİ
Ġbuck ling
EN CI
Ġw ieder
t echn
Ġmemb antu
Ġeff usion
Ġv ue
Ġe rec
Ġr im
Ġimp ose
ĠU NA
Ġco erc
ĠTherap ie
Ġpres ident
ĠP ale
ind ividual
Ġneg atif
Ġche ap
Ġperc enti
our cing
reat ing
M c
ĠMin ister
is se
ĠB Y
Ġmo le
ip ot
Ġscal ed
Ġcomment ary
T op
Ġdev ast
ĠH I
epit helial
c ritical
Ġattemp ting
other mic
Ġphysi ologic
ç ¶
Ġmorph ologies
Ġrig idity
Ġsp aw
ace a
ì¸ µ
ìĿ´ íĦ°
Ġpresent an
ore al
ë Ĥ
arc he
Ġattend ance
Ġp uzz
Ġd aha
F unctional
opro teins
ĠKr ank
itiv a
adren ergic
Ġhaem orrh
ĠG F
ĠA CC
Ġfet uses
Ġsiec le
ĠÐ½Ð° Ñĥ
Ġor ch
Ġlip ase
Ġprof und
ĠPh ot
æľ Ľ
Ġoc ta
Ġcatch ment
Ġt we
erv ing
ualit ative
Ġacc retion
Ġper an
Ġsusp icion
S yn
Ġal ien
M agnetic
Ġjun ior
Ġcalc ification
Ġt ers
ĠK a
Ġshort est
ĠJ awa
ãĥ ĩ
Ġn ose
Ùħ Ø§
Ġsk illed
ĠL ist
Ġthickness es
k ar
ĠRes ources
ĠD uring
Ġson uc
Ġlight weight
it ations
Ġinter cal
) ].
Ġconj unc
Ġdiscontin uous
Ġrel aciones
Ġgraph ic
Ġet t
lect omy
Tw elve
Ġdr ill
ĠDES IGN
tr ap
Ġphr ase
ĠCon vention
A uf
å® Ł
ç¾İ åĽ½
Ġhered itary
Ġcoexist ence
Ġpollut ant
Ġnouvel les
ĠM ap
Ġpublic o
ion er
ĠÐ¼ÐµÑĤ Ð¾Ð´
ĠTherap y
ĠV P
ac ute
C NT
æī ¹
Ġtransl ate
min ute
Ġpresum ed
m M
æ´» æĢ§
ĠM AR
íķĺ ëĭ¤
ìķ ½
w and
Ġmedi ates
Ġcl onal
Ġh inder
11 5
Ø§ÙĨ Ø´
ut aneous
R h
ĠP CA
19 91
Ġread iness
Ġpred nis
Ġs ight
ĠCarol ina
ot opic
ĠPP AR
ëĿ¼ ëĬĶ
le p
13 3
oc aine
opol ymer
Ġkep utusan
c imento
op us
Ġpoly crystalline
Ġentr ance
Ġmultic enter
ant han
Ġposs ivel
Ġsynt actic
ĠGa N
Ġcr imes
Ġachie vable
ĠKal man
Ġnivel es
Ġap os
orel asi
Ġconver gent
Ġdomain e
ad al
Ġsol itary
ogr av
Ġprof issionais
Ġd us
kin ase
it ative
ĠëĶ° ë¥¸
Ġmonol ith
prof it
cha romyces
Ġgal act
ET s
Ġsuppl iers
t DNA
Ġdo x
Ġkomp et
Ġd odec
iss ional
Ġkep uasan
zym es
Ġfis hes
01 5
oc ity
z k
Ġ3 60
ĠSec ret
em ission
Ġpropag ating
o vers
ib l
Ġantip sycho
Ġm ene
ĠEx perimental
è¾ ĵ
Ġfollic les
Ġan hydr
Ġneurop rot
ifer ous
de oxy
Ġat ual
D an
Ġspor adic
ĠJ un
et ers
c io
Ġmen entukan
Ġcouns el
Ġconcep tions
group s
Ġsl ide
ocard ial
Ġins besondere
Ġburn out
Ġke hid
Ġin ici
Ġexchang es
Ġex terior
Ġsh ore
Ġker at
Ġp erencanaan
Ġdisp roportion
ĠØ§Ø ¬
hist oire
ĠSm art
yn asty
th rop
quin one
M en
é ī
Ġci entif
DS C
Ġdiferenc ias
Ġproceed ings
Ġarch ives
Ġdesarrol l
d iction
Ġsens ible
y er
ĠS NR
am aan
Ġcitr ate
Ġrecommend s
Ġneces idad
çł ´
Ġ1 19
Ġis let
è§£ åĨ³
Ġintraper itoneal
Ġprem ium
i u
Ġque ue
Hy per
artic les
ç ¹
Ġauto antib
Ġw edge
Ġstream ing
ic ep
b our
Ġimmunos orbent
ĠLiter ature
Ġanti fer
ä¹ĭ ä¸Ģ
ob acht
Ġk re
ĠI PA
Ġprerequ isite
Ġgl ial
Ġsuppress ing
n elles
ach st
ues tra
Ġmemper oleh
Ġpratic as
Ġdom inate
Ġmat ches
Ġlok al
Ġdis abled
éĺ Ł
ê¹ Į
ĠG ly
Ġjustif ication
Ġpromo ters
Ġthromb in
at omic
Ä «
Ġingred ient
à¸ ĸ
Ġrecycl ed
Ġinter molecular
Ġwr ist
Ġaff airs
Ġhom ozygous
ot roph
Ġisot opes
Depend ing
Ġ Ð¾Ð´
Ġmicros tructural
osex ual
ad min
íĸ Ī
st ress
truct uring
Ġging ival
Ġunc over
ĠE GF
ãģŁ ãĤģ
Ġd ocking
Ġreper to
Ġregen erative
orient ation
Ġest an
ĠÐ¾Ñģ Ð¾Ð±
Ġdisl ocations
ĠØ¯ Ø§Ø¯
æĪ ·
og ue
ĠIm aging
Ġmicro fluid
Ġmenye babkan
Ġresol ving
ä¹ ¡
Ġf ing
ter ious
äº Ī
Ġsenes cence
Ùħ ÙĨ
Ġv oting
Ġtip s
Ġs org
Ġcool ed
Ø§Ø¯ ÛĮ
F actors
ĺ ë¦¬
Ġeduc ated
iss ent
B eh
Ġins ert
Ġac cep
Ġas cribed
Ġd raft
ure auc
ne k
c d
ĠK ant
tain ment
rop ylene
Ġconf ocal
Ø§ÙĨ Ø¯
Ġbers ifat
Ġre lying
Ġlarg o
Ġstig ma
Ġv aria
agr angian
ÙĤÛĮ ÙĤ
Ġa trib
è¿ ľ
A us
lig i
èĦ Ĥ
Ġsem inal
ĠCl in
Ġsharp ly
åĽł æŃ¤
se ed
Ġang g
ĠB iology
Ġcarbohydr ates
Ġges ch
**************** ****************
ĠF S
ĠW ang
Ġexplos ive
v iv
ĠCl inic
Ġb uku
Ġson o
ion ate
ost atin
Ġsp oken
ãģ ¿
em an
d engan
Ġd war
orig inal
ëĵ¤ ìĿĢ
ì ¸¡
ograf ts
ĠR B
Ġmenunj ukan
Ġbi ologic
Ġax ons
st ock
Ġad versely
iqu ement
è¿ĩç¨ĭ ä¸Ń
ĠP es
åº ķ
Ġj ap
Ġpar alle
Sur gical
Ġactu ators
m akers
Ġc ensus
ĠB eck
with out
Ġcom ercial
Ð¶ ÐµÐ½
Ġfulf illed
Ġw k
çĻ ¾
Ġlect ures
ĠPeriod icals
Ex isting
ob ia
Ġseem ingly
SI C
Ġpr ue
Ġfa ecal
ST UDY
ĠO D
restric ted
ĠC omb
ab is
Ġyak ni
Ġk ul
Ġan esthetic
Ġstr ips
ĠH ill
atiz ed
RA F
ĠAD P
ĠT K
01 0
ĠEx p
tiv idad
Ġt ies
Ġa eti
ob ium
Ġf est
ĠkÃ¶n nen
ëħ Ĳ
uk e
Ġtrav aux
Ġd al
one ph
Ġbe im
Ġencoun ters
ĠM aria
Ġì² ´
ĠP red
ab i
L ES
ĠA NN
ĠIntegr ated
. âĢĻ
Ġglyc ine
ag ram
Ġperiod ically
eding ungen
Ġover coming
19 80
ï½ ī
Ġcalcul us
Ġac ted
Ġì§ ĳ
ĠGu id
L PS
Ġk omm
ĠÐ¸ÑģÐ¿ Ð¾Ð»ÑĮ
ĠN orm
Ñģ Ð¾Ð²
Compar isons
C AD
Ġune ven
Ġneurotrans mit
Ġbl ended
Ġsens ation
Ad apun
p ow
Ġcorrespond ed
Ġet udes
Ġdun ia
Ġadap ting
Ġnitr ite
ĠFace book
St arting
lec tively
Ġespecial mente
Ġse iner
[...]
