{
  "version": "1.0",
  "truncation": null,
  "padding": null,
  "added_tokens": [
    {
      "id": 0,
      "content": "<pad>",
      "single_word": false,
      "lstrip": false,
      "rstrip": false,
      "normalized": true,
      "special": true
    },
    {
      "id": 1,
      "content": "<unk>",
      "single_word": false,
      "lstrip": false,
      "rstrip": false,
      "normalized": true,
      "special": true
    },
    {
      "id": 2,
      "content": "<s>",
      "single_word": false,
      "lstrip": false,
      "rstrip": false,
      "normalized": true,
      "special": true
    },
    {
      "id": 3,
      "content": "</s>",
      "single_word": false,
      "lstrip": false,
      "rstrip": false,
      "normalized": true,
      "special": true
    },
    {
      "id": 4,
      "content": "<mask>",
      "single_word": false,
      "lstrip": true,
      "rstrip": false,
      "normalized": true,
      "special": true
    }
  ],
  "normalizer": null,
  "pre_tokenizer": {
    "type": "ByteLevel",
    "add_prefix_space": false,
    "trim_offsets": true,
    "use_regex": true
  },
  "post_processor": {
    "type": "RobertaProcessing",
    "sep": [
      "</s>",
      3
    ],
    "cls": [
      "<s>",
      2
    ],
    "trim_offsets": true,
    "add_prefix_space": false
  },
  "decoder": {
    "type": "ByteLevel",
    "add_prefix_space": true,
    "trim_offsets": true,
    "use_regex": true
  },
  "model": {
    "type": "BPE",
    "dropout": null,
    "unk_token": null,
    "continuing_subword_prefix": "",
    "end_of_word_suffix": "",
    "fuse_unk": false,
    "vocab": {
      "<pad>": 0,
      "<unk>": 1,
      "<s>": 2,
      "</s>": 3,
      "<mask>": 4,
      "!": 5,
      "\"": 6,
      "#": 7,
      "$": 8,
      "%": 9,
      "&": 10,
      "'": 11,
      "(": 12,
      ")": 13,
      "*": 14,
      "+": 15,
      ",": 16,
      "-": 17,
      ".": 18,
      "/": 19,
      "0": 20,
      "1": 21,
      "2": 22,
      "3": 23,
      "4": 24,
      "5": 25,
      "6": 26,
      "7": 27,
      "8": 28,
      "9": 29,
      ":": 30,
      ";": 31,
      "<": 32,
      "=": 33,
      ">": 34,
      "?": 35,
      "@": 36,
      "A": 37,
      "B": 38,
      "C": 39,
      "D": 40,
      "E": 41,
      "F": 42,
      "G": 43,
      "H": 44,
      "I": 45,
      "J": 46,
      "K": 47,
      "L": 48,
      "M": 49,
      "N": 50,
      "O": 51,
      "P": 52,
      "Q": 53,
      "R": 54,
      "S": 55,
      "T": 56,
      "U": 57,
      "V": 58,
      "W": 59,
      "X": 60,
      "Y": 61,
      "Z": 62,
      "[": 63,
      "\\": 64,
      "]": 65,
      "^": 66,
      "_": 67,
      "`": 68,
      "a": 69,
      "b": 70,
      "c": 71,
      "d": 72,
      "e": 73,
      "f": 74,
      "g": 75,
      "h": 76,
      "i": 77,
      "j": 78,
      "k": 79,
      "l": 80,
      "m": 81,
      "n": 82,
      "o": 83,
      "p": 84,
      "q": 85,
      "r": 86,
      "s": 87,
      "t": 88,
      "u": 89,
      "v": 90,
      "w": 91,
      "x": 92,
      "y": 93,
      "z": 94,
      "{": 95,
      "|": 96,
      "}": 97,
      "~": 98,
      "¡": 99,
      "¢": 100,
      "£": 101,
      "¤": 102,
      "¥": 103,
      "¦": 104,
      "§": 105,
      "¨": 106,
      "©": 107,
      "ª": 108,
      "«": 109,
      "¬": 110,
      "®": 111,
      "¯": 112,
      "°": 113,
      "±": 114,
      "²": 115,
      "³": 116,
      "´": 117,
      "µ": 118,
      "¶": 119,
      "·": 120,
      "¸": 121,
      "¹": 122,
      "º": 123,
      "»": 124,
      "¼": 125,
      "½": 126,
      "¾": 127,
      "¿": 128,
      "À": 129,
      "Á": 130,
      "Â": 131,
      "Ã": 132,
      "Ä": 133,
      "Å": 134,
      "Æ": 135,
      "Ç": 136,
      "È": 137,
      "É": 138,
      "Ê": 139,
      "Ë": 140,
      "Ì": 141,
      "Í": 142,
      "Î": 143,
      "Ï": 144,
      "Ð": 145,
      "Ñ": 146,
      "Ò": 147,
      "Ó": 148,
      "Ô": 149,
      "Õ": 150,
      "Ö": 151,
      "×": 152,
      "Ø": 153,
      "Ù": 154,
      "Ú": 155,
      "Û": 156,
      "Ü": 157,
      "Ý": 158,
      "Þ": 159,
      "ß": 160,
      "à": 161,
      "á": 162,
      "â": 163,
      "ã": 164,
      "ä": 165,
      "å": 166,
      "æ": 167,
      "ç": 168,
      "è": 169,
      "é": 170,
      "ê": 171,
      "ë": 172,
      "ì": 173,
      "í": 174,
      "î": 175,
      "ï": 176,
      "ð": 177,
      "ñ": 178,
      "ò": 179,
      "ó": 180,
      "ô": 181,
      "õ": 182,
      "ö": 183,
      "÷": 184,
      "ø": 185,
      "ù": 186,
      "ú": 187,
      "û": 188,
      "ü": 189,
      "ý": 190,
      "þ": 191,
      "ÿ": 192,
      "Ā": 193,
      "ā": 194,
      "Ă": 195,
      "ă": 196,
      "Ą": 197,
      "ą": 198,
      "Ć": 199,
      "ć": 200,
      "Ĉ": 201,
      "ĉ": 202,
      "Ċ": 203,
      "ċ": 204,
      "Č": 205,
      "č": 206,
      "Ď": 207,
      "ď": 208,
      "Đ": 209,
      "đ": 210,
      "Ē": 211,
      "ē": 212,
      "Ĕ": 213,
      "ĕ": 214,
      "Ė": 215,
      "ė": 216,
      "Ę": 217,
      "ę": 218,
      "Ě": 219,
      "ě": 220,
      "Ĝ": 221,
      "ĝ": 222,
      "Ğ": 223,
      "ğ": 224,
      "Ġ": 225,
      "ġ": 226,
      "Ģ": 227,
      "ģ": 228,
      "Ĥ": 229,
      "ĥ": 230,
      "Ħ": 231,
      "ħ": 232,
      "Ĩ": 233,
      "ĩ": 234,
      "Ī": 235,
      "ī": 236,
      "Ĭ": 237,
      "ĭ": 238,
      "Į": 239,
      "į": 240,
      "İ": 241,
      "ı": 242,
      "Ĳ": 243,
      "ĳ": 244,
      "Ĵ": 245,
      "ĵ": 246,
      "Ķ": 247,
      "ķ": 248,
      "ĸ": 249,
      "Ĺ": 250,
      "ĺ": 251,
      "Ļ": 252,
      "ļ": 253,
      "Ľ": 254,
      "ľ": 255,
      "Ŀ": 256,
      "ŀ": 257,
      "Ł": 258,
      "ł": 259,
      "Ń": 260,
      "Ġt": 261,
      "Ġa": 262,
      "in": 263,
      "on": 264,
      "he": 265,
      "re": 266,
      "ti": 267,
      "en": 268,
      "er": 269,
      "Ġs": 270,
      "Ġo": 271,
      "Ġthe": 272,
      "Ġc": 273,
      "Ġp": 274,
      "al": 275,
      "es": 276,
      "an": 277,
      "Ġd": 278,
      "ed": 279,
      "or": 280,
      "at": 281,
      "is": 282,
      "Ġof": 283,
      "Ġan": 284,
      "Ġin": 285,
      "Ġw": 286,
      "tion": 287,
      "Ġm": 288,
      "ro": 289,
      "it": 290,
      "Ġf": 291,
      "ar": 292,
      "ic": 293,
      "Ġand": 294,
      "as": 295,
      "Ġb": 296,
      "ing": 297,
      "ent": 298,
      "le": 299,
      "Ġe": 300,
      "Ġre": 301,
      "ation": 302,
      "Ġto": 303,
      "el": 304,
      "ec": 305,
      "ac": 306,
      "us": 307,
      "om": 308,
      "Ġl": 309,
      "et": 310,
      "ul": 311,
      "un": 312,
      "os": 313,
      "ur": 314,
      "ol": 315,
      "čĊ": 316,
      "Ġh": 317,
      "Ġth": 318,
      "Ġn": 319,
      "im": 320,
      "id": 321,
      "ve": 322,
      "Ġ(": 323,
      "il": 324,
      "Ġcon": 325,
      "tr": 326,
      "Ġg": 327,
      "Ġpro": 328,
      "Ġde": 329,
      "ig": 330,
      "Ġis": 331,
      "ce": 332,
      "am": 333,
      "Ġfor": 334,
      "ter": 335,
      "The": 336,
      "ith": 337,
      "ly": 338,
      "od": 339,
      "ere": 340,
      "uc": 341,
      "..": 342,
      "ut": 343,
      "Ġwith": 344,
      "em": 345,
      "res": 346,
      "tic": 347,
      "ad": 348,
      "Ġv": 349,
      "ow": 350,
      "Ġst": 351,
      "qu": 352,
      "ts": 353,
      "um": 354,
      "if": 355,
      "ot": 356,
      "Ġon": 357,
      "Ġas": 358,
      "ion": 359,
      "Ġcom": 360,
      "ity": 361,
      "ir": 362,
      "Ġex": 363,
      "ab": 364,
      "st": 365,
      "ag": 366,
      "Ġbe": 367,
      "ap": 368,
      "ati": 369,
      "ment": 370,
      "âĢ": 371,
      "Ġthat": 372,
      "oc": 373,
      "ud": 374,
      "ate": 375,
      "op": 376,
      "ver": 377,
      "Ġres": 378,
      "Ġr": 379,
      "Ġ1": 380,
      "og": 381,
      "ated": 382,
      "ain": 383,
      "ĠC": 384,
      "Ġal": 385,
      "ess": 386,
      "ure": 387,
      "Ġwas": 388,
      "Ġby": 389,
      "Ġare": 390,
      "pl": 391,
      "ĠS": 392,
      "Ġac": 393,
      "ant": 394,
      "ib": 395,
      "Ġun": 396,
      "her": 397,
      "up": 398,
      "ĠA": 399,
      "ay": 400,
      "ical": 401,
      "Ġen": 402,
      "rom": 403,
      "Ġus": 404,
      "Ġcomp": 405,
      "Ġwere": 406,
      "ch": 407,
      "vel": 408,
      "iz": 409,
      "se": 410,
      "Ġim": 411,
      "ff": 412,
      "ĠP": 413,
      "per": 414,
      "Ġ2": 415,
      "Ġch": 416,
      "Ġor": 417,
      "Ġdis": 418,
      "....": 419,
      "Ġtr": 420,
      "th": 421,
      "ers": 422,
      "est": 423,
      "Ġat": 424,
      "ine": 425,
      "Ġse": 426,
      "and": 427,
      "Ġwh": 428,
      "ial": 429,
      "ents": 430,
      "ang": 431,
      "In": 432,
      "ect": 433,
      "ĠM": 434,
      "orm": 435,
      "ell": 436,
      "ies": 437,
      "ore": 438,
      "ations": 439,
      "Ġk": 440,
      "ak": 441,
      "duc": 442,
      "Ġle": 443,
      "ort": 444,
      "Ġfrom": 445,
      "ub": 446,
      "Ġsp": 447,
      "iti": 448,
      "igh": 449,
      "ip": 450,
      "Ġstud": 451,
      "Ġper": 452,
      "Ġad": 453,
      "Ġpar": 454,
      "ign": 455,
      "ich": 456,
      "Ġsh": 457,
      "ug": 458,
      "te": 459,
      "iv": 460,
      "ans": 461,
      "Ġinc": 462,
      "ia": 463,
      "Ġthis": 464,
      "ie": 465,
      "ase": 466,
      "act": 467,
      "Ġap": 468,
      "ens": 469,
      "Ġne": 470,
      "Ġy": 471,
      "ous": 472,
      "ition": 473,
      "ist": 474,
      "oun": 475,
      "der": 476,
      "lec": 477,
      "Ġsy": 478,
      "are": 479,
      "ĠT": 480,
      "Ġmet": 481,
      "Ġpre": 482,
      "Ġmod": 483,
      "form": 484,
      "Ġqu": 485,
      "ys": 486,
      "ĠE": 487,
      "Ġimp": 488,
      "ence": 489,
      "Ġhe": 490,
      "ĠB": 491,
      "ĠD": 492,
      "ance": 493,
      "Ġit": 494,
      "Ġcont": 495,
      "olog": 496,
      "Ġdes": 497,
      "Ġeff": 498,
      "00": 499,
      "ress": 500,
      "nt": 501,
      "ear": 502,
      "ific": 503,
      "ĠR": 504,
      "iff": 505,
      "Ġdi": 506,
      "ave": 507,
      "end": 508,
      "our": 509,
      ").": 510,
      "Ġcan": 511,
      "Ġwhich": 512,
      "ary": 513,
      "Ġob": 514,
      "tiv": 515,
      "Ġcons": 516,
      "age": 517,
      "Ð¾": 518,
      "ĠH": 519,
      "Ġdiff": 520,
      "Ġwe": 521,
      "Ġpl": 522,
      "ĠN": 523,
      "tive": 524,
      "Ġanal": 525,
      "Ġcl": 526,
      "ari": 527,
      "Ġinter": 528,
      "able": 529,
      "ased": 530,
      "Th": 531,
      "ge": 532,
      "ĠL": 533,
      "ĠI": 534,
      "Ġint": 535,
      "enti": 536,
      "Ġgro": 537,
      "enc": 538,
      "Ġstr": 539,
      "Ġresul": 540,
      "ost": 541,
      "etw": 542,
      "all": 543,
      "hod": 544,
      "Ġind": 545,
      "),": 546,
      "stem": 547,
      "Ġco": 548,
      "ors": 549,
      "Ø§": 550,
      "Ġ3": 551,
      "ard": 552,
      "ide": 553,
      "ted": 554,
      "ĠG": 555,
      "ech": 556,
      "ill": 557,
      "Ġab": 558,
      "Ġgen": 559,
      "Ġhas": 560,
      "Ġhave": 561,
      "Ġpr": 562,
      "av": 563,
      "ĠF": 564,
      "Ġpres": 565,
      "pos": 566,
      "ph": 567,
      "Ġpati": 568,
      "........": 569,
      "ach": 570,
      "ied": 571,
      "ther": 572,
      "tions": 573,
      "ater": 574,
      "Ġme": 575,
      "Ġass": 576,
      "Ġnot": 577,
      "hen": 578,
      "Ġrel": 579,
      "Ġì": 580,
      "cess": 581,
      "Ġev": 582,
      "ong": 583,
      "ue": 584,
      "Ġar": 585,
      "Ġstudy": 586,
      "ual": 587,
      "ons": 588,
      "Ġla": 589,
      "Ġsystem": 590,
      "Ġsign": 591,
      "ata": 592,
      "ative": 593,
      "ass": 594,
      "Ġtrans": 595,
      "Ġdiffere": 596,
      "erv": 597,
      "Ð¸": 598,
      "Ġrec": 599,
      "yp": 600,
      "ular": 601,
      "This": 602,
      "ep": 603,
      "tim": 604,
      "erm": 605,
      "ork": 606,
      "ast": 607,
      "Ġph": 608,
      "Ġsc": 609,
      "rol": 610,
      "Ġdet": 611,
      "Ġshow": 612,
      "tical": 613,
      "Ġapp": 614,
      "âĢĻ": 615,
      "Ġmethod": 616,
      "Ð½": 617,
      "Ðµ": 618,
      "velop": 619,
      "Ġmodel": 620,
      "ind": 621,
      "low": 622,
      "een": 623,
      "Ġinv": 624,
      "ility": 625,
      "ory": 626,
      "Ġsur": 627,
      "Ð°": 628,
      "ik": 629,
      "Ġpatients": 630,
      "Ġreg": 631,
      "etween": 632,
      "ugh": 633,
      "Ġsub": 634,
      "gr": 635,
      "Ġdevelop": 636,
      "Ġbetween": 637,
      "Ġbeen": 638,
      "eng": 639,
      "Ġem": 640,
      "ates": 641,
      "ace": 642,
      "ond": 643,
      "so": 644,
      "Ġman": 645,
      "pec": 646,
      "ome": 647,
      "ound": 648,
      "Ġinf": 649,
      "Ġincre": 650,
      "Ġcell": 651,
      "ight": 652,
      "ah": 653,
      "Ġspec": 654,
      "Ġro": 655,
      "out": 656,
      "ive": 657,
      "Ġrep": 658,
      "cl": 659,
      "ä¸": 660,
      "reat": 661,
      "ren": 662,
      "ob": 663,
      "à¸": 664,
      "tain": 665,
      "We": 666,
      "anc": 667,
      "uch": 668,
      "Ġ0": 669,
      "Ġdata": 670,
      "Ġhigh": 671,
      "wo": 672,
      "Ġtheir": 673,
      "ite": 674,
      "Ġresults": 675,
      "Ġform": 676,
      "yl": 677,
      "Ġpos": 678,
      "Ġused": 679,
      "ution": 680,
      "Ġ4": 681,
      "uct": 682,
      "ros": 683,
      "Ġam": 684,
      "ord": 685,
      "Ġno": 686,
      "ĠÐ": 687,
      "ri": 688,
      "Ġusing": 689,
      "ating": 690,
      "ãģ": 691,
      "Ġgroup": 692,
      "Ġpol": 693,
      "Ġunder": 694,
      "ÑĤ": 695,
      "Ġvari": 696,
      "ult": 697,
      "ĠK": 698,
      "ne": 699,
      "ree": 700,
      "ures": 701,
      "Ġsignific": 702,
      "Ġ5": 703,
      "ire": 704,
      "alu": 705,
      "Ġanalys": 706,
      "ĠØ": 707,
      "ose": 708,
      "rap": 709,
      "Âł": 710,
      "plic": 711,
      "Ġtim": 712,
      "Ġthese": 713,
      "unc": 714,
      "und": 715,
      "Ġpresent": 716,
      "dition": 717,
      "ĠU": 718,
      "Ġalso": 719,
      "Ġop": 720,
      "Ġthan": 721,
      "ient": 722,
      "iqu": 723,
      "ĠO": 724,
      "ìĿ": 725,
      "Ġdec": 726,
      "Ġprov": 727,
      "ism": 728,
      "cr": 729,
      "Ð¾Ð": 730,
      "ally": 731,
      "one": 732,
      "ack": 733,
      "Ġes": 734,
      "Ġtwo": 735,
      "Ġcor": 736,
      "ple": 737,
      "oci": 738,
      "ile": 739,
      "oth": 740,
      "ting": 741,
      "Ġsim": 742,
      "ung": 743,
      "Ġsup": 744,
      "Ġout": 745,
      "lu": 746,
      "acter": 747,
      "Ġacc": 748,
      "echn": 749,
      "ail": 750,
      "uld": 751,
      "Ġprocess": 752,
      "Ñģ": 753,
      "ized": 754,
      "Ġcomm": 755,
      "ber": 756,
      "Ġj": 757,
      "Ġsignificant": 758,
      "Ġmore": 759,
      "ature": 760,
      "ulation": 761,
      "Ġcol": 762,
      "ood": 763,
      "Ġcontrol": 764,
      "01": 765,
      "pt": 766,
      "ÑĢ": 767,
      "ï¼": 768,
      "Ġag": 769,
      "ments": 770,
      "Ġexper": 771,
      "Ġeffec": 772,
      "Ġexp": 773,
      "Ġall": 774,
      "aus": 775,
      "ization": 776,
      "ions": 777,
      "ĠâĢ": 778,
      "ases": 779,
      "tig": 780,
      "Ġet": 781,
      "uring": 782,
      "vers": 783,
      "iss": 784,
      "Ġsol": 785,
      "str": 786,
      "ely": 787,
      "ath": 788,
      "ities": 789,
      "Ġits": 790,
      "ection": 791,
      "entr": 792,
      "Ġproduc": 793,
      "Ġlow": 794,
      "Ġsam": 795,
      "Ġperform": 796,
      "ement": 797,
      "ĠW": 798,
      "ĠIn": 799,
      "Ġtechn": 800,
      "Ġappro": 801,
      "Ġpap": 802,
      "ÛĮ": 803,
      "vely": 804,
      "ice": 805,
      "Ġresp": 806,
      "Ġbut": 807,
      "Ġmo": 808,
      "Ġel": 809,
      "ten": 810,
      "ym": 811,
      "Ġother": 812,
      "Ġprob": 813,
      "hem": 814,
      "ãĢ": 815,
      "Ġso": 816,
      "trib": 817,
      "hes": 818,
      "Ġlevel": 819,
      "Ġanalysis": 820,
      "erg": 821,
      "fter": 822,
      "tit": 823,
      "tern": 824,
      "Ġuse": 825,
      "Ġactiv": 826,
      "çļ": 827,
      "Ġdifferent": 828,
      "io": 829,
      "Ġone": 830,
      "ĠV": 831,
      "Ġmeas": 832,
      "Ġchar": 833,
      "Ġincl": 834,
      "Ġmed": 835,
      "çļĦ": 836,
      "Ġgener": 837,
      "Ġë": 838,
      "Ġtime": 839,
      "ared": 840,
      "Ġcar": 841,
      "ational": 842,
      "Ġover": 843,
      "ability": 844,
      "ra": 845,
      "ural": 846,
      "ian": 847,
      "ĠÙ": 848,
      "Ġconc": 849,
      "Ġdo": 850,
      "til": 851,
      "Ġdisc": 852,
      "Ġ19": 853,
      "Ġ6": 854,
      "ology": 855,
      "iel": 856,
      "Ġest": 857,
      "Ġpaper": 858,
      "ex": 859,
      "Ġtreat": 860,
      "uk": 861,
      "ined": 862,
      "ric": 863,
      "Ġpartic": 864,
      "ene": 865,
      "Ġfunc": 866,
      "Ġsuch": 867,
      "ological": 868,
      "Ġwork": 869,
      "rec": 870,
      "ark": 871,
      "earch": 872,
      "Ġfe": 873,
      "Ġfact": 874,
      "Ġstruct": 875,
      "ĠJ": 876,
      "Ø±": 877,
      "Ġmay": 878,
      "Ġinclud": 879,
      "lem": 880,
      "action": 881,
      "Ġnew": 882,
      "ange": 883,
      "................": 884,
      "les": 885,
      "Ġfr": 886,
      "Ġelec": 887,
      "rough": 888,
      "ency": 889,
      "Ġboth": 890,
      "Ġnum": 891,
      "ning": 892,
      "entif": 893,
      "Ġdem": 894,
      "ade": 895,
      "ven": 896,
      "Ġid": 897,
      "Ġinto": 898,
      "ild": 899,
      "Ġz": 900,
      "rop": 901,
      "ry": 902,
      "port": 903,
      "ces": 904,
      "Ġhy": 905,
      "íķ": 906,
      "aj": 907,
      "ression": 908,
      "ok": 909,
      "Ġgr": 910,
      "ield": 911,
      "ality": 912,
      "Ġcomple": 913,
      "Ġsec": 914,
      "Ġobs": 915,
      "estig": 916,
      "here": 917,
      "als": 918,
      "ium": 919,
      "ever": 920,
      "Ġnon": 921,
      "hed": 922,
      "con": 923,
      "ior": 924,
      "ected": 925,
      "Ġtem": 926,
      "Ġwell": 927,
      "Ġimport": 928,
      "Ġafter": 929,
      "ox": 930,
      "ays": 931,
      "Ġfir": 932,
      "ved": 933,
      "atic": 934,
      "Ġinvestig": 935,
      "Ġup": 936,
      "Ġder": 937,
      "Ġcharacter": 938,
      "Ġdeterm": 939,
      "Ġbl": 940,
      "Ġpo": 941,
      "formation": 942,
      "ise": 943,
      "Ġexam": 944,
      "iew": 945,
      "ale": 946,
      "now": 947,
      "ix": 948,
      "Ġmon": 949,
      "iment": 950,
      "arg": 951,
      "emb": 952,
      "jec": 953,
      "âĢĵ": 954,
      "Ġmul": 955,
      "It": 956,
      "Ġins": 957,
      "ered": 958,
      "ust": 959,
      "ible": 960,
      "Ġtest": 961,
      "Ġimpro": 962,
      "gan": 963,
      "Ġfound": 964,
      "istic": 965,
      "Ġtyp": 966,
      "inal": 967,
      "Ġbased": 968,
      "Ġque": 969,
      "Ġresearch": 970,
      "Ġmic": 971,
      "Ġver": 972,
      "ines": 973,
      "Ġbi": 974,
      "Ø§Ù": 975,
      "Ġobserv": 976,
      "Ġmeasure": 977,
      "Ġcells": 978,
      "Ġtreatment": 979,
      "Ġcur": 980,
      "Ġmost": 981,
      "Ġduring": 982,
      "Ġdifferen": 983,
      "art": 984,
      "Ġser": 985,
      "Ġaut": 986,
      "Ġpropos": 987,
      "ek": 988,
      "Ġyear": 989,
      "Ġproblem": 990,
      "Ġthere": 991,
      "uss": 992,
      "Ġevalu": 993,
      "tal": 994,
      "Ġthrough": 995,
      "Ġdesign": 996,
      "gen": 997,
      "duced": 998,
      "Ġfol": 999,
      "ants": 1000,
      "Ġ7": 1001,
      "ov": 1002,
      "lic": 1003,
      "ings": 1004,
      "Ġval": 1005,
      "Ġhad": 1006,
      "Ġassoci": 1007,
      "ax": 1008,
      "alth": 1009,
      "raph": 1010,
      "Ġdep": 1011,
      "'s": 1012,
      "Ġloc": 1013,
      "owever": 1014,
      "ane": 1015,
      "Ġdevelopment": 1016,
      "its": 1017,
      "Ġ9": 1018,
      "Ġfirst": 1019,
      "Ġhig": 1020,
      "de": 1021,
      "ĠThe": 1022,
      "Ġref": 1023,
      "Ġcondition": 1024,
      "Ġdef": 1025,
      "ential": 1026,
      "Ġeffect": 1027,
      "ize": 1028,
      "ination": 1029,
      "Ġfunction": 1030,
      "Ġdel": 1031,
      "yn": 1032,
      "Ġconsid": 1033,
      "cc": 1034,
      "rel": 1035,
      "ins": 1036,
      "Ġpot": 1037,
      "Ġindic": 1038,
      "Ġidentif": 1039,
      "led": 1040,
      "Ġdr": 1041,
      "agn": 1042,
      "int": 1043,
      "ould": 1044,
      "ĠĊ": 1045,
      "NA": 1046,
      "Ġdescr": 1047,
      "over": 1048,
      "Ġmain": 1049,
      "Ġ8": 1050,
      "Ġsug": 1051,
      "Ġcap": 1052,
      "Ġsome": 1053,
      "por": 1054,
      "itive": 1055,
      "Ġwill": 1056,
      "amet": 1057,
      "Ġrem": 1058,
      "Ġed": 1059,
      "eren": 1060,
      "usion": 1061,
      "iron": 1062,
      "âĢĲ": 1063,
      "Ġonly": 1064,
      "Ø§Ø": 1065,
      "echan": 1066,
      "lis": 1067,
      "ties": 1068,
      "Ġdise": 1069,
      "Ġgl": 1070,
      "Ġcal": 1071,
      "Ġanaly": 1072,
      "Ġ10": 1073,
      "cept": 1074,
      "Ġwhen": 1075,
      "ft": 1076,
      "Ġê": 1077,
      "inc": 1078,
      "äº": 1079,
      "Ġobtain": 1080,
      "red": 1081,
      "onstr": 1082,
      "ness": 1083,
      "ital": 1084,
      "osis": 1085,
      "ao": 1086,
      "Ġbr": 1087,
      "iter": 1088,
      "Ġmin": 1089,
      "Ġ=": 1090,
      "ious": 1091,
      "Ð»": 1092,
      "face": 1093,
      "tively": 1094,
      "ĠÎ": 1095,
      "ores": 1096,
      "Ġlos": 1097,
      "Ġsugg": 1098,
      "Ġequ": 1099,
      "Ġcr": 1100,
      "Ġsm": 1101,
      "Ġu": 1102,
      "Ġconf": 1103,
      "Ġfollow": 1104,
      "ages": 1105,
      "Ġprote": 1106,
      "ful": 1107,
      "ier": 1108,
      "ited": 1109,
      "cer": 1110,
      "Ġav": 1111,
      "rent": 1112,
      "isk": 1113,
      "Ġpred": 1114,
      "hib": 1115,
      "Ġimportant": 1116,
      "ãĤ": 1117,
      "Ġprev": 1118,
      "Ġ200": 1119,
      "Ġknow": 1120,
      "Ġte": 1121,
      "Ġthree": 1122,
      "Ġmater": 1123,
      "Ġmulti": 1124,
      "Ġexpl": 1125,
      "Ġrequ": 1126,
      "Ġsu": 1127,
      "ique": 1128,
      "ute": 1129,
      "lement": 1130,
      "Ġwho": 1131,
      "Ġhum": 1132,
      "par": 1133,
      "Ġapplic": 1134,
      "Ġcompared": 1135,
      "Ġ201": 1136,
      "ateg": 1137,
      "Ġclin": 1138,
      "Ġstudies": 1139,
      "Ġprovid": 1140,
      "hip": 1141,
      "Ġbec": 1142,
      "Ġmechan": 1143,
      "Ġyang": 1144,
      "amm": 1145,
      "âĢĿ": 1146,
      "Ġcy": 1147,
      "Ġgrow": 1148,
      "Ġeffects": 1149,
      "Ġbas": 1150,
      "Ġdan": 1151,
      "ograph": 1152,
      "Ġrate": 1153,
      "Ġabout": 1154,
      "ake": 1155,
      "Ġend": 1156,
      "Ġhealth": 1157,
      "Ġhigher": 1158,
      "Ġanti": 1159,
      "view": 1160,
      "old": 1161,
      "Ġshowed": 1162,
      "ada": 1163,
      "ional": 1164,
      "Ġnumber": 1165,
      "iod": 1166,
      "Ġinformation": 1167,
      "viron": 1168,
      "ici": 1169,
      "ivid": 1170,
      "adi": 1171,
      "Ġtemper": 1172,
      "Ġext": 1173,
      "åı": 1174,
      "ues": 1175,
      "Ġles": 1176,
      "Al": 1177,
      "Ġoper": 1178,
      "Ġset": 1179,
      "Ġorgan": 1180,
      "Ġwhere": 1181,
      "fore": 1182,
      "ont": 1183,
      "Ùĩ": 1184,
      "Ġyears": 1185,
      "ĠCh": 1186,
      "Ġclass": 1187,
      "10": 1188,
      "Ġpe": 1189,
      "Ġposs": 1190,
      "ON": 1191,
      "atis": 1192,
      "onic": 1193,
      "Ġconcentr": 1194,
      "Ġsens": 1195,
      "ocial": 1196,
      "Ġchang": 1197,
      "Ġincreased": 1198,
      "Ġour": 1199,
      "ause": 1200,
      "Ġproper": 1201,
      "Ġ[": 1202,
      "Ġmat": 1203,
      "Ġpers": 1204,
      "Ġneed": 1205,
      "Ġreport": 1206,
      "urther": 1207,
      "Ġperformance": 1208,
      "ustr": 1209,
      "Ġthey": 1210,
      "Ġfind": 1211,
      "Ġdiscuss": 1212,
      "æľ": 1213,
      "ï¼Į": 1214,
      "arge": 1215,
      "requ": 1216,
      "Ġocc": 1217,
      "nal": 1218,
      "ough": 1219,
      "oy": 1220,
      "atory": 1221,
      "Ġbeh": 1222,
      "tro": 1223,
      "Ġfield": 1224,
      "Ġeach": 1225,
      "Ġstructure": 1226,
      "duction": 1227,
      "Ġactivity": 1228,
      "Ġdescrib": 1229,
      "ergy": 1230,
      "ìĹ": 1231,
      "Ġimm": 1232,
      "Ġwater": 1233,
      "Ġpow": 1234,
      "ÙĪ": 1235,
      "fer": 1236,
      "ty": 1237,
      "Ġter": 1238,
      "Ġassociated": 1239,
      "ples": 1240,
      "ption": 1241,
      "Ġsignificantly": 1242,
      "Ġassess": 1243,
      "Ġmaterial": 1244,
      "Ġdirec": 1245,
      "Ġcomb": 1246,
      "ew": 1247,
      "However": 1248,
      "Ġelectr": 1249,
      "dro": 1250,
      "amic": 1251,
      "Ġaff": 1252,
      "Ðº": 1253,
      "Ġrisk": 1254,
      "Ġenviron": 1255,
      "omic": 1256,
      "These": 1257,
      "åħ": 1258,
      "Ġexperiment": 1259,
      "idence": 1260,
      "Ġapproach": 1261,
      "Ġcommun": 1262,
      "oid": 1263,
      "Øª": 1264,
      "ults": 1265,
      "Ġpop": 1266,
      "ES": 1267,
      "ĠSt": 1268,
      "Ġlim": 1269,
      "Ġlevels": 1270,
      "Ġer": 1271,
      "ock": 1272,
      "Ġprac": 1273,
      "ically": 1274,
      "Ġreal": 1275,
      "urs": 1276,
      "Res": 1277,
      "cop": 1278,
      "Ġpub": 1279,
      "ator": 1280,
      "ĠUn": 1281,
      "Ġmen": 1282,
      "Ġparamet": 1283,
      "Ġdistrib": 1284,
      "Ab": 1285,
      "ivers": 1286,
      "Ġlong": 1287,
      "arm": 1288,
      "19": 1289,
      "Ġvol": 1290,
      "the": 1291,
      "af": 1292,
      "ann": 1293,
      "Ġproposed": 1294,
      "Ġmethods": 1295,
      "omen": 1296,
      "Ñĥ": 1297,
      "Ø¯": 1298,
      "Ġdisease": 1299,
      "Ġ-": 1300,
      "Ã©": 1301,
      "ÙĨ": 1302,
      "Ġdemonstr": 1303,
      "Ġconditions": 1304,
      "ety": 1305,
      "to": 1306,
      "Ġinflu": 1307,
      "Ġthose": 1308,
      "Ġterm": 1309,
      "Ġobtained": 1310,
      "etwork": 1311,
      "cul": 1312,
      "Ġsystems": 1313,
      "Ġlo": 1314,
      "ld": 1315,
      "Ġobserved": 1316,
      "Ġprof": 1317,
      "Ġanalyz": 1318,
      "Ġent": 1319,
      "az": 1320,
      "ves": 1321,
      "Ġhuman": 1322,
      "Ġund": 1323,
      "Ġcoun": 1324,
      "ai": 1325,
      "Ġke": 1326,
      "Ġhist": 1327,
      "Ġpath": 1328,
      "arly": 1329,
      "Ġperiod": 1330,
      "com": 1331,
      "Ġpredic": 1332,
      "acion": 1333,
      "Ġmanag": 1334,
      "Ġdecre": 1335,
      "Ġwithin": 1336,
      "ains": 1337,
      "Ġcomplex": 1338,
      "Ġfactors": 1339,
      "stract": 1340,
      "Ġsurface": 1341,
      "asi": 1342,
      "Ġbehav": 1343,
      "Ġsecond": 1344,
      "ink": 1345,
      "oph": 1346,
      "Ġconstr": 1347,
      "Ġorder": 1348,
      "Ġselec": 1349,
      "aining": 1350,
      "Ġaddition": 1351,
      "min": 1352,
      "Ġdie": 1353,
      "Ġacid": 1354,
      "Ġcould": 1355,
      "Ġcurrent": 1356,
      "osp": 1357,
      "du": 1358,
      "ived": 1359,
      "icient": 1360,
      "ogen": 1361,
      "ern": 1362,
      "Ġsocial": 1363,
      "âĪ": 1364,
      "ily": 1365,
      "Ġfrequ": 1366,
      "Ġphys": 1367,
      "Ġsuggest": 1368,
      "Ġincrease": 1369,
      "Ġalg": 1370,
      "Ġgroups": 1371,
      "Ġresult": 1372,
      "Ð²": 1373,
      "Ġcases": 1374,
      "Ġmicro": 1375,
      "onse": 1376,
      "Ġfl": 1377,
      "round": 1378,
      "Ġmark": 1379,
      "ision": 1380,
      "kan": 1381,
      "ject": 1382,
      "Ġprot": 1383,
      "Ġi": 1384,
      "Ġprim": 1385,
      "pectively": 1386,
      "Ġrelations": 1387,
      "Ġdiagn": 1388,
      "ormal": 1389,
      "Ġdev": 1390,
      "Ġcase": 1391,
      "ced": 1392,
      "ãĢĤ": 1393,
      "Ġenergy": 1394,
      "Ġtemperature": 1395,
      "Ġartic": 1396,
      "åĪ": 1397,
      "acy": 1398,
      "ms": 1399,
      "Ġgene": 1400,
      "Ġextr": 1401,
      "Ġclinical": 1402,
      "ication": 1403,
      "Ġprogr": 1404,
      "Ġoptim": 1405,
      "Ñı": 1406,
      "ĠâĢľ": 1407,
      "omet": 1408,
      "Ġimprove": 1409,
      "As": 1410,
      "There": 1411,
      "Ġdeveloped": 1412,
      "Ġrole": 1413,
      "ently": 1414,
      "Ġestim": 1415,
      "Ġtotal": 1416,
      "Ġpotential": 1417,
      "ĠÂ": 1418,
      "Ġnetwork": 1419,
      "Ġpen": 1420,
      "ç»": 1421,
      "resent": 1422,
      "Ġfil": 1423,
      "Ġdist": 1424,
      "ä»": 1425,
      "âĢī": 1426,
      "Ġhow": 1427,
      "line": 1428,
      "Ġenvironment": 1429,
      "Ġpower": 1430,
      "Ġlead": 1431,
      "ross": 1432,
      "Ġ.": 1433,
      "Ġox": 1434,
      "iven": 1435,
      "sy": 1436,
      "ick": 1437,
      "Ġrequire": 1438,
      "Ġwhile": 1439,
      "elf": 1440,
      "Ġlarge": 1441,
      "Ġpat": 1442,
      "Ġpart": 1443,
      "Ġdue": 1444,
      "Ġeduc": 1445,
      "CT": 1446,
      "isc": 1447,
      "tegr": 1448,
      "asing": 1449,
      "Ġchild": 1450,
      "stand": 1451,
      "br": 1452,
      "iver": 1453,
      "Ġserv": 1454,
      "sc": 1455,
      "Ġamong": 1456,
      "Ġtherap": 1457,
      "tif": 1458,
      "Ġlas": 1459,
      "Ġmechanism": 1460,
      "Ġchanges": 1461,
      "au": 1462,
      "Ġpost": 1463,
      "ites": 1464,
      "Ġgrowth": 1465,
      "Ġconduc": 1466,
      "vention": 1467,
      "Ġsmall": 1468,
      "Abstract": 1469,
      "ward": 1470,
      "Ġsupport": 1471,
      "Ġcharacteristic": 1472,
      "An": 1473,
      "imens": 1474,
      "To": 1475,
      "Ġindivid": 1476,
      "Ġinvol": 1477,
      "Ġadv": 1478,
      "Ġspecific": 1479,
      "ynamic": 1480,
      "Ġmany": 1481,
      "other": 1482,
      "omm": 1483,
      "çĶ": 1484,
      "aw": 1485,
      "%)": 1486,
      "Ġaim": 1487,
      "ience": 1488,
      "Ġpor": 1489,
      "Ġincluding": 1490,
      "ission": 1491,
      "Ġlear": 1492,
      "Ġcult": 1493,
      "Ġshould": 1494,
      "ament": 1495,
      "ä½": 1496,
      ".,": 1497,
      "Ġline": 1498,
      "ìł": 1499,
      "Ġage": 1500,
      "ified": 1501,
      "Ġquality": 1502,
      "Ġvalu": 1503,
      "orith": 1504,
      "Ġcompar": 1505,
      "Ġflow": 1506,
      "Ġ20": 1507,
      "Ġge": 1508,
      "Ġprotein": 1509,
      "Ùħ": 1510,
      "Ġrespectively": 1511,
      "Ġcorrel": 1512,
      "ices": 1513,
      "Ġinhib": 1514,
      "air": 1515,
      "Con": 1516,
      "Ġcompos": 1517,
      "Ġecon": 1518,
      "20": 1519,
      "Ġflu": 1520,
      "Ġproperties": 1521,
      "ife": 1522,
      "Ġve": 1523,
      "ode": 1524,
      "Ġsing": 1525,
      "Ġstand": 1526,
      "ilar": 1527,
      "Ð¼": 1528,
      "lev": 1529,
      "ãĥ": 1530,
      "Ġ\"": 1531,
      "based": 1532,
      "epend": 1533,
      "ĠZ": 1534,
      "Ġmodels": 1535,
      "Ġlower": 1536,
      "ãĢģ": 1537,
      "ìĿĺ": 1538,
      "Ġsever": 1539,
      "Ġexpression": 1540,
      "Ġcare": 1541,
      "Ġvarious": 1542,
      "50": 1543,
      "ences": 1544,
      "Ġindividual": 1545,
      "Ġgeneral": 1546,
      "Ġdom": 1547,
      "Ġstrateg": 1548,
      "ger": 1549,
      "Ġalgorith": 1550,
      "hy": 1551,
      "of": 1552,
      "put": 1553,
      "Ġfac": 1554,
      "ish": 1555,
      "ina": 1556,
      "Ġtype": 1557,
      "Ġadd": 1558,
      "ê³": 1559,
      "ogn": 1560,
      "istr": 1561,
      "ajor": 1562,
      "Ġbet": 1563,
      "Ġspecies": 1564,
      "Ġprovide": 1565,
      "rm": 1566,
      "ÙĦ": 1567,
      "Ġda": 1568,
      "ude": 1569,
      "................................": 1570,
      "ters": 1571,
      "olution": 1572,
      "ÑģÑĤ": 1573,
      "ody": 1574,
      "amp": 1575,
      "Ġach": 1576,
      "æĸ": 1577,
      "ìĦ": 1578,
      "Ġmem": 1579,
      "Ġpresented": 1580,
      "Ġconsider": 1581,
      "Ġlocal": 1582,
      "itor": 1583,
      "met": 1584,
      "erc": 1585,
      "itu": 1586,
      "Ġcollec": 1587,
      "iques": 1588,
      "Ġpur": 1589,
      "Ġcaus": 1590,
      "Ġrelationship": 1591,
      "Ġarea": 1592,
      "å¤": 1593,
      "Ġresponse": 1594,
      "Ġfoc": 1595,
      "ike": 1596,
      "Ġep": 1597,
      "åĲ": 1598,
      "Ġprom": 1599,
      "atures": 1600,
      "pro": 1601,
      "Ġstate": 1602,
      "Ġsuc": 1603,
      "ensity": 1604,
      "Ġreview": 1605,
      "Ġmanagement": 1606,
      "Ġless": 1607,
      "Ġparticular": 1608,
      "ma": 1609,
      "Ġvalue": 1610,
      "Ġí": 1611,
      "Ġbel": 1612,
      "Ġachie": 1613,
      "Ġdepend": 1614,
      "Ġcommon": 1615,
      "Ġtum": 1616,
      "ado": 1617,
      "urb": 1618,
      "utions": 1619,
      "Results": 1620,
      "Ġintr": 1621,
      "å®": 1622,
      "Ġintegr": 1623,
      "Ġpress": 1624,
      "Ġcancer": 1625,
      "abor": 1626,
      "tically": 1627,
      "Ġthem": 1628,
      "hemical": 1629,
      "Ġutil": 1630,
      "ount": 1631,
      "Ġstudents": 1632,
      "Ġvery": 1633,
      "Ġmajor": 1634,
      "Ġcontr": 1635,
      "reated": 1636,
      "duce": 1637,
      "ification": 1638,
      "ets": 1639,
      "Ġreve": 1640,
      "pr": 1641,
      "atal": 1642,
      "Ġ12": 1643,
      "ĠPro": 1644,
      "Ġperformed": 1645,
      "Ġrelated": 1646,
      "Ġsame": 1647,
      "omy": 1648,
      "Ġmean": 1649,
      "Ġsour": 1650,
      "ER": 1651,
      "Ġfin": 1652,
      "Ġrat": 1653,
      "Ġcontrib": 1654,
      "cho": 1655,
      "engan": 1656,
      "ke": 1657,
      "Ġsingle": 1658,
      "Ġwithout": 1659,
      "ests": 1660,
      "Ġpatient": 1661,
      "Ġmemb": 1662,
      "è¿": 1663,
      "II": 1664,
      "Ġany": 1665,
      "reg": 1666,
      "ank": 1667,
      "ĠX": 1668,
      "Ġhydro": 1669,
      "Ġstudied": 1670,
      "Ġrange": 1671,
      "Ġiniti": 1672,
      "akan": 1673,
      "oper": 1674,
      "tics": 1675,
      "Ġsym": 1676,
      "ving": 1677,
      "Ġcontin": 1678,
      "Ġimmun": 1679,
      "que": 1680,
      "ou": 1681,
      "Ġproduction": 1682,
      "ler": 1683,
      "Ġnec": 1684,
      "Ġsus": 1685,
      "Ġmolec": 1686,
      "ĠčĊ": 1687,
      "Ġcir": 1688,
      "Ġparameters": 1689,
      "Ġau": 1690,
      "med": 1691,
      "ëĬ": 1692,
      "Ġrepresent": 1693,
      "Ġbu": 1694,
      "orph": 1695,
      "For": 1696,
      "Ġvis": 1697,
      "12": 1698,
      "Ġdu": 1699,
      "Ġneu": 1700,
      "ucle": 1701,
      "åľ": 1702,
      "ais": 1703,
      "Ġimplement": 1704,
      "Ġsimilar": 1705,
      "Ġarticle": 1706,
      "Ġques": 1707,
      "Ġpara": 1708,
      "ÐµÐ½": 1709,
      "ĠÐ¿": 1710,
      "Ġpublic": 1711,
      "plied": 1712,
      "omp": 1713,
      "abil": 1714,
      "ĭ¤": 1715,
      "ales": 1716,
      "ploy": 1717,
      "Ġexist": 1718,
      "Ġcompon": 1719,
      "Ġrati": 1720,
      "íķĺ": 1721,
      "aking": 1722,
      "Ø§ÙĦ": 1723,
      "åŃ": 1724,
      "Ġneg": 1725,
      "Ġvalues": 1726,
      "Ġatt": 1727,
      "ove": 1728,
      "cle": 1729,
      "me": 1730,
      "onal": 1731,
      "xt": 1732,
      "Ġfocus": 1733,
      "Ġunderstand": 1734,
      "ately": 1735,
      "ists": 1736,
      "Ġthen": 1737,
      "Ġrece": 1738,
      "Ġoccur": 1739,
      "Ġlay": 1740,
      "ances": 1741,
      "ET": 1742,
      "any": 1743,
      "ument": 1744,
      "ulated": 1745,
      "âĪĴ": 1746,
      "Ġestab": 1747,
      "AR": 1748,
      "ths": 1749,
      "Ġcent": 1750,
      "05": 1751,
      "Ñĭ": 1752,
      "hel": 1753,
      "ording": 1754,
      "roscop": 1755,
      "Ġchange": 1756,
      "Ġcharacteristics": 1757,
      "Ġphase": 1758,
      "ival": 1759,
      "Ġstandard": 1760,
      "cent": 1761,
      "Ġprogram": 1762,
      "tric": 1763,
      "Ġseveral": 1764,
      "iciency": 1765,
      "Ġeffective": 1766,
      "ST": 1767,
      "Ġabs": 1768,
      "ledge": 1769,
      "Ġinvestigated": 1770,
      "Ġpattern": 1771,
      "ibr": 1772,
      "Ġallow": 1773,
      "Ġfam": 1774,
      "Ġlife": 1775,
      "Ð´": 1776,
      "tor": 1777,
      "oma": 1778,
      "uted": 1779,
      "SI": 1780,
      "Ġparticip": 1781,
      "jects": 1782,
      "Ġfour": 1783,
      "Ñĸ": 1784,
      "Ġintro": 1785,
      "Ġimpact": 1786,
      "Ġnormal": 1787,
      "--": 1788,
      "Ġdengan": 1789,
      "Ġsk": 1790,
      "nd": 1791,
      "AT": 1792,
      "na": 1793,
      "eg": 1794,
      "Ġprog": 1795,
      "%,": 1796,
      "hyl": 1797,
      "ëĬĶ": 1798,
      "Ġgu": 1799,
      "æĺ": 1800,
      "cep": 1801,
      "ica": 1802,
      "Ġpossible": 1803,
      "Ġshown": 1804,
      "Ġoff": 1805,
      "ner": 1806,
      "ìĹĲ": 1807,
      "ained": 1808,
      "Ġmeng": 1809,
      "Ġmade": 1810,
      "tice": 1811,
      "Ġsequ": 1812,
      "Ġvir": 1813,
      "yt": 1814,
      "Ġfactor": 1815,
      "Ġfurther": 1816,
      "Met": 1817,
      "Ġsynt": 1818,
      "ince": 1819,
      "Ġliter": 1820,
      "els": 1821,
      "Ġquan": 1822,
      "Ġdistribution": 1823,
      "Ġplas": 1824,
      "Ġstress": 1825,
      "Ġchildren": 1826,
      "Ġtra": 1827,
      "Ġreveal": 1828,
      "Ġbeing": 1829,
      "clusion": 1830,
      "Ġauth": 1831,
      "Ġsize": 1832,
      "tial": 1833,
      "ste": 1834,
      "Ġaccur": 1835,
      "ados": 1836,
      "ture": 1837,
      "ĠAl": 1838,
      "Ġtarg": 1839,
      "jective": 1840,
      "erence": 1841,
      "Ġlearning": 1842,
      "Ġexperimental": 1843,
      "Ġblood": 1844,
      "tis": 1845,
      "11": 1846,
      "Ġestablis": 1847,
      "Ġgre": 1848,
      "Ġrespons": 1849,
      "Ġdid": 1850,
      "uction": 1851,
      "Ġber": 1852,
      "Ġsuccess": 1853,
      "Ġ199": 1854,
      "Ġapplication": 1855,
      "Ġenh": 1856,
      "Ġincreasing": 1857,
      "Ġradi": 1858,
      "Ġavail": 1859,
      "Ġdrug": 1860,
      "Ġcalcul": 1861,
      "agne": 1862,
      "Ġintere": 1863,
      "orld": 1864,
      "Ġproced": 1865,
      "Ġsamples": 1866,
      "alam": 1867,
      "actions": 1868,
      "ols": 1869,
      "osph": 1870,
      "Ġnan": 1871,
      "ware": 1872,
      "ĠQ": 1873,
      "Ġiss": 1874,
      "Ġproblems": 1875,
      "ta": 1876,
      "Ġsl": 1877,
      "Ġapplied": 1878,
      "Ġprevious": 1879,
      "ole": 1880,
      "cular": 1881,
      "Ġinj": 1882,
      "Ġreported": 1883,
      "Ġtiss": 1884,
      "Ġgood": 1885,
      "ĠY": 1886,
      "Ġmass": 1887,
      "Ġcarb": 1888,
      "Ġ15": 1889,
      "Ġdynamic": 1890,
      "ables": 1891,
      "verage": 1892,
      "acao": 1893,
      "ĠÙħ": 1894,
      "Ġdirect": 1895,
      "Ġtechnique": 1896,
      "ides": 1897,
      "Ġmeasured": 1898,
      "Ġhyp": 1899,
      "urn": 1900,
      "Ġknowledge": 1901,
      "Ġif": 1902,
      "AC": 1903,
      "lo": 1904,
      "åĬ": 1905,
      "Ġum": 1906,
      "Ġpopulation": 1907,
      "eff": 1908,
      "ule": 1909,
      "Ġpositive": 1910,
      "Ġwhe": 1911,
      "Ð¾Ð²": 1912,
      "tivity": 1913,
      "Ġgiven": 1914,
      "Ġcontent": 1915,
      "Ġconcentration": 1916,
      "Ġhel": 1917,
      "Ġpressure": 1918,
      "ara": 1919,
      "eliti": 1920,
      "Ġbehavior": 1921,
      "app": 1922,
      "Ġbo": 1923,
      "Ġconsidered": 1924,
      "though": 1925,
      "ÑĮ": 1926,
      "Ġwomen": 1927,
      "oh": 1928,
      "Ġphot": 1929,
      "ìĿ´": 1930,
      "Ġbre": 1931,
      "Ġbecause": 1932,
      "den": 1933,
      "Ġdifferences": 1934,
      "och": 1935,
      "xim": 1936,
      "Ġret": 1937,
      "ules": 1938,
      "ators": 1939,
      "Ġpresence": 1940,
      "ĠEn": 1941,
      "Ġstrong": 1942,
      "ependent": 1943,
      "Ġindustr": 1944,
      "axim": 1945,
      "Ñĩ": 1946,
      "Ġresist": 1947,
      "åĽ": 1948,
      "Ġprec": 1949,
      "Ġregion": 1950,
      "Ġsem": 1951,
      "Ġconsist": 1952,
      "Ġcri": 1953,
      "ame": 1954,
      "Ġidentified": 1955,
      "Ġmy": 1956,
      "las": 1957,
      "ype": 1958,
      "è¯": 1959,
      "Ġtherm": 1960,
      "ret": 1961,
      "Ġelectro": 1962,
      "DS": 1963,
      "sequ": 1964,
      "Ġinfluence": 1965,
      "Ġmus": 1966,
      "Ġsolution": 1967,
      "Ġ18": 1968,
      "Ġphen": 1969,
      "mer": 1970,
      "ling": 1971,
      "ulations": 1972,
      "eu": 1973,
      "Ġalgorithm": 1974,
      "pose": 1975,
      "ë¡": 1976,
      "Ġdetermine": 1977,
      "AS": 1978,
      "Ġul": 1979,
      "ks": 1980,
      "ands": 1981,
      "Ġtheory": 1982,
      "iversity": 1983,
      "ìĿĦ": 1984,
      "Ġcle": 1985,
      "Ñħ": 1986,
      "ĠØ¨": 1987,
      "ering": 1988,
      "Ġbetter": 1989,
      "mon": 1990,
      "ially": 1991,
      "Ġwould": 1992,
      "ume": 1993,
      "Ġearly": 1994,
      "Ġ30": 1995,
      "Ġeng": 1996,
      "ĠĠ": 1997,
      "resp": 1998,
      "arch": 1999,
      "Ġsignal": 2000,
      "Ġanalyzed": 2001,
      "Ġcer": 2002,
      "idad": 2003,
      "Ġevidence": 2004,
      "ĠAr": 2005,
      "hesis": 2006,
      "Ġfindings": 2007,
      "Ġfem": 2008,
      "ibility": 2009,
      "iving": 2010,
      "row": 2011,
      "Ġtechniques": 2012,
      "ull": 2013,
      "we": 2014,
      "Ġcountr": 2015,
      "anced": 2016,
      "ople": 2017,
      "ually": 2018,
      "Ġratio": 2019,
      "ics": 2020,
      "Ġdetermined": 2021,
      "Ġagain": 2022,
      "be": 2023,
      "000": 2024,
      "ones": 2025,
      "icult": 2026,
      "TS": 2027,
      "atively": 2028,
      "Ġ+": 2029,
      "Ġprinc": 2030,
      "ography": 2031,
      "Ġgas": 2032,
      "Ġdig": 2033,
      "Ġmix": 2034,
      "let": 2035,
      "ae": 2036,
      "ĠInd": 2037,
      "Ġair": 2038,
      "Ġreduced": 2039,
      "Ġlight": 2040,
      "Ġhis": 2041,
      "Ġformation": 2042,
      "ended": 2043,
      "elitian": 2044,
      "Ġstatis": 2045,
      "Ġexc": 2046,
      "ĠTh": 2047,
      "Ġini": 2048,
      "Ġ<": 2049,
      "Ġself": 2050,
      "Ġconn": 2051,
      "Ġtrad": 2052,
      "oms": 2053,
      "Ġact": 2054,
      "itro": 2055,
      "Ġang": 2056,
      "Î±": 2057,
      "ëĭ¤": 2058,
      "Ġmultiple": 2059,
      "Ġeducation": 2060,
      "ars": 2061,
      "Ġhyper": 2062,
      "Ġemploy": 2063,
      "aging": 2064,
      "itation": 2065,
      "æĢ": 2066,
      "Ġfrequency": 2067,
      "15": 2068,
      "CL": 2069,
      "ening": 2070,
      "__": 2071,
      "ird": 2072,
      "Ġdos": 2073,
      "Ġfollowing": 2074,
      "Ġspe": 2075,
      "sych": 2076,
      "å¹": 2077,
      "own": 2078,
      "iments": 2079,
      "Ġmut": 2080,
      "Ġconte": 2081,
      "ĠCO": 2082,
      "ĠAn": 2083,
      "Ġorig": 2084,
      "IV": 2085,
      "ector": 2086,
      "mit": 2087,
      "Ġpolic": 2088,
      "ither": 2089,
      "Ġune": 2090,
      "val": 2091,
      "enef": 2092,
      "IC": 2093,
      "ya": 2094,
      "Ġ,": 2095,
      "Ġfib": 2096,
      "atus": 2097,
      "uan": 2098,
      "Ġmaxim": 2099,
      "cin": 2100,
      "Ġdiscussed": 2101,
      "è®": 2102,
      "Ġknown": 2103,
      "EN": 2104,
      "Ġespec": 2105,
      "Ġsal": 2106,
      "ury": 2107,
      "ising": 2108,
      "Ð·": 2109,
      "andom": 2110,
      "agnetic": 2111,
      "izing": 2112,
      "Ġexpos": 2113,
      "amin": 2114,
      "uture": 2115,
      "Ġchall": 2116,
      "Ġloss": 2117,
      "Ġtarget": 2118,
      "Ġprimary": 2119,
      "Ġdeg": 2120,
      "verse": 2121,
      "Ġspectr": 2122,
      "Ġtherapy": 2123,
      "Ġeconomic": 2124,
      "Ġprocesses": 2125,
      "get": 2126,
      "Ġbody": 2127,
      "inf": 2128,
      "ospital": 2129,
      "è¡": 2130,
      "Ġisol": 2131,
      "Ġconducted": 2132,
      "Ġposition": 2133,
      "Ġcontinu": 2134,
      "Ġconsum": 2135,
      "ct": 2136,
      "Ġareas": 2137,
      "Ġtypes": 2138,
      "Ġrad": 2139,
      "Ġtop": 2140,
      "Ġden": 2141,
      "ron": 2142,
      "ias": 2143,
      "ray": 2144,
      "Ġavailable": 2145,
      "olic": 2146,
      "Ġess": 2147,
      "Ġnat": 2148,
      "uh": 2149,
      "ĠÃ": 2150,
      "entral": 2151,
      "Ġdays": 2152,
      "æķ": 2153,
      "13": 2154,
      "Ġnovel": 2155,
      "ÑĢÐ°": 2156,
      "Ġnecess": 2157,
      "ining": 2158,
      "íķľ": 2159,
      "Ġfail": 2160,
      "OS": 2161,
      "Ġrates": 2162,
      "å¯": 2163,
      "Ġtechnology": 2164,
      "Ġhelp": 2165,
      "ih": 2166,
      "Our": 2167,
      "Ġfeatures": 2168,
      "ÙĬ": 2169,
      "OR": 2170,
      "ä¹": 2171,
      "Ġbenef": 2172,
      "pective": 2173,
      "Ġprovides": 2174,
      "Ġpeople": 2175,
      "amb": 2176,
      "Ġ14": 2177,
      "Method": 2178,
      "ressed": 2179,
      "Ġplan": 2180,
      "ground": 2181,
      "Ġdescribed": 2182,
      "clus": 2183,
      "Ġinterest": 2184,
      "Ġnucle": 2185,
      "ĠÐ²": 2186,
      "Ġcost": 2187,
      "Ġher": 2188,
      "ativ": 2189,
      "lor": 2190,
      "itis": 2191,
      "yr": 2192,
      "ours": 2193,
      "orb": 2194,
      "Ġidentify": 2195,
      "ĠâĢĺ": 2196,
      "eration": 2197,
      "Ġpoint": 2198,
      "Ġ13": 2199,
      "Ġmit": 2200,
      "Ġdur": 2201,
      "Ġbefore": 2202,
      "Ġresour": 2203,
      "Ġsoil": 2204,
      "Ġterms": 2205,
      "Ġdoc": 2206,
      "less": 2207,
      "ĠâĢĵ": 2208,
      "Ġshort": 2209,
      "Ġdifference": 2210,
      "ìľ": 2211,
      "Ġcard": 2212,
      "Ġquestion": 2213,
      "reng": 2214,
      "Ġcapac": 2215,
      "ised": 2216,
      "Ġregard": 2217,
      "orts": 2218,
      "Ú©": 2219,
      "Ġcomo": 2220,
      "Ġread": 2221,
      "itional": 2222,
      "AN": 2223,
      "Ġpolym": 2224,
      "Ġminim": 2225,
      "EM": 2226,
      "Ġplant": 2227,
      "ried": 2228,
      "uit": 2229,
      "Ġefficiency": 2230,
      "Ġrap": 2231,
      "14": 2232,
      "Ġagainst": 2233,
      "ë¡ľ": 2234,
      "Ġapplications": 2235,
      "ably": 2236,
      "18": 2237,
      "Ġyield": 2238,
      "Ġlarg": 2239,
      "overn": 2240,
      "Ġein": 2241,
      "plications": 2242,
      "Â±": 2243,
      "Ġeven": 2244,
      "Ġsitu": 2245,
      "Ġill": 2246,
      "Ġvers": 2247,
      "rit": 2248,
      "Ġkey": 2249,
      "Â°": 2250,
      "inary": 2251,
      "respond": 2252,
      "Ġweight": 2253,
      "Ġpul": 2254,
      "PS": 2255,
      "Ġreaction": 2256,
      "itiv": 2257,
      "aneous": 2258,
      "Ġglob": 2259,
      "Ġrevealed": 2260,
      "æĪ": 2261,
      "uter": 2262,
      "ĠØ§ÙĦ": 2263,
      "way": 2264,
      "ê°": 2265,
      "Ø¨": 2266,
      "Ġol": 2267,
      "ĠAs": 2268,
      "Ġprop": 2269,
      "Ġrecent": 2270,
      "Further": 2271,
      "Ġincluded": 2272,
      "ength": 2273,
      "Ġcirc": 2274,
      "Ġdiagnos": 2275,
      "Ġgo": 2276,
      "eral": 2277,
      "wa": 2278,
      "Ġworld": 2279,
      "ison": 2280,
      "Ã³": 2281,
      "Ġnumer": 2282,
      "Ġsuper": 2283,
      "Ġmas": 2284,
      "Ġcross": 2285,
      "Ġmel": 2286,
      "CR": 2287,
      "Ġ16": 2288,
      "ored": 2289,
      "IS": 2290,
      "Ġunt": 2291,
      "On": 2292,
      "hers": 2293,
      "fact": 2294,
      "ä¸Ģ": 2295,
      "ĠÙĪ": 2296,
      "åĮ": 2297,
      "ryst": 2298,
      "Ġcre": 2299,
      "ä¸Ń": 2300,
      "Ġide": 2301,
      "Ġfram": 2302,
      "till": 2303,
      "Ġliterature": 2304,
      "Ġrandom": 2305,
      "IN": 2306,
      "Ġdetection": 2307,
      "Ġphysical": 2308,
      "Ġmg": 2309,
      "ĠÑģ": 2310,
      "Ġsoci": 2311,
      "Ġvalid": 2312,
      "Ġevaluated": 2313,
      "angu": 2314,
      "Ġreduction": 2315,
      "lex": 2316,
      "éĩ": 2317,
      "Ġwhether": 2318,
      "Ġsepar": 2319,
      "ension": 2320,
      "Ġload": 2321,
      "Ġcompound": 2322,
      "alah": 2323,
      "Ġhand": 2324,
      "Ġsurv": 2325,
      "Ġsample": 2326,
      "Ġoften": 2327,
      "Ġsurve": 2328,
      "Ġdalam": 2329,
      "Ġway": 2330,
      "Ġadmin": 2331,
      "25": 2332,
      "zym": 2333,
      "Ġconcept": 2334,
      "Ġback": 2335,
      "Ġ50": 2336,
      "åº": 2337,
      "Ġstreng": 2338,
      "MS": 2339,
      "Ġenc": 2340,
      "Ġmaterials": 2341,
      "aces": 2342,
      "ĠSc": 2343,
      "Ġdemonstrated": 2344,
      "tional": 2345,
      "MP": 2346,
      "Ð½Ð°": 2347,
      "Ġele": 2348,
      "Ġantib": 2349,
      "Ġspace": 2350,
      "Ġdans": 2351,
      "Ġfuture": 2352,
      "Ø§ÛĮ": 2353,
      "sp": 2354,
      "16": 2355,
      "ico": 2356,
      "Ġtumor": 2357,
      "åŃ¦": 2358,
      "Ġprovided": 2359,
      "Ġtreated": 2360,
      "Ġdensity": 2361,
      "arb": 2362,
      "ĠRe": 2363,
      "Ġaverage": 2364,
      "Ġstim": 2365,
      "ë¥": 2366,
      "Ġrecord": 2367,
      "Ġcyt": 2368,
      "Ġdat": 2369,
      "Ġsoft": 2370,
      "Ġview": 2371,
      "ino": 2372,
      "ä¼": 2373,
      "RA": 2374,
      "Ġimage": 2375,
      "oles": 2376,
      "active": 2377,
      "orption": 2378,
      "Ġmonths": 2379,
      "aving": 2380,
      "term": 2381,
      "ogene": 2382,
      "Ø³": 2383,
      "Ġimproved": 2384,
      "Ġshows": 2385,
      "Ġsupp": 2386,
      "read": 2387,
      "Ġappear": 2388,
      "Ġdecreased": 2389,
      "Ġir": 2390,
      "tle": 2391,
      "ights": 2392,
      "crip": 2393,
      "Ġcorrespond": 2394,
      "Ġanim": 2395,
      "ises": 2396,
      "chool": 2397,
      "Ġstructures": 2398,
      "Ġdiagnosis": 2399,
      "Ġhem": 2400,
      "Ġsaf": 2401,
      "Ġactivities": 2402,
      "Ġgreat": 2403,
      "Ġuna": 2404,
      "Ġculture": 2405,
      "Ġmuch": 2406,
      "Ġtex": 2407,
      "Ġinvestigate": 2408,
      "vere": 2409,
      "Ġbound": 2410,
      "atter": 2411,
      "Ġìł": 2412,
      "Ġleg": 2413,
      "30": 2414,
      "Ġexamined": 2415,
      "wn": 2416,
      "Ġpoli": 2417,
      "mission": 2418,
      "ysis": 2419,
      "Ġadap": 2420,
      "Ġreflec": 2421,
      "åľ¨": 2422,
      "Ġunderstanding": 2423,
      "Ġsource": 2424,
      "Ġevaluation": 2425,
      "Ġconfir": 2426,
      "ana": 2427,
      "åĴ": 2428,
      "Ġsympt": 2429,
      "Ġseg": 2430,
      "Ġste": 2431,
      "ason": 2432,
      "Ġtak": 2433,
      "Ġmal": 2434,
      "Ġrecept": 2435,
      "Ġstep": 2436,
      "Ġweek": 2437,
      "aching": 2438,
      "Ġnatural": 2439,
      "ien": 2440,
      "land": 2441,
      "plant": 2442,
      "ints": 2443,
      "Ġ100": 2444,
      "Ġpoly": 2445,
      "tid": 2446,
      "Ġresid": 2447,
      "âĢĶ": 2448,
      "Ġx": 2449,
      "pir": 2450,
      "ascular": 2451,
      "Ġsum": 2452,
      "Ġmeans": 2453,
      "Ġtheore": 2454,
      "Ġpsych": 2455,
      "ì§": 2456,
      "Ġcarbon": 2457,
      "aps": 2458,
      "tention": 2459,
      "Ġmarket": 2460,
      "ges": 2461,
      "Ġevaluate": 2462,
      "Ġcarried": 2463,
      "Ġentre": 2464,
      "vement": 2465,
      "ework": 2466,
      "Ġhowever": 2467,
      "Methods": 2468,
      "ĠìĿ": 2469,
      "Ã¤": 2470,
      "Ġtas": 2471,
      "At": 2472,
      "Ġpeng": 2473,
      "AL": 2474,
      "Ġplay": 2475,
      "Ġinstr": 2476,
      "Ġresistance": 2477,
      "aches": 2478,
      "åĴĮ": 2479,
      "Ġleast": 2480,
      "Ġeither": 2481,
      "ĠÏ": 2482,
      "Ġna": 2483,
      "Ġlog": 2484,
      "Ġìŀ": 2485,
      "Ġbasis": 2486,
      "Ġ24": 2487,
      "Ġrecogn": 2488,
      "Ġtissue": 2489,
      "inding": 2490,
      "å°": 2491,
      "Ġrequired": 2492,
      "man": 2493,
      "Ġtransfer": 2494,
      "Ġaccess": 2495,
      "Ġtoward": 2496,
      "Ġexperiments": 2497,
      "Ġfunctional": 2498,
      "Ġconcentrations": 2499,
      "Ġaccording": 2500,
      "lying": 2501,
      "oint": 2502,
      "Ġeth": 2503,
      "¸°": 2504,
      "AP": 2505,
      "atan": 2506,
      "Ġadj": 2507,
      "ĠRes": 2508,
      "Ġactive": 2509,
      "truct": 2510,
      "je": 2511,
      "Ð¿": 2512,
      "pling": 2513,
      "ulf": 2514,
      "ìŀ": 2515,
      "Ġemb": 2516,
      "rend": 2517,
      "Ġphosph": 2518,
      "å¼": 2519,
      "Ġsimple": 2520,
      "stit": 2521,
      "Ø§ÙĨ": 2522,
      "Ġmolecular": 2523,
      "ats": 2524,
      "Ġintern": 2525,
      "Ġreduc": 2526,
      "eness": 2527,
      "AD": 2528,
      "Ġlayer": 2529,
      "Ġ:": 2530,
      "ape": 2531,
      "Ġinteraction": 2532,
      "æĹ": 2533,
      "ental": 2534,
      "Ġuntuk": 2535,
      "Ġwid": 2536,
      "Ġgreater": 2537,
      "Ġbest": 2538,
      "arc": 2539,
      "Ġmetab": 2540,
      "Ġsil": 2541,
      "Ġindex": 2542,
      "iness": 2543,
      "emic": 2544,
      "Ġprincip": 2545,
      "eh": 2546,
      "Ġaltern": 2547,
      "Ġ25": 2548,
      "Ġmeasurements": 2549,
      "urop": 2550,
      "Ġerr": 2551,
      "Ġpada": 2552,
      "Ġemerg": 2553,
      "17": 2554,
      "utes": 2555,
      "Ġability": 2556,
      "ÑĨ": 2557,
      "Ġlinear": 2558,
      "RNA": 2559,
      "ired": 2560,
      "Ġtimes": 2561,
      "Ġcritical": 2562,
      "ante": 2563,
      "Ġnegative": 2564,
      "Ġcontext": 2565,
      "ĠÐ¸": 2566,
      "Ġpurpose": 2567,
      "Ġpractice": 2568,
      "Ġcryst": 2569,
      "Ġmedical": 2570,
      "ensive": 2571,
      "Ġ$": 2572,
      "201": 2573,
      "%.": 2574,
      "ĠUniversity": 2575,
      "ĠØ¯": 2576,
      "Ġvia": 2577,
      "Ġframework": 2578,
      "omb": 2579,
      "spec": 2580,
      "go": 2581,
      "Ġhighly": 2582,
      "ump": 2583,
      "gery": 2584,
      "Ġwhat": 2585,
      "lation": 2586,
      "ram": 2587,
      "Ġcomponents": 2588,
      "HO": 2589,
      "ĠDNA": 2590,
      "order": 2591,
      "Ġdas": 2592,
      "Ø´": 2593,
      "acc": 2594,
      "Ġshe": 2595,
      "Ġmembr": 2596,
      "roph": 2597,
      "Ð½Ð¸": 2598,
      "AB": 2599,
      "ilit": 2600,
      "Cl": 2601,
      "Ġlik": 2602,
      "Ġmake": 2603,
      "Ġdam": 2604,
      "Ġhistory": 2605,
      "Ġglobal": 2606,
      "Ġdoes": 2607,
      "Ġindicate": 2608,
      "eti": 2609,
      "...": 2610,
      "èĢ": 2611,
      "Ġgovern": 2612,
      "isation": 2613,
      "acts": 2614,
      "Ġefficient": 2615,
      "Ġinst": 2616,
      "bo": 2617,
      "RO": 2618,
      "Ġdetail": 2619,
      "unakan": 2620,
      "ense": 2621,
      "Ġlink": 2622,
      "Ġapproxim": 2623,
      "Ġdiss": 2624,
      "Ġsex": 2625,
      "Ġpain": 2626,
      "Ġespecially": 2627,
      "li": 2628,
      "Ġday": 2629,
      "Ġrapid": 2630,
      "Ġfer": 2631,
      "roscopy": 2632,
      "Ġcorrelation": 2633,
      "Ġbro": 2634,
      "Ġfund": 2635,
      "ãģ®": 2636,
      "Ġfeed": 2637,
      "Ġtraining": 2638,
      "Ġpenelitian": 2639,
      "ĠTr": 2640,
      "200": 2641,
      "Ġcomput": 2642,
      "ean": 2643,
      "Ġfunctions": 2644,
      "Ex": 2645,
      "More": 2646,
      "grad": 2647,
      "Ġinstit": 2648,
      "Ġrelative": 2649,
      "une": 2650,
      "**": 2651,
      "Ġ17": 2652,
      "Ġvon": 2653,
      "Ġmechanisms": 2654,
      "Ġexhib": 2655,
      "Ġsimulation": 2656,
      "Ġinterp": 2657,
      "Ġspecial": 2658,
      "Ġaffect": 2659,
      "Ġcertain": 2660,
      "Ø¹": 2661,
      "Ġlangu": 2662,
      "Ġconst": 2663,
      "Ġfree": 2664,
      "Ġvolume": 2665,
      "Ġstill": 2666,
      "time": 2667,
      "Ġdevice": 2668,
      "ify": 2669,
      "come": 2670,
      "Ġcomposition": 2671,
      "ert": 2672,
      "Ġalong": 2673,
      "Ġlimit": 2674,
      "ects": 2675,
      "operative": 2676,
      "utr": 2677,
      "roup": 2678,
      "Ġinfection": 2679,
      "Ġsw": 2680,
      "ourse": 2681,
      "Ġinvolved": 2682,
      "UL": 2683,
      "Wh": 2684,
      "Ġcycl": 2685,
      "Ġtransport": 2686,
      "hing": 2687,
      "inant": 2688,
      "enz": 2689,
      "æĺ¯": 2690,
      "Ġreduce": 2691,
      "ĠWe": 2692,
      "Ġenzym": 2693,
      "atur": 2694,
      "year": 2695,
      "position": 2696,
      "clud": 2697,
      "Ġbehavi": 2698,
      "Ġ11": 2699,
      "With": 2700,
      "Ġinitial": 2701,
      "Ġarg": 2702,
      "icial": 2703,
      "Ġplasma": 2704,
      "Ġlabor": 2705,
      "ographic": 2706,
      "Ġchemical": 2707,
      "Ġsubst": 2708,
      "St": 2709,
      "icity": 2710,
      "Ġrelev": 2711,
      "Ġcalc": 2712,
      "Ġheat": 2713,
      "Ġgenes": 2714,
      "Ġcoll": 2715,
      "Ġspect": 2716,
      "ID": 2717,
      "more": 2718,
      "Ġhom": 2719,
      "lamm": 2720,
      "CC": 2721,
      "Ġseries": 2722,
      "Ġtests": 2723,
      "Ġdispl": 2724,
      "Ġfew": 2725,
      "ĠÂ±": 2726,
      "dr": 2727,
      "ula": 2728,
      "ĠØ§Ø": 2729,
      "Un": 2730,
      "Ġmust": 2731,
      "Ġprofess": 2732,
      "Ġbacter": 2733,
      "Ġproduced": 2734,
      "Ġenvironmental": 2735,
      "Ġfa": 2736,
      "Ġâ": 2737,
      "Ġfamily": 2738,
      "Ġbuild": 2739,
      "itr": 2740,
      "sh": 2741,
      "Ġuseful": 2742,
      "Ġfu": 2743,
      "outh": 2744,
      "Ob": 2745,
      "Ġbus": 2746,
      "Ġcommunity": 2747,
      "ND": 2748,
      "Ġland": 2749,
      "Ġtested": 2750,
      "åį": 2751,
      "sis": 2752,
      "itivity": 2753,
      "ief": 2754,
      "rence": 2755,
      "ystem": 2756,
      "Ġpel": 2757,
      "Ġcatal": 2758,
      "Ġgrad": 2759,
      "inally": 2760,
      "igr": 2761,
      "Ġ198": 2762,
      "arent": 2763,
      "Ġqual": 2764,
      "Ġquantit": 2765,
      "Ġstage": 2766,
      "Ġsuccessful": 2767,
      "comes": 2768,
      "ids": 2769,
      "Ġdesigned": 2770,
      "äºĨ": 2771,
      "ologies": 2772,
      "Ġproducts": 2773,
      "Ġcommunication": 2774,
      "ote": 2775,
      "nov": 2776,
      "Ġelement": 2777,
      "Ġcollected": 2778,
      "Ġchann": 2779,
      "ä¸º": 2780,
      "Ġpercent": 2781,
      "Ġche": 2782,
      "RES": 2783,
      "aves": 2784,
      "La": 2785,
      "Ġwave": 2786,
      "æĿ": 2787,
      "Ġelectron": 2788,
      "Ġion": 2789,
      "Ġfood": 2790,
      "Ġcall": 2791,
      "Ġplace": 2792,
      "Ġstatus": 2793,
      "Ġlike": 2794,
      "âĢľ": 2795,
      "Ġexperience": 2796,
      "Ġmob": 2797,
      "Ġmice": 2798,
      "Ġcountries": 2799,
      "Ġclos": 2800,
      "imensional": 2801,
      "Ġnature": 2802,
      "Ġcaused": 2803,
      "Ġarch": 2804,
      "Ġear": 2805,
      "ras": 2806,
      "Ġvariables": 2807,
      "æŀ": 2808,
      "Ġexperi": 2809,
      "Ġpass": 2810,
      "Ġmort": 2811,
      "aran": 2812,
      "ë¥¼": 2813,
      "Ġschem": 2814,
      "Ġoperation": 2815,
      "Ġmonitor": 2816,
      "Ġinduced": 2817,
      "Ġchalleng": 2818,
      "Ġimportance": 2819,
      "GF": 2820,
      "Ġever": 2821,
      "ikan": 2822,
      "Ġ&": 2823,
      "Ġcop": 2824,
      "aan": 2825,
      "æľī": 2826,
      "Ġreli": 2827,
      "ÑĢÐµ": 2828,
      "èĥ": 2829,
      "orn": 2830,
      "Ġinform": 2831,
      "Ġdose": 2832,
      "Ġseb": 2833,
      "ching": 2834,
      "ĠØª": 2835,
      "ives": 2836,
      "Ġblock": 2837,
      "Ġprocessing": 2838,
      "Ĥ¬": 2839,
      "Ġos": 2840,
      "esis": 2841,
      "ymph": 2842,
      "60": 2843,
      "éĢ": 2844,
      "ĠMed": 2845,
      "ronic": 2846,
      "Ġpolicy": 2847,
      "apat": 2848,
      "ev": 2849,
      "Ġec": 2850,
      "arr": 2851,
      "ials": 2852,
      "Ġstrategies": 2853,
      "Although": 2854,
      "Ġcentral": 2855,
      "clusions": 2856,
      "40": 2857,
      "Ġcorrec": 2858,
      "ventional": 2859,
      "Ġhospital": 2860,
      "Ġselected": 2861,
      "Ġsatis": 2862,
      "sing": 2863,
      "ĠAmer": 2864,
      "Ġsubjects": 2865,
      "Ġmorph": 2866,
      "çĽ": 2867,
      "Ġlip": 2868,
      "ancy": 2869,
      "Ch": 2870,
      "Ġpresents": 2871,
      "Ġservice": 2872,
      "Ġchrom": 2873,
      "Ġsci": 2874,
      "ĠPh": 2875,
      "All": 2876,
      "Ġassessment": 2877,
      "Ġspati": 2878,
      "Ġcharacterized": 2879,
      "Ġprep": 2880,
      "åĨ": 2881,
      "Ġmagnetic": 2882,
      "Ġthus": 2883,
      "Ġmm": 2884,
      "Ġsurgery": 2885,
      "Ġproduct": 2886,
      "Ġsince": 2887,
      "En": 2888,
      "ze": 2889,
      "equ": 2890,
      "Ġlength": 2891,
      "ĠII": 2892,
      "Ġcou": 2893,
      "Ġchem": 2894,
      "Ġcriter": 2895,
      "Ad": 2896,
      "Ġopen": 2897,
      "Ġmedia": 2898,
      "ocyt": 2899,
      "Ġsurvival": 2900,
      "odes": 2901,
      "Ġmes": 2902,
      "Ġcombination": 2903,
      "ĠCD": 2904,
      "ìļ": 2905,
      "uj": 2906,
      "isis": 2907,
      "tives": 2908,
      "Ġlaw": 2909,
      "Ġinclude": 2910,
      "Ġarter": 2911,
      "Ġens": 2912,
      "Ġacross": 2913,
      "Ġaccuracy": 2914,
      "Ġsuff": 2915,
      "encia": 2916,
      "Ġtub": 2917,
      "Ġprior": 2918,
      "Ġproject": 2919,
      "Ġdil": 2920,
      "Ġmaximum": 2921,
      "Ġbase": 2922,
      "Ġestablished": 2923,
      "Ġhistor": 2924,
      "Ġissues": 2925,
      "Conclusion": 2926,
      "Ġdecrease": 2927,
      "åĩ": 2928,
      "uble": 2929,
      "å·": 2930,
      "Ġbrain": 2931,
      "Ġstability": 2932,
      "Ġcat": 2933,
      "Ø§Ø±": 2934,
      "Ġcause": 2935,
      "ĠHe": 2936,
      ")-": 2937,
      "Ġconstit": 2938,
      "Ġfollowed": 2939,
      "Ġfo": 2940,
      "Ġthermal": 2941,
      "Ġregul": 2942,
      "Ġvisual": 2943,
      "Ġadalah": 2944,
      "day": 2945,
      "].": 2946,
      "enced": 2947,
      "Ġdemonstrate": 2948,
      "edi": 2949,
      "Ġproteins": 2950,
      "Ġscre": 2951,
      "Ġcho": 2952,
      "è§": 2953,
      "ED": 2954,
      "ways": 2955,
      "Ġlimited": 2956,
      "SA": 2957,
      "Ġcapacity": 2958,
      "Ġ40": 2959,
      "ii": 2960,
      "Ġparti": 2961,
      "Ġservices": 2962,
      "asis": 2963,
      "astic": 2964,
      "Ġfive": 2965,
      "Ġdetected": 2966,
      "Ġoutcomes": 2967,
      "Ġapproaches": 2968,
      "Ġoverall": 2969,
      "related": 2970,
      "ĠEurop": 2971,
      "æĢ§": 2972,
      "Ġprol": 2973,
      "Ġstructural": 2974,
      "Ġeas": 2975,
      "Ġextract": 2976,
      "Ġsyn": 2977,
      "Ã¼": 2978,
      "Ġrecomm": 2979,
      "Ġanalyses": 2980,
      "ÃŃ": 2981,
      "Ġdetect": 2982,
      "ateral": 2983,
      "Ġpatterns": 2984,
      "Ð¹": 2985,
      "Ġtransition": 2986,
      "Ġfore": 2987,
      "Ġdown": 2988,
      "artic": 2989,
      "Ġhal": 2990,
      "ring": 2991,
      "Ġoxid": 2992,
      "å¾": 2993,
      "æ³": 2994,
      "Ð¾Ð³": 2995,
      "Ġsolutions": 2996,
      "Cs": 2997,
      "Ġmight": 2998,
      "Ġvs": 2999,
      "Ġmeasures": 3000,
      "ama": 3001,
      "ìłģ": 3002,
      "Ġelements": 3003,
      "Ġengine": 3004,
      "å±": 3005,
      "Ġcompr": 3006,
      "çİ": 3007,
      "ires": 3008,
      "Ġhypot": 3009,
      "Ġserum": 3010,
      "induced": 3011,
      "wh": 3012,
      "ìĦľ": 3013,
      "Ġvi": 3014,
      "tiveness": 3015,
      "Ð½Ð¾": 3016,
      "Ġarr": 3017,
      "CON": 3018,
      "Ġpour": 3019,
      "ck": 3020,
      "Ġbecome": 3021,
      "Ġsite": 3022,
      "rix": 3023,
      "Ġheter": 3024,
      "95": 3025,
      "ando": 3026,
      "Ġë°": 3027,
      "Ġcomparison": 3028,
      "By": 3029,
      "Ġoil": 3030,
      "Ġregions": 3031,
      "Therefore": 3032,
      "à¸²": 3033,
      "pers": 3034,
      "Ã¡": 3035,
      "idade": 3036,
      "Ġur": 3037,
      "Ġsites": 3038,
      "å¸": 3039,
      "Ġadministr": 3040,
      "Ġamount": 3041,
      "çĶŁ": 3042,
      "Ġsubstr": 3043,
      "Ġstrategy": 3044,
      "Ġtool": 3045,
      "Ġunit": 3046,
      "Ġlit": 3047,
      "Ġstrength": 3048,
      "Ġliqu": 3049,
      "Ġindicated": 3050,
      "ij": 3051,
      "After": 3052,
      "SION": 3053,
      "pects": 3054,
      "Ġconcern": 3055,
      "Ġlack": 3056,
      "Ġexample": 3057,
      "Ġcos": 3058,
      "ye": 3059,
      "CO": 3060,
      "Ġsurvey": 3061,
      "Ġauthor": 3062,
      "Ġexisting": 3063,
      "Ġrele": 3064,
      "Ġnecessary": 3065,
      "Ġmac": 3066,
      "ygen": 3067,
      "Ġultr": 3068,
      "ention": 3069,
      "Ġprocedure": 3070,
      "ios": 3071,
      "Ġresources": 3072,
      "hic": 3073,
      "Ġsevere": 3074,
      "Ġcoeff": 3075,
      "ton": 3076,
      "Ġdari": 3077,
      "Ġcas": 3078,
      "ìľ¼": 3079,
      "Ġsoftware": 3080,
      "olar": 3081,
      "Ġadvant": 3082,
      "ìĭ": 3083,
      "orth": 3084,
      "Ġmagn": 3085,
      "pri": 3086,
      "Ġdescrip": 3087,
      "otherap": 3088,
      "ukan": 3089,
      "Ġcontrast": 3090,
      "Ġscale": 3091,
      "ords": 3092,
      "Ġtransform": 3093,
      "encies": 3094,
      "ĠCI": 3095,
      "aling": 3096,
      "atives": 3097,
      "ç§": 3098,
      "Ġauthors": 3099,
      "Ġlanguage": 3100,
      "Ġhaving": 3101,
      "22": 3102,
      "Furthermore": 3103,
      "Ġred": 3104,
      "Ġlymph": 3105,
      "êµ": 3106,
      "Ġgenetic": 3107,
      "omes": 3108,
      "inter": 3109,
      "Ġdegree": 3110,
      "Ġmak": 3111,
      "Ġoptimal": 3112,
      "Ġmid": 3113,
      "RI": 3114,
      "Ø©": 3115,
      "Ġ95": 3116,
      "Ġconver": 3117,
      "CI": 3118,
      "Ġsymptoms": 3119,
      "ëı": 3120,
      "Ġrats": 3121,
      "001": 3122,
      "Ġadop": 3123,
      "but": 3124,
      "Ġtraditional": 3125,
      "Ġdifficult": 3126,
      "Ġimages": 3127,
      "Ġinhibit": 3128,
      "overy": 3129,
      "Ġcombined": 3130,
      "medi": 3131,
      "æ°": 3132,
      "rome": 3133,
      "like": 3134,
      "ories": 3135,
      "alle": 3136,
      "Ġevents": 3137,
      "çī": 3138,
      "aren": 3139,
      "Ġteac": 3140,
      "Ġmode": 3141,
      "Ġwhereas": 3142,
      "ream": 3143,
      "rem": 3144,
      "Ġincreases": 3145,
      "Ġmeasurement": 3146,
      "CD": 3147,
      "ili": 3148,
      "Ġê°": 3149,
      "Ùģ": 3150,
      "Ġevolution": 3151,
      "Ġindividuals": 3152,
      "Ġside": 3153,
      "ĠCl": 3154,
      "Ġdiab": 3155,
      "Ġaccount": 3156,
      "Here": 3157,
      "ê³ł": 3158,
      "ĠEng": 3159,
      "ective": 3160,
      "apter": 3161,
      "urity": 3162,
      "Ġbook": 3163,
      "Ġfailure": 3164,
      "ho": 3165,
      "Ġreceived": 3166,
      "Ġschool": 3167,
      "ressive": 3168,
      "Ã§": 3169,
      "Ġperson": 3170,
      "rob": 3171,
      "adas": 3172,
      "imin": 3173,
      "erve": 3174,
      "Ġ60": 3175,
      "omer": 3176,
      "One": 3177,
      "Ġabove": 3178,
      "Ġachieved": 3179,
      "Ġoptical": 3180,
      "elec": 3181,
      "Ġimplementation": 3182,
      "for": 3183,
      "ÑĢÐ¸": 3184,
      "Ġattention": 3185,
      "Ġcomponent": 3186,
      "Ġmetal": 3187,
      "gical": 3188,
      "Ġcalculated": 3189,
      "Ġfix": 3190,
      "70": 3191,
      "Ġaddress": 3192,
      "izes": 3193,
      "MA": 3194,
      "set": 3195,
      "Ġdecision": 3196,
      "Ġdeath": 3197,
      "Ġdiseases": 3198,
      "ured": 3199,
      "Ġappropri": 3200,
      "resh": 3201,
      "å¯¹": 3202,
      "Ġestud": 3203,
      "CLU": 3204,
      "%),": 3205,
      "ocy": 3206,
      "Ġcompounds": 3207,
      "Ġsed": 3208,
      "Ġbar": 3209,
      "Ġresponses": 3210,
      "24": 3211,
      "mm": 3212,
      "Ġtheoretical": 3213,
      "ĠSp": 3214,
      "Ġderived": 3215,
      "Ġlikely": 3216,
      "Ġmach": 3217,
      "Ġspeed": 3218,
      "Ġlast": 3219,
      "Ġclus": 3220,
      "Ġmar": 3221,
      "à¹": 3222,
      "Ġdescribe": 3223,
      "Ġsources": 3224,
      "Ġampl": 3225,
      "angan": 3226,
      "orpor": 3227,
      "Ġha": 3228,
      "CA": 3229,
      "gl": 3230,
      "ems": 3231,
      "PA": 3232,
      "à¸²à¸": 3233,
      "Ġable": 3234,
      "æī": 3235,
      "ologic": 3236,
      "Ġconventional": 3237,
      "umin": 3238,
      "Ġliver": 3239,
      "ida": 3240,
      "Ġsix": 3241,
      "Ġexposure": 3242,
      "kg": 3243,
      "Ġbone": 3244,
      "aring": 3245,
      "Ġchronic": 3246,
      "21": 3247,
      "tib": 3248,
      "Ġmortality": 3249,
      "Ġpropose": 3250,
      "Ġtesting": 3251,
      "Ġinput": 3252,
      "23": 3253,
      "ê³¼": 3254,
      "Ġax": 3255,
      "CLUSION": 3256,
      "Ġright": 3257,
      "Ġdivers": 3258,
      "Ġaspects": 3259,
      "ican": 3260,
      "Ġacute": 3261,
      "Ġmedi": 3262,
      "emp": 3263,
      "Ġrest": 3264,
      "hest": 3265,
      "etr": 3266,
      "Ġaction": 3267,
      "Ġfat": 3268,
      "atin": 3269,
      "Based": 3270,
      "si": 3271,
      "Ġimaging": 3272,
      "å½": 3273,
      "ĠÎ¼": 3274,
      "not": 3275,
      "Ġmaintain": 3276,
      "lished": 3277,
      "Ġground": 3278,
      "Ġdimens": 3279,
      "Ġimprovement": 3280,
      "çĶ¨": 3281,
      "Finally": 3282,
      "ĠÐº": 3283,
      "Ġown": 3284,
      "itable": 3285,
      "Ġobjective": 3286,
      "Ġpreval": 3287,
      "Ġactivation": 3288,
      "ef": 3289,
      "Thus": 3290,
      "Ġvel": 3291,
      "Ġbasic": 3292,
      "aff": 3293,
      "Ġthough": 3294,
      "Ġresulting": 3295,
      "Ġpolymer": 3296,
      "Ġthick": 3297,
      "Ġpreviously": 3298,
      "Ġstates": 3299,
      "use": 3300,
      "tices": 3301,
      "otor": 3302,
      "Ġmedium": 3303,
      "went": 3304,
      "Ġdefined": 3305,
      "Ġrespond": 3306,
      "Ġvirus": 3307,
      "Īĺ": 3308,
      "Ġmembrane": 3309,
      "æµ": 3310,
      "Ġdon": 3311,
      "Ġou": 3312,
      "When": 3313,
      "ope": 3314,
      "ULTS": 3315,
      "Ġsensitivity": 3316,
      "Ġguid": 3317,
      "Ġdefin": 3318,
      "ulin": 3319,
      "oes": 3320,
      "Ġcorresponding": 3321,
      "ja": 3322,
      "ey": 3323,
      "Ġparticipants": 3324,
      "CONCLUSION": 3325,
      "ots": 3326,
      "ades": 3327,
      "ungen": 3328,
      "Ġdeveloping": 3329,
      "Ġpoints": 3330,
      "æł": 3331,
      "ÙĤ": 3332,
      "Î¹": 3333,
      "Ġrev": 3334,
      "Ġdifferenti": 3335,
      "by": 3336,
      "Ġreceptor": 3337,
      "Ġpoor": 3338,
      "Ġcomplete": 3339,
      "Ġnow": 3340,
      "Ġ'": 3341,
      "Ã£": 3342,
      "trans": 3343,
      "Ġconstruction": 3344,
      "Ġhard": 3345,
      "etes": 3346,
      "Ġupon": 3347,
      "Ġinteractions": 3348,
      "Ġê²": 3349,
      "Ġaround": 3350,
      "Ġneeds": 3351,
      "Ġaffected": 3352,
      "dimensional": 3353,
      "urban": 3354,
      "Ġcateg": 3355,
      "Ġpast": 3356,
      "Moreover": 3357,
      "Ġtaken": 3358,
      "Ġmedic": 3359,
      "ê¸°": 3360,
      "EL": 3361,
      "ternal": 3362,
      "Ġmatrix": 3363,
      "Ġfinanc": 3364,
      "aries": 3365,
      "Ġassociation": 3366,
      "Ġassessed": 3367,
      "Ġlab": 3368,
      "Ġtransmission": 3369,
      "Ġcourse": 3370,
      "ime": 3371,
      "Ġevery": 3372,
      "Ġsuggested": 3373,
      "iological": 3374,
      "hetic": 3375,
      "artment": 3376,
      "ouse": 3377,
      "Ġ/": 3378,
      "Ġtox": 3379,
      "Ġenhance": 3380,
      "Ġcontaining": 3381,
      "Ġcardi": 3382,
      "æĬ": 3383,
      "åĪĨ": 3384,
      "Ġbroad": 3385,
      "Ġphenomen": 3386,
      "brid": 3387,
      "Ġparticularly": 3388,
      "ulate": 3389,
      "Ġsequence": 3390,
      "Ġleft": 3391,
      "Ġspatial": 3392,
      "Î¿": 3393,
      "Ġindependent": 3394,
      "Ġamb": 3395,
      "Ġinternal": 3396,
      "Ġoutput": 3397,
      "Ġbiom": 3398,
      "Ġmainly": 3399,
      "Ġant": 3400,
      "Ġmale": 3401,
      "Ġrot": 3402,
      "ift": 3403,
      "Ġbinding": 3404,
      "80": 3405,
      "Ġrob": 3406,
      "Ġsafety": 3407,
      "ĠpH": 3408,
      "Ġsa": 3409,
      "Ð½Ñĭ": 3410,
      "Ġcontinuous": 3411,
      "Ġnetworks": 3412,
      "Ð¾Ð´": 3413,
      "Ñİ": 3414,
      "Ġindustry": 3415,
      "ä½ľ": 3416,
      "Ġteaching": 3417,
      "Ð³": 3418,
      "raf": 3419,
      "ÑĤÐµ": 3420,
      "Ġliquid": 3421,
      "eding": 3422,
      "åĮĸ": 3423,
      "Ġplate": 3424,
      "Ã£o": 3425,
      "otyp": 3426,
      "Ġrang": 3427,
      "Ġtherefore": 3428,
      "gn": 3429,
      "Â·": 3430,
      "Ġpropor": 3431,
      "yst": 3432,
      "rete": 3433,
      "Ġformed": 3434,
      "Ġperce": 3435,
      "linear": 3436,
      "know": 3437,
      "earc": 3438,
      "äºº": 3439,
      "Using": 3440,
      "ETHO": 3441,
      "Ġdomain": 3442,
      "RESULTS": 3443,
      "ipl": 3444,
      "Ġessential": 3445,
      "icht": 3446,
      "ê°Ģ": 3447,
      "ka": 3448,
      "Ġmodern": 3449,
      "Ġfluid": 3450,
      "Ġvariation": 3451,
      "aria": 3452,
      "Se": 3453,
      "Ġsatisf": 3454,
      "Ġyoun": 3455,
      "Ġacqu": 3456,
      "Ġnational": 3457,
      "Ġconstant": 3458,
      "Ġachieve": 3459,
      "Ġmonitoring": 3460,
      "imet": 3461,
      "isti": 3462,
      "urrent": 3463,
      "Ġsynd": 3464,
      "Ġstar": 3465,
      "ÑĤÐ¸": 3466,
      "Ġsch": 3467,
      "ident": 3468,
      "Des": 3469,
      "Ġprevent": 3470,
      "Ġweeks": 3471,
      "Ġgeneration": 3472,
      "Ġconsequ": 3473,
      "Ġveloc": 3474,
      "ĠBr": 3475,
      "Ġrelation": 3476,
      "Ġsynthesis": 3477,
      "ido": 3478,
      "Ġsustain": 3479,
      "eutic": 3480,
      "Ġhighest": 3481,
      "Ġoxygen": 3482,
      "IT": 3483,
      "ections": 3484,
      "åıĳ": 3485,
      "emia": 3486,
      "Ġband": 3487,
      "Ð»ÑĮ": 3488,
      "Ġrelevant": 3489,
      "åĽ½": 3490,
      "Ð¾Ð»": 3491,
      "Ġsecondary": 3492,
      "Ġbio": 3493,
      ");": 3494,
      "âĢĮ": 3495,
      "cence": 3496,
      "elling": 3497,
      "opath": 3498,
      "Ġplus": 3499,
      "amine": 3500,
      "otherapy": 3501,
      "Ġvolt": 3502,
      "ĠCon": 3503,
      "Ġheart": 3504,
      "ĠTo": 3505,
      "Ġprepared": 3506,
      "Ġseen": 3507,
      "Ġdistinc": 3508,
      "cy": 3509,
      "å¤§": 3510,
      "Ġpolitical": 3511,
      "Ġreference": 3512,
      "Ġvitro": 3513,
      "Ġinflamm": 3514,
      "Ġautom": 3515,
      "ese": 3516,
      "ĠEx": 3517,
      "unction": 3518,
      "Ġfull": 3519,
      "Ġforms": 3520,
      "otype": 3521,
      "Ú¯": 3522,
      "vent": 3523,
      "ĠCa": 3524,
      "Ġprepar": 3525,
      "terior": 3526,
      "anol": 3527,
      "ungs": 3528,
      "ending": 3529,
      "Ġdynamics": 3530,
      "Ġwide": 3531,
      "mic": 3532,
      "off": 3533,
      "Ġselection": 3534,
      "rup": 3535,
      "Ġrepro": 3536,
      "itect": 3537,
      "odies": 3538,
      "Ġplants": 3539,
      "apan": 3540,
      "ĠChina": 3541,
      "Ġadditional": 3542,
      "ackground": 3543,
      "ìľ¼ë¡ľ": 3544,
      "Ġsolid": 3545,
      "åŁ": 3546,
      "Ġmechanical": 3547,
      "Ġcogn": 3548,
      "ĠIs": 3549,
      "eline": 3550,
      "Ġdiet": 3551,
      "Ġfract": 3552,
      "They": 3553,
      "ĠAd": 3554,
      "Ġhead": 3555,
      "Ġexamine": 3556,
      "Ġbiological": 3557,
      "ato": 3558,
      "75": 3559,
      "ĠÐ´": 3560,
      "æĶ": 3561,
      "Ġrelatively": 3562,
      "itude": 3563,
      "CS": 3564,
      "ui": 3565,
      "Ġnam": 3566,
      "Ġreason": 3567,
      "Ġtrend": 3568,
      "ĮĢ": 3569,
      "Ġzu": 3570,
      "ogenic": 3571,
      "Ġsuggests": 3572,
      "Ġrather": 3573,
      "Ġtext": 3574,
      "No": 3575,
      "Ġconstruc": 3576,
      "pha": 3577,
      "dom": 3578,
      "igen": 3579,
      "Ġhere": 3580,
      "ometric": 3581,
      "Ġgluc": 3582,
      "rehen": 3583,
      "éĿ": 3584,
      "ĠFe": 3585,
      "che": 3586,
      "Ġappropriate": 3587,
      "ĠSch": 3588,
      "Ġneur": 3589,
      "Ġpredict": 3590,
      "ìĦ±": 3591,
      "Ġ)": 3592,
      "100": 3593,
      "Ġdamage": 3594,
      "................................................................": 3595,
      "Ġlat": 3596,
      "Ġpeak": 3597,
      "istem": 3598,
      "Ġdocument": 3599,
      "Ġdevices": 3600,
      "Ġlaser": 3601,
      "oss": 3602,
      "Ġcomputer": 3603,
      "Ġtend": 3604,
      "Ġregression": 3605,
      "hydro": 3606,
      "Ġmetabol": 3607,
      "type": 3608,
      "Ġpros": 3609,
      "çĲ": 3610,
      "ĠThis": 3611,
      "ĠÎ±": 3612,
      "CH": 3613,
      "Ġtoget": 3614,
      "ì§Ģ": 3615,
      "IR": 3616,
      "tide": 3617,
      "Ġurban": 3618,
      "Ġtogether": 3619,
      "Ġsetting": 3620,
      "ura": 3621,
      "ëĲ": 3622,
      "entific": 3623,
      "ĠLe": 3624,
      "Ġinternational": 3625,
      "rees": 3626,
      "____": 3627,
      "Ġgenerated": 3628,
      "Ġallows": 3629,
      "dependent": 3630,
      "%).": 3631,
      "had": 3632,
      "Rec": 3633,
      "Ġneeded": 3634,
      "Ġisolated": 3635,
      "Ġwhole": 3636,
      "mentation": 3637,
      "Ġprogramm": 3638,
      "acement": 3639,
      "ĠMet": 3640,
      "Ġstor": 3641,
      "Ġson": 3642,
      "Ġforce": 3643,
      "Ġconsumption": 3644,
      "pite": 3645,
      "ference": 3646,
      "Ġfemale": 3647,
      "anal": 3648,
      "Ġinnov": 3649,
      "ãģ«": 3650,
      "Ġintroduced": 3651,
      "Ġdeliver": 3652,
      "Ġcycle": 3653,
      "Ġnear": 3654,
      "Ġhep": 3655,
      "35": 3656,
      "Ġnutr": 3657,
      "Ġincidence": 3658,
      "Ġeffectiveness": 3659,
      "Ġfinal": 3660,
      "nya": 3661,
      "Î²": 3662,
      "Ġcriteria": 3663,
      "Ġagg": 3664,
      "ĥģ": 3665,
      "/-": 3666,
      "water": 3667,
      "ills": 3668,
      "ë³": 3669,
      "itas": 3670,
      "Ġrespect": 3671,
      "ìĿĢ": 3672,
      "Ġorganic": 3673,
      "aged": 3674,
      "26": 3675,
      "Ġclim": 3676,
      "----": 3677,
      "Ġbeam": 3678,
      "ĠCo": 3679,
      "Ġestimated": 3680,
      "Ġerror": 3681,
      "Ġpotenti": 3682,
      "Ġhab": 3683,
      "Ġnumerical": 3684,
      "Ġwind": 3685,
      "Ġvehic": 3686,
      "Ġorganization": 3687,
      "icacy": 3688,
      "Ġorient": 3689,
      "ellular": 3690,
      "Ġincorpor": 3691,
      "most": 3692,
      "ä»¥": 3693,
      "Ġstable": 3694,
      "Î¼": 3695,
      "ques": 3696,
      "Ġbusiness": 3697,
      "Ġwrit": 3698,
      "Ġalternative": 3699,
      "Ġqui": 3700,
      "atif": 3701,
      "Ġcontact": 3702,
      "era": 3703,
      "hal": 3704,
      "Ġoutcome": 3705,
      "Ġmigr": 3706,
      "Ġsearch": 3707,
      "ION": 3708,
      "ĠĠĠĠ": 3709,
      "Ġfilm": 3710,
      "Ġuser": 3711,
      "PP": 3712,
      "Ġvariety": 3713,
      "Ġresearc": 3714,
      "aced": 3715,
      "Ġbal": 3716,
      "ETHODS": 3717,
      "Ġauf": 3718,
      "Ġwall": 3719,
      "Conclusions": 3720,
      "å¿": 3721,
      "Ġsubject": 3722,
      "sub": 3723,
      "Ġparticles": 3724,
      "Ġanalyze": 3725,
      "Ġtowards": 3726,
      "omal": 3727,
      "Ġillustr": 3728,
      "Î½": 3729,
      "ux": 3730,
      "90": 3731,
      "Ġbir": 3732,
      "version": 3733,
      "ytic": 3734,
      "Ġcontrols": 3735,
      "ä¸į": 3736,
      "Ġstrain": 3737,
      "28": 3738,
      "Ġissue": 3739,
      "co": 3740,
      "Ġkind": 3741,
      "Ġdys": 3742,
      "Ġcm": 3743,
      "ØĮ": 3744,
      "ìķ": 3745,
      "Ġflex": 3746,
      "Ġweak": 3747,
      "ilities": 3748,
      "Ġsob": 3749,
      "atric": 3750,
      "Ġlittle": 3751,
      "Ġregarding": 3752,
      "ivo": 3753,
      "Ġclear": 3754,
      "ĠIL": 3755,
      "Ġsubsequ": 3756,
      "iting": 3757,
      "Ġdone": 3758,
      "Ġdigital": 3759,
      "Pro": 3760,
      "æŃ": 3761,
      "Two": 3762,
      "ocytes": 3763,
      "cal": 3764,
      "Ġkin": 3765,
      "Ġ21": 3766,
      "Ġprotoc": 3767,
      "plication": 3768,
      "specific": 3769,
      "Ġelev": 3770,
      "ĠÙĨ": 3771,
      "Ø¬": 3772,
      "Ġdirectly": 3773,
      "RP": 3774,
      "iles": 3775,
      "å¹´": 3776,
      "ĠAf": 3777,
      "Ġexpected": 3778,
      "Ġtranscrip": 3779,
      "igur": 3780,
      "Ð¾Ð¼": 3781,
      "Ã³n": 3782,
      "zy": 3783,
      "Ġrare": 3784,
      "Ġlines": 3785,
      "Ġradiation": 3786,
      "Ġagr": 3787,
      "ember": 3788,
      "Ġattrib": 3789,
      "ĠIntern": 3790,
      "raw": 3791,
      "Ġcore": 3792,
      "ero": 3793,
      "Ġmuscle": 3794,
      "Ġlarger": 3795,
      "vol": 3796,
      "Ġinvestigation": 3797,
      "Ġdiagnostic": 3798,
      "æİ": 3799,
      "Ġgraph": 3800,
      "Ġdemand": 3801,
      "certain": 3802,
      "Ġ>": 3803,
      "MI": 3804,
      "ĠPr": 3805,
      "ÐµÐ½Ð¸": 3806,
      "ÑĤÐ°": 3807,
      "Ġmaking": 3808,
      "Ġdivid": 3809,
      "éĻ": 3810,
      "Ġseed": 3811,
      "Ġpriv": 3812,
      "Ġbreast": 3813,
      "Ġfundament": 3814,
      "è¦": 3815,
      "Ġcut": 3816,
      "Ġrun": 3817,
      "Ġcontrolled": 3818,
      "45": 3819,
      "Ġmer": 3820,
      "Ġgly": 3821,
      "Ġconfirmed": 3822,
      "ufact": 3823,
      "Ġmengg": 3824,
      "ÑĦ": 3825,
      "PD": 3826,
      "Ġsurgical": 3827,
      "Ġworking": 3828,
      "Ġscheme": 3829,
      "Ġdeb": 3830,
      "Ġpregn": 3831,
      "tual": 3832,
      "Ð¾ÑĢ": 3833,
      "33": 3834,
      "ometry": 3835,
      "Ġenhanced": 3836,
      "Ġproduce": 3837,
      "ements": 3838,
      "Ġintervention": 3839,
      "alk": 3840,
      "ĠAb": 3841,
      "estern": 3842,
      "aro": 3843,
      "Ġnorm": 3844,
      "Ġirr": 3845,
      "ĠFr": 3846,
      "erate": 3847,
      "Ġpractical": 3848,
      "While": 3849,
      "Ġagre": 3850,
      "Ġrol": 3851,
      "portun": 3852,
      "oplas": 3853,
      "Am": 3854,
      "27": 3855,
      "change": 3856,
      "ario": 3857,
      "Ġvariable": 3858,
      "Ġsyndrome": 3859,
      "Ġinjury": 3860,
      "ÏĦ": 3861,
      "cont": 3862,
      "Ġcompeti": 3863,
      "Ġcultural": 3864,
      "back": 3865,
      "lim": 3866,
      "yro": 3867,
      "Ġtools": 3868,
      "Ġfraction": 3869,
      "Ġoccurred": 3870,
      "Ġpharm": 3871,
      "Ġtask": 3872,
      "Ġchannel": 3873,
      "ØŃ": 3874,
      "ĠÐ¼": 3875,
      "di": 3876,
      "ci": 3877,
      "ĠDE": 3878,
      "hern": 3879,
      "organ": 3880,
      "Ġsensor": 3881,
      "Ġcorrelated": 3882,
      "Ġscore": 3883,
      "Ġpublished": 3884,
      "Ġevent": 3885,
      "Ġcarcin": 3886,
      "Ġparameter": 3887,
      "raz": 3888,
      "CP": 3889,
      "Ġincludes": 3890,
      "ochemical": 3891,
      "ĠCol": 3892,
      "Ġrequirements": 3893,
      "lish": 3894,
      "Ġbond": 3895,
      "Ġhighl": 3896,
      "col": 3897,
      "allel": 3898,
      "Ġcomprehen": 3899,
      "Ġanimals": 3900,
      "Ġrecently": 3901,
      "Ġgovernment": 3902,
      "El": 3903,
      "Ġorigin": 3904,
      "istry": 3905,
      "ipp": 3906,
      "Ġleading": 3907,
      "Ġhealthy": 3908,
      "irst": 3909,
      "ê²": 3910,
      "Ġchallenges": 3911,
      "Ã¢": 3912,
      "pled": 3913,
      "Ġuma": 3914,
      "Ġaims": 3915,
      "Ġagents": 3916,
      "Ø²": 3917,
      "orders": 3918,
      "Ġann": 3919,
      "ĠìŀĪ": 3920,
      "Ġdistance": 3921,
      "arily": 3922,
      "Ġresulted": 3923,
      "SP": 3924,
      "èĤ": 3925,
      "ĠSh": 3926,
      "ares": 3927,
      "ict": 3928,
      "Ġfast": 3929,
      "ĠDe": 3930,
      "iform": 3931,
      "ãĤĭ": 3932,
      "æĸ¹": 3933,
      "Ġsuitable": 3934,
      "abric": 3935,
      "Ġalgorithms": 3936,
      "Ġdeep": 3937,
      "Ġintensity": 3938,
      "Ġuses": 3939,
      "Ġsection": 3940,
      "Ġstatistical": 3941,
      "Ġinterpret": 3942,
      "Ġdrugs": 3943,
      "ingk": 3944,
      "çĲĨ": 3945,
      "Ġsumm": 3946,
      "ĠìĹ": 3947,
      "uments": 3948,
      "Ġcere": 3949,
      "tra": 3950,
      "è¡Į": 3951,
      "normal": 3952,
      "ECT": 3953,
      "Ġupper": 3954,
      "Ġarchitect": 3955,
      "Ġtherapeutic": 3956,
      "Ġturn": 3957,
      "Ġdirection": 3958,
      "Ġmodified": 3959,
      "Ġ%": 3960,
      "Ġbehaviour": 3961,
      "âĢ¯": 3962,
      "Ġdegrad": 3963,
      "anti": 3964,
      "ĠGr": 3965,
      "CM": 3966,
      "ĠOr": 3967,
      "Ġexternal": 3968,
      "Ġclassification": 3969,
      "Ġreson": 3970,
      "Ġidentification": 3971,
      "Ġtrab": 3972,
      "æĪĲ": 3973,
      "Ġconsistent": 3974,
      "Ġold": 3975,
      "Ð¾Ð±": 3976,
      "agen": 3977,
      "elle": 3978,
      "ÑģÐº": 3979,
      "åİ": 3980,
      "Ġstorage": 3981,
      "ï½": 3982,
      "Ġopportun": 3983,
      "atients": 3984,
      "Ġgive": 3985,
      "Ġtake": 3986,
      "ĠVer": 3987,
      "Ġempir": 3988,
      "icon": 3989,
      "Ġbeg": 3990,
      "Ġequation": 3991,
      "aily": 3992,
      "æ³ķ": 3993,
      "AM": 3994,
      "Ġcompare": 3995,
      "Es": 3996,
      "gi": 3997,
      "ĠAc": 3998,
      "éĹ": 3999,
      "Ġchlor": 4000,
      "Ġdatab": 4001,
      "Ġthird": 4002,
      "Ġfav": 4003,
      "Ġfinancial": 4004,
      "Ġelectronic": 4005,
      "Ġbah": 4006,
      "Ġmenggunakan": 4007,
      "ë¦": 4008,
      "Tr": 4009,
      "Ġexplore": 4010,
      "Ġchain": 4011,
      "Ġwidely": 4012,
      "Ġcolon": 4013,
      "Ġlung": 4014,
      "Ġconserv": 4015,
      "no": 4016,
      "è¾": 4017,
      "Ġpractices": 4018,
      "Ġmembers": 4019,
      "Ġexpressed": 4020,
      "Ġeine": 4021,
      "Ġaud": 4022,
      "SS": 4023,
      "Ã¶": 4024,
      "Ġparts": 4025,
      "ĠNew": 4026,
      "Ġaccum": 4027,
      "ga": 4028,
      "Ġcauses": 4029,
      "íĻ": 4030,
      "tivation": 4031,
      "Ġalthough": 4032,
      "Ġinterview": 4033,
      "Ġacad": 4034,
      "Ġenzyme": 4035,
      "oxid": 4036,
      "Ġmanufact": 4037,
      "ä¾": 4038,
      "ìĿ¸": 4039,
      "Objective": 4040,
      "oral": 4041,
      "Ġusers": 4042,
      "Ġemph": 4043,
      "Ġtempor": 4044,
      "entric": 4045,
      "Ġdescribes": 4046,
      "la": 4047,
      "Ġestablish": 4048,
      "Ġfarm": 4049,
      "29": 4050,
      "He": 4051,
      "Ġskin": 4052,
      "Ġfacilit": 4053,
      "Ġremains": 4054,
      "iento": 4055,
      "tering": 4056,
      "aci": 4057,
      "Ġprevalence": 4058,
      "Ġadult": 4059,
      "Ġ28": 4060,
      "Ġlig": 4061,
      "Ġce": 4062,
      "Ġprograms": 4063,
      "£à¸": 4064,
      "Ġpack": 4065,
      "Ġinvest": 4066,
      "aft": 4067,
      "Ġvelocity": 4068,
      "Ġavoid": 4069,
      "Ð»Ð¸": 4070,
      "Ġten": 4071,
      "Ġfields": 4072,
      "Ġ80": 4073,
      "Ġequations": 4074,
      "Ġunique": 4075,
      "ameter": 4076,
      "IL": 4077,
      "Ġcomplications": 4078,
      "Ġtax": 4079,
      "Ġrelease": 4080,
      "ultaneous": 4081,
      "Ġremov": 4082,
      "faces": 4083,
      "Ġvoltage": 4084,
      "æĸĩ": 4085,
      "ĠComm": 4086,
      "Ġprocedures": 4087,
      "Ġil": 4088,
      "Ġexpress": 4089,
      "Ġrepl": 4090,
      "ogenesis": 4091,
      "Ġassum": 4092,
      "Ġextent": 4093,
      "known": 4094,
      "Ġquantitative": 4095,
      "ä½ĵ": 4096,
      "Ġist": 4097,
      "Ġexamination": 4098,
      "dle": 4099,
      "Ġnoise": 4100,
      "Ġdapat": 4101,
      "Ġpolar": 4102,
      "Ġ23": 4103,
      "Ġfar": 4104,
      "Ġchapter": 4105,
      "Ġrelationships": 4106,
      "é«": 4107,
      "Ð¾Ð³Ð¾": 4108,
      "Background": 4109,
      "Ġrecorded": 4110,
      "Ġsobre": 4111,
      "econd": 4112,
      "Acc": 4113,
      "Ġplanning": 4114,
      "Ġpemb": 4115,
      "eth": 4116,
      "cell": 4117,
      "Ġsis": 4118,
      "ash": 4119,
      "Ġexerc": 4120,
      "hadap": 4121,
      "MR": 4122,
      "Ġpopulations": 4123,
      "è´": 4124,
      "tica": 4125,
      "Ġothers": 4126,
      "udes": 4127,
      "Ġmom": 4128,
      "Ġshape": 4129,
      "ĠAfric": 4130,
      "Ġmemory": 4131,
      "íķ´": 4132,
      "Ġefficacy": 4133,
      "Ġquestions": 4134,
      "ĠAmerican": 4135,
      "Ġsupply": 4136,
      "akukan": 4137,
      "TP": 4138,
      "Ġpoll": 4139,
      "pect": 4140,
      "Ġads": 4141,
      "Ġoptimization": 4142,
      "Ġenter": 4143,
      "Ġcommerc": 4144,
      "Ġport": 4145,
      "Ġanother": 4146,
      "ä¸İ": 4147,
      "Ġyoung": 4148,
      "cluded": 4149,
      "lan": 4150,
      "Ġhous": 4151,
      "ee": 4152,
      "Ġpep": 4153,
      "Ġenti": 4154,
      "amente": 4155,
      "Ġaimed": 4156,
      "Ġdisplay": 4157,
      "Ġcosts": 4158,
      "Ġneuro": 4159,
      "Ġemployed": 4160,
      "aph": 4161,
      "oring": 4162,
      "Ġmotor": 4163,
      "rier": 4164,
      "Ġscientific": 4165,
      "Ġmotion": 4166,
      "Ġbur": 4167,
      "bers": 4168,
      "Ġadministration": 4169,
      "sive": 4170,
      "izations": 4171,
      "ëıĦ": 4172,
      "Ġcul": 4173,
      "Ġpes": 4174,
      "Ġscience": 4175,
      "Ġmill": 4176,
      "Ġfit": 4177,
      "Ġobservations": 4178,
      "Ġpersonal": 4179,
      "tron": 4180,
      "eter": 4181,
      "helial": 4182,
      "Ġagent": 4183,
      "Ġinvention": 4184,
      "Ġsampling": 4185,
      "Ġqualit": 4186,
      "ĠìĿ´": 4187,
      "Ġfrag": 4188,
      "æķĻ": 4189,
      "Ġhybrid": 4190,
      "Ġrecovery": 4191,
      "Die": 4192,
      "Ġlesions": 4193,
      "rolog": 4194,
      "Ġproviding": 4195,
      "34": 4196,
      "Ġcalled": 4197,
      "Ġdelay": 4198,
      "åĩº": 4199,
      "NF": 4200,
      "Ġlaboratory": 4201,
      "Ġintegrated": 4202,
      "ÑĨÐ¸": 4203,
      "Ġ90": 4204,
      "Ġfabric": 4205,
      "eling": 4206,
      "Ġtechnologies": 4207,
      "Ġoriginal": 4208,
      "Ġsubstrate": 4209,
      "ãĤĴ": 4210,
      "Ġsecurity": 4211,
      "ached": 4212,
      "Ġcoord": 4213,
      "Ġfeature": 4214,
      "Com": 4215,
      "Ġbul": 4216,
      "36": 4217,
      "Le": 4218,
      "mitted": 4219,
      "Ġwer": 4220,
      "Ġalc": 4221,
      "Ġmodeling": 4222,
      "arak": 4223,
      "Ġgenerally": 4224,
      "é¢": 4225,
      "ĠÐ½Ð°": 4226,
      "ĠâĪĴ": 4227,
      "38": 4228,
      "encing": 4229,
      "Ġduration": 4230,
      "ĠCT": 4231,
      "mo": 4232,
      "Ġthickness": 4233,
      "ĠEr": 4234,
      "SD": 4235,
      "Ġfilms": 4236,
      "Ġtemperatures": 4237,
      "NP": 4238,
      "Ġparallel": 4239,
      "Ġput": 4240,
      "ran": 4241,
      "EC": 4242,
      "Ð¾Ð¹": 4243,
      "Ġcust": 4244,
      "ĠÚ©": 4245,
      "ocard": 4246,
      "99": 4247,
      "tein": 4248,
      "Ġteachers": 4249,
      "Ġrequires": 4250,
      "ali": 4251,
      "aya": 4252,
      "Ġful": 4253,
      "Ġdaily": 4254,
      "ĠDep": 4255,
      "men": 4256,
      "Ġhome": 4257,
      "tructure": 4258,
      "ï¼ī": 4259,
      "Ġlater": 4260,
      "From": 4261,
      "Data": 4262,
      "Ġvivo": 4263,
      "é«ĺ": 4264,
      "hesized": 4265,
      "è¦ģ": 4266,
      "asil": 4267,
      "ita": 4268,
      "Ġmeet": 4269,
      "mod": 4270,
      "Ġhydrogen": 4271,
      "ĠResearch": 4272,
      "ï¼Ī": 4273,
      "ìĸ": 4274,
      "Ġrestric": 4275,
      "Ġled": 4276,
      "state": 4277,
      "Ġoral": 4278,
      "uv": 4279,
      "Ġfores": 4280,
      "Ġquant": 4281,
      "level": 4282,
      "Ġnm": 4283,
      "lich": 4284,
      "inese": 4285,
      "Both": 4286,
      "aim": 4287,
      "vious": 4288,
      "Ð¾Ñģ": 4289,
      "Ġways": 4290,
      "Ġhours": 4291,
      "Ġinhibition": 4292,
      "Ġìľ": 4293,
      "Ġderiv": 4294,
      "ĠÎ²": 4295,
      "Ġaccurate": 4296,
      "Ġmathem": 4297,
      "Ġindustrial": 4298,
      "Ġcognitive": 4299,
      "ĠØ¯Ø±": 4300,
      "Ġmolecules": 4301,
      "Ġimmune": 4302,
      "Ġprotection": 4303,
      "Ġvary": 4304,
      "ĠAD": 4305,
      "des": 4306,
      "Ġmetast": 4307,
      "Ġassay": 4308,
      "Ġdiabetes": 4309,
      "Ġprolif": 4310,
      "lob": 4311,
      "Ġ22": 4312,
      "Ġdest": 4313,
      "Ġnitro": 4314,
      "bs": 4315,
      "åĲĪ": 4316,
      "oding": 4317,
      "naire": 4318,
      "Ġsulf": 4319,
      "Ġ35": 4320,
      "inity": 4321,
      "Ġregulation": 4322,
      "tivo": 4323,
      "Ġdies": 4324,
      "Ġbes": 4325,
      "isions": 4326,
      "Ġresolution": 4327,
      "Ġsimultaneous": 4328,
      "Ġreconstr": 4329,
      "Ġestimate": 4330,
      "isms": 4331,
      "Ġrenal": 4332,
      "agement": 4333,
      "ua": 4334,
      "ott": 4335,
      "ischen": 4336,
      "idity": 4337,
      "Ġfamil": 4338,
      "Ġdistributed": 4339,
      "PL": 4340,
      "ĠSystem": 4341,
      "ĠUnited": 4342,
      "Ġleads": 4343,
      "çº": 4344,
      "Ġdisorders": 4345,
      "Ġmixed": 4346,
      "Ġplat": 4347,
      "unt": 4348,
      "Ġdry": 4349,
      "ps": 4350,
      "Ġspectrum": 4351,
      "Ġbenefits": 4352,
      "inking": 4353,
      "65": 4354,
      "Ġdouble": 4355,
      "Ġvan": 4356,
      "orr": 4357,
      "osa": 4358,
      "ney": 4359,
      "cion": 4360,
      "Ġlocation": 4361,
      "Ġuncertain": 4362,
      "åī": 4363,
      "Ġwa": 4364,
      "Ġtreatments": 4365,
      "ifically": 4366,
      "Ġinjection": 4367,
      "ĠEuropean": 4368,
      "Ð±": 4369,
      "ä¸Ĭ": 4370,
      "olds": 4371,
      "ying": 4372,
      "Ġonline": 4373,
      "ĠHealth": 4374,
      "MD": 4375,
      "Ġabsorption": 4376,
      "Ġkel": 4377,
      "Ġregional": 4378,
      "ĠAg": 4379,
      "Ġcountry": 4380,
      "Ġyet": 4381,
      "ìĹĲìĦľ": 4382,
      "umn": 4383,
      "Ġsociety": 4384,
      "Ġnonlinear": 4385,
      "ìĺ": 4386,
      "Ġreducing": 4387,
      "Ġpair": 4388,
      "Ġunivers": 4389,
      "Ġconcep": 4390,
      "Ġepid": 4391,
      "Ġstages": 4392,
      ".)": 4393,
      "erences": 4394,
      "Ġlate": 4395,
      "Ġfinite": 4396,
      "èĩ": 4397,
      "ĠST": 4398,
      "ished": 4399,
      "Ġbil": 4400,
      "itiz": 4401,
      "äºİ": 4402,
      "Ġparticle": 4403,
      "abilities": 4404,
      "monary": 4405,
      "Ġinterface": 4406,
      "Ġinstrument": 4407,
      "Ġglucose": 4408,
      "Ġnurs": 4409,
      "oration": 4410,
      "æ²": 4411,
      "Ġwaste": 4412,
      "yle": 4413,
      "Ġpert": 4414,
      "Ġbuilding": 4415,
      "METHODS": 4416,
      "Ġconstrain": 4417,
      "ifest": 4418,
      "Ġapproximately": 4419,
      "ìłķ": 4420,
      "ëĵ": 4421,
      "Ġscores": 4422,
      "inated": 4423,
      "Ġidenti": 4424,
      "ito": 4425,
      "Ġasym": 4426,
      "Ġcoefficient": 4427,
      "Ġadapt": 4428,
      "Ġhalf": 4429,
      "Ġmethodology": 4430,
      "Ġusually": 4431,
      "Ġoperating": 4432,
      "Ġsituation": 4433,
      "ĠØ±": 4434,
      "Ġconfigur": 4435,
      "empor": 4436,
      "Ð¶": 4437,
      "apping": 4438,
      "Ġdivided": 4439,
      "ued": 4440,
      "Im": 4441,
      "ership": 4442,
      "Ġtrack": 4443,
      "Ġcardiac": 4444,
      "Ġsat": 4445,
      "Ġya": 4446,
      "onomic": 4447,
      "ella": 4448,
      "Ġimplemented": 4449,
      "èĥ½": 4450,
      "Ġtissues": 4451,
      "ĠMod": 4452,
      "Ġaer": 4453,
      "Ð°Ð½": 4454,
      "NT": 4455,
      "Ġscen": 4456,
      "ë¶": 4457,
      "Ġstimul": 4458,
      "ged": 4459,
      "éĥ": 4460,
      "ette": 4461,
      "Ġ26": 4462,
      "Sim": 4463,
      "Ġprem": 4464,
      "Ġterhadap": 4465,
      "Ġscan": 4466,
      "Ġlearn": 4467,
      "à¸Ļ": 4468,
      "Ġcompet": 4469,
      "ding": 4470,
      "Ġconnected": 4471,
      "erent": 4472,
      "do": 4473,
      "Ġmobile": 4474,
      "Ġepit": 4475,
      "lar": 4476,
      "Ġsimulations": 4477,
      "ams": 4478,
      "Ġpan": 4479,
      "Ġrecommend": 4480,
      "Ġtw": 4481,
      "Ġrecognition": 4482,
      "Ġalmost": 4483,
      "ĠGe": 4484,
      "Ġwerden": 4485,
      "ipher": 4486,
      "Ġaccel": 4487,
      "alt": 4488,
      "ĠStud": 4489,
      "Ġclose": 4490,
      "ils": 4491,
      "Ġemission": 4492,
      "ened": 4493,
      "Ġma": 4494,
      "æľ¬": 4495,
      "Ġcover": 4496,
      "Ġrepe": 4497,
      "Ġthin": 4498,
      "Ġaus": 4499,
      "EG": 4500,
      "Ġantig": 4501,
      "Ġalter": 4502,
      "Ġactual": 4503,
      "Ġsignals": 4504,
      "ni": 4505,
      "Ġak": 4506,
      "Ġimplications": 4507,
      "enge": 4508,
      "Ã§Ã£o": 4509,
      "ĠHIV": 4510,
      "Ġreactions": 4511,
      "Ġlocated": 4512,
      "Ġsensitive": 4513,
      "Ġjoint": 4514,
      "Ġface": 4515,
      "Ġrobust": 4516,
      "ĠChinese": 4517,
      "IP": 4518,
      "ãģŁ": 4519,
      "Ġdifferential": 4520,
      "Ġdisch": 4521,
      "è¿Ľ": 4522,
      "Ġfundamental": 4523,
      "Ġalk": 4524,
      "Ġmatter": 4525,
      "Ġâī": 4526,
      "Ġcontribution": 4527,
      "SO": 4528,
      "uth": 4529,
      "Ġont": 4530,
      "Ġeffectively": 4531,
      "EP": 4532,
      "ĠSe": 4533,
      "Î·": 4534,
      "Ġadults": 4535,
      "ĠBe": 4536,
      "Ġpa": 4537,
      "scale": 4538,
      "Ġgran": 4539,
      "Ġstrains": 4540,
      "ogeneous": 4541,
      "Ġcollection": 4542,
      "Ġgrowing": 4543,
      "last": 4544,
      "Ġeducational": 4545,
      "Ġmakes": 4546,
      "Ġhar": 4547,
      "Ġagricult": 4548,
      "Ġcannot": 4549,
      "Ġhost": 4550,
      "Ġsel": 4551,
      "Ġcontribute": 4552,
      "Ġreports": 4553,
      "eres": 4554,
      "Ġadvanced": 4555,
      "ÐµÑĤ": 4556,
      "vascular": 4557,
      "Ġprediction": 4558,
      "Ġtumors": 4559,
      "Ġdelivery": 4560,
      "Ġgoal": 4561,
      "Ġcoron": 4562,
      "Ġplatform": 4563,
      "Ġsufficient": 4564,
      "Ġprogress": 4565,
      "Ġswit": 4566,
      "ë°": 4567,
      "ocal": 4568,
      "Ġdistinct": 4569,
      "Ġcellular": 4570,
      "Ġfixed": 4571,
      "sk": 4572,
      "Ġmicros": 4573,
      "ĠNational": 4574,
      "Since": 4575,
      "OB": 4576,
      "Ġprofile": 4577,
      "Ġaccept": 4578,
      "geb": 4579,
      "Ġdependent": 4580,
      "Ġaccoun": 4581,
      "ìļ©": 4582,
      "Ġunderlying": 4583,
      "Ġperm": 4584,
      "HE": 4585,
      "Ġslow": 4586,
      "isi": 4587,
      "sup": 4588,
      "uff": 4589,
      "Ġneural": 4590,
      "Ġsistem": 4591,
      "ĠÐ·": 4592,
      "Ġcapital": 4593,
      "Ġvide": 4594,
      "ä¸ª": 4595,
      "Ġ70": 4596,
      "lig": 4597,
      "ä¿": 4598,
      "ëł": 4599,
      "oking": 4600,
      "Ġmovement": 4601,
      "tt": 4602,
      "Ġprogn": 4603,
      "Ġequip": 4604,
      "Ġcircuit": 4605,
      "Ġengineering": 4606,
      "oxy": 4607,
      "Ġef": 4608,
      "Ġquantif": 4609,
      "otrop": 4610,
      "Ġcomposite": 4611,
      "mente": 4612,
      "ilt": 4613,
      "ĠAp": 4614,
      "Ġdepth": 4615,
      "omas": 4616,
      "ĠPol": 4617,
      "vari": 4618,
      "Ġmachine": 4619,
      "78": 4620,
      "oscop": 4621,
      "Ġestimation": 4622,
      "Ġrefer": 4623,
      "roscopic": 4624,
      "Ġfully": 4625,
      "Ġsuccessfully": 4626,
      "Ġagreement": 4627,
      "Ġmental": 4628,
      "istered": 4629,
      "ecu": 4630,
      "Ġnuclear": 4631,
      "32": 4632,
      "ĠRNA": 4633,
      "Some": 4634,
      "ĠìĪĺ": 4635,
      "ĠNe": 4636,
      "Ġwar": 4637,
      "Ġsignificance": 4638,
      "side": 4639,
      "ĠAss": 4640,
      "Ġetc": 4641,
      "Ġdetermin": 4642,
      "Ġsi": 4643,
      "ĠNa": 4644,
      "Ġobservation": 4645,
      "olved": 4646,
      "reatment": 4647,
      "enter": 4648,
      "ĠPer": 4649,
      "Ġobject": 4650,
      "Ġfluores": 4651,
      "ĠPD": 4652,
      "Ġpredicted": 4653,
      "According": 4654,
      "Ġsiswa": 4655,
      "Ġwhose": 4656,
      "ãģ¨": 4657,
      "Ph": 4658,
      "Ġ+/-": 4659,
      "Å¾": 4660,
      "Ġstudent": 4661,
      "ively": 4662,
      "Ġtid": 4663,
      "Ġintegration": 4664,
      "ä¼ļ": 4665,
      "Ġpathway": 4666,
      "Ġrealiz": 4667,
      "ji": 4668,
      "Co": 4669,
      "Ġmil": 4670,
      "Ġconcer": 4671,
      "åº¦": 4672,
      "During": 4673,
      "Ġacet": 4674,
      "Ġemo": 4675,
      "ç¨": 4676,
      "fr": 4677,
      "aster": 4678,
      "Ġrespir": 4679,
      "Ġpas": 4680,
      "ç»Ħ": 4681,
      "Ð¾ÑĤ": 4682,
      "Ġdepos": 4683,
      "going": 4684,
      "Ġangle": 4685,
      "],": 4686,
      "Ġsusp": 4687,
      "èµ": 4688,
      "iO": 4689,
      "Ġbackground": 4690,
      "Ġsont": 4691,
      "Ø§Ùħ": 4692,
      "Ġeg": 4693,
      "ä¸ļ": 4694,
      "Ïģ": 4695,
      "uz": 4696,
      "Ġharm": 4697,
      "Ġtoler": 4698,
      "issions": 4699,
      "48": 4700,
      "Ġpossib": 4701,
      "Ġstrongly": 4702,
      "Ġarrang": 4703,
      "Ġreturn": 4704,
      "LA": 4705,
      "uting": 4706,
      "Ġget": 4707,
      "ç»ĵ": 4708,
      "Ġimproving": 4709,
      "uary": 4710,
      "enn": 4711,
      "Ġskills": 4712,
      "53": 4713,
      "Ġassemb": 4714,
      "Ø§Ø¯": 4715,
      "ĠStates": 4716,
      "Ġamino": 4717,
      "Ġ\\": 4718,
      "ceed": 4719,
      "Ġgender": 4720,
      "aciones": 4721,
      "unic": 4722,
      "group": 4723,
      "ĠInstit": 4724,
      "Ġboundary": 4725,
      "Ġattit": 4726,
      "Ġtrials": 4727,
      "ĠØ´": 4728,
      "free": 4729,
      "ĠìĦ": 4730,
      "tral": 4731,
      "****": 4732,
      "ÂŃ": 4733,
      "Ġyou": 4734,
      "ibri": 4735,
      "Ġë³": 4736,
      "Ġoccurs": 4737,
      "ocation": 4738,
      "hr": 4739,
      "ini": 4740,
      "Ġcharge": 4741,
      "Ġbelow": 4742,
      "Ġkep": 4743,
      "Ġod": 4744,
      "Ġje": 4745,
      "cm": 4746,
      "ĠCu": 4747,
      "Ġheav": 4748,
      "Ġperspective": 4749,
      "ibration": 4750,
      "à¸ģ": 4751,
      "Ġconclusion": 4752,
      "comp": 4753,
      "jectives": 4754,
      "Ġsqu": 4755,
      "aks": 4756,
      "iet": 4757,
      "BP": 4758,
      "Ap": 4759,
      "ml": 4760,
      "Ġexchange": 4761,
      "Ġturb": 4762,
      "Ġroot": 4763,
      "Ġcommercial": 4764,
      "Ġabsence": 4765,
      "Ġgain": 4766,
      "Ġunits": 4767,
      "Ġalcoh": 4768,
      "æı": 4769,
      "Ġsector": 4770,
      "å®ŀ": 4771,
      "Ġgel": 4772,
      "uls": 4773,
      "RT": 4774,
      "ĠÙĩ": 4775,
      "Ġdispers": 4776,
      "Ġfeas": 4777,
      "oir": 4778,
      "ients": 4779,
      "Ġpartial": 4780,
      "mal": 4781,
      "avity": 4782,
      "Key": 4783,
      "Ġdiameter": 4784,
      "Ġfiber": 4785,
      "mosp": 4786,
      "ìŀĲ": 4787,
      "Ġhor": 4788,
      "Ġdetermination": 4789,
      "plantation": 4790,
      "Ġmicrob": 4791,
      "çİ°": 4792,
      "ÑĩÐµ": 4793,
      "67": 4794,
      "Ġextraction": 4795,
      "ĠReg": 4796,
      "Ġsuggesting": 4797,
      "Ġresource": 4798,
      "Ġappears": 4799,
      "Ġelectrical": 4800,
      "ery": 4801,
      "Ġabnormal": 4802,
      "SM": 4803,
      "Ġ27": 4804,
      "Ġmicroscopy": 4805,
      "ĠEnglish": 4806,
      "Hz": 4807,
      "Ġacids": 4808,
      "Ġtechnical": 4809,
      "çŃ": 4810,
      "ë¦¬": 4811,
      "Ġoffer": 4812,
      "ging": 4813,
      "ç©": 4814,
      "asons": 4815,
      "amento": 4816,
      "Ã½": 4817,
      "Ġstatistically": 4818,
      "raft": 4819,
      "Ġinterval": 4820,
      "Ġnanop": 4821,
      "Ġcommonly": 4822,
      "Ġoste": 4823,
      "sw": 4824,
      "uf": 4825,
      "Ġaux": 4826,
      "oids": 4827,
      "ded": 4828,
      "ĠmRNA": 4829,
      "Ġassist": 4830,
      "Ġspectra": 4831,
      "aman": 4832,
      "Ġdiffusion": 4833,
      "Ġkon": 4834,
      "Ġquantum": 4835,
      "ĠMan": 4836,
      "Ġadvantages": 4837,
      "odium": 4838,
      "Ġtun": 4839,
      "Ġattr": 4840,
      "Ġpend": 4841,
      "Ġclimate": 4842,
      "kr": 4843,
      "IM": 4844,
      "zo": 4845,
      "êµ¬": 4846,
      "Ġdetailed": 4847,
      "37": 4848,
      "Ġexcell": 4849,
      "ched": 4850,
      "Ġscreening": 4851,
      "44": 4852,
      "Ġzone": 4853,
      "otox": 4854,
      "ather": 4855,
      "Ġperf": 4856,
      "PC": 4857,
      "arios": 4858,
      "Ġversus": 4859,
      "Ġspectroscopy": 4860,
      "org": 4861,
      "iation": 4862,
      "Ġord": 4863,
      "Ġaggreg": 4864,
      "Ġmoment": 4865,
      "ë¬": 4866,
      "åĳ": 4867,
      "Ġbank": 4868,
      "Ġvo": 4869,
      ".-": 4870,
      "umb": 4871,
      "RE": 4872,
      "ìĹ¬": 4873,
      "Ġhypothesis": 4874,
      "Ġemp": 4875,
      "Ġkine": 4876,
      "OL": 4877,
      "Ġpercentage": 4878,
      "Ġtrial": 4879,
      "opro": 4880,
      "acellular": 4881,
      "aires": 4882,
      "atient": 4883,
      "Ġlist": 4884,
      "æĦ": 4885,
      "Ġiron": 4886,
      "aux": 4887,
      "ione": 4888,
      "Ġnitrogen": 4889,
      "Ġ45": 4890,
      "Ġregular": 4891,
      "Ġcoh": 4892,
      "Ġelectric": 4893,
      "ceptib": 4894,
      "Ġsich": 4895,
      "ayer": 4896,
      "Øµ": 4897,
      "Ġfocused": 4898,
      "tile": 4899,
      "Ġdegradation": 4900,
      "mark": 4901,
      "Ġê³": 4902,
      "ìĭľ": 4903,
      "Ġunderwent": 4904,
      "Ġvacc": 4905,
      "Ø§Øª": 4906,
      "å¥": 4907,
      "ĠëĮĢ": 4908,
      "clos": 4909,
      "åľ°": 4910,
      "Ġlegal": 4911,
      "Pen": 4912,
      "Ġreliability": 4913,
      "Ġeste": 4914,
      "ds": 4915,
      "Ġsubsequent": 4916,
      "Ġnumbers": 4917,
      "Ġpreparation": 4918,
      "Ġexpans": 4919,
      "98": 4920,
      "Ġminimum": 4921,
      "Îº": 4922,
      "Ġcorrect": 4923,
      "agai": 4924,
      "onom": 4925,
      "inning": 4926,
      "oxide": 4927,
      "ĠSouth": 4928,
      "pe": 4929,
      "Ġprobability": 4930,
      "Ġremoval": 4931,
      "ÑĪ": 4932,
      "periment": 4933,
      "31": 4934,
      "sch": 4935,
      "Ġanalog": 4936,
      "fl": 4937,
      "Ġsubstit": 4938,
      "ÄĽ": 4939,
      "Ġlonger": 4940,
      "Ġoxide": 4941,
      "Ġchallenge": 4942,
      "Ġtransformation": 4943,
      "Ġradio": 4944,
      "Ñī": 4945,
      "Ġcurrently": 4946,
      "Ġadequ": 4947,
      "Ġdiversity": 4948,
      "Ġinstitution": 4949,
      "Ġì§": 4950,
      "Ġchoice": 4951,
      "idades": 4952,
      "ente": 4953,
      "Ġtom": 4954,
      "ral": 4955,
      "omatic": 4956,
      "Ġoccup": 4957,
      "oster": 4958,
      "po": 4959,
      "mg": 4960,
      "Ġbaseline": 4961,
      "Ġconsists": 4962,
      "Ø·": 4963,
      "Ġthroughout": 4964,
      "Ġconj": 4965,
      "bral": 4966,
      "Ġben": 4967,
      "ĠDr": 4968,
      "ãģĹ": 4969,
      "iples": 4970,
      "Ġêµ": 4971,
      "ventions": 4972,
      "åĵ": 4973,
      "If": 4974,
      "Ġtraff": 4975,
      "tes": 4976,
      "ĠSur": 4977,
      "ĠCH": 4978,
      "Ġconflic": 4979,
      "occ": 4980,
      "ĠJapan": 4981,
      "Ġtit": 4982,
      "Ġconcepts": 4983,
      "Ġalone": 4984,
      "Ġmeth": 4985,
      "Ġinduc": 4986,
      "Ġsin": 4987,
      "Ġequival": 4988,
      "Ġvariations": 4989,
      "Ġcomprehensive": 4990,
      "lam": 4991,
      "Comp": 4992,
      "Ġprofessional": 4993,
      "Ġacademic": 4994,
      "romb": 4995,
      "Ġcrystall": 4996,
      "éĩį": 4997,
      "endo": 4998,
      "Ġtaking": 4999,
      "Ġfrequently": 5000,
      "Ġjus": 5001,
      "Ġexamples": 5002,
      "Ġvascular": 5003,
      "First": 5004,
      "Ð¾Ð½": 5005,
      "Ġindicates": 5006,
      "èĢħ": 5007,
      "Ġtip": 5008,
      "fold": 5009,
      "agon": 5010,
      "mental": 5011,
      "RS": 5012,
      "ajaran": 5013,
      "Ġmember": 5014,
      "Ġoc": 5015,
      "Ġdiscussion": 5016,
      "ungan": 5017,
      "atical": 5018,
      "Ġtypical": 5019,
      "za": 5020,
      "Ġnas": 5021,
      "Ġcenter": 5022,
      "Ġole": 5023,
      "Ġperipher": 5024,
      "ĠÑĥ": 5025,
      "Ġextrem": 5026,
      "Ġpromot": 5027,
      "ower": 5028,
      "Ġhypert": 5029,
      "Ġempirical": 5030,
      "æĹ¶": 5031,
      "Ġcontain": 5032,
      "Ġentire": 5033,
      "ournal": 5034,
      "Ġflux": 5035,
      "Ġrelig": 5036,
      "ublic": 5037,
      "ë©": 5038,
      "Ġmalign": 5039,
      "Ġabund": 5040,
      "Ġlayers": 5041,
      "bal": 5042,
      "Ġreserv": 5043,
      "Ġcompan": 5044,
      "Ġbenefit": 5045,
      "Ġviol": 5046,
      "Ġformal": 5047,
      "Ġpromising": 5048,
      "De": 5049,
      "stead": 5050,
      "Ġthresh": 5051,
      "irect": 5052,
      "Ġions": 5053,
      "Ġanimal": 5054,
      "But": 5055,
      "Ġhorm": 5056,
      "Ġqualitative": 5057,
      "ellig": 5058,
      "´Ģ": 5059,
      "Ġexercise": 5060,
      "Ġdisorder": 5061,
      "Ġfish": 5062,
      "Ġparen": 5063,
      "Ġdif": 5064,
      "Ġinvas": 5065,
      "SC": 5066,
      "Ġvehicle": 5067,
      "uck": 5068,
      "Ġcomplexity": 5069,
      "Ġmarked": 5070,
      "Ġartery": 5071,
      "Ġassign": 5072,
      "Ġexistence": 5073,
      "Ġals": 5074,
      "imm": 5075,
      "Ġwire": 5076,
      "Among": 5077,
      "ãģ¯": 5078,
      "Most": 5079,
      "ha": 5080,
      "Ġsets": 5081,
      "Ġcrystal": 5082,
      "len": 5083,
      "Ġextended": 5084,
      "jected": 5085,
      "Then": 5086,
      "Ġreact": 5087,
      "Ġbacteria": 5088,
      "Ġquestionnaire": 5089,
      "Ġcolor": 5090,
      "Ġsuperior": 5091,
      "Ġkg": 5092,
      "IF": 5093,
      "Ġintermedi": 5094,
      "load": 5095,
      "Ġmajority": 5096,
      "Ġpropag": 5097,
      "ĠAt": 5098,
      "ontal": 5099,
      "otic": 5100,
      "Ġveget": 5101,
      "Ġyaitu": 5102,
      "cia": 5103,
      "Ġë¶": 5104,
      "Ġapop": 5105,
      "åıĬ": 5106,
      "crib": 5107,
      "Ġpossibility": 5108,
      "imp": 5109,
      "xy": 5110,
      "Ġprotocol": 5111,
      "Ġhasil": 5112,
      "OH": 5113,
      "ontrol": 5114,
      "xi": 5115,
      "Ġsequences": 5116,
      "Ġsolar": 5117,
      "Ġexcellent": 5118,
      "ilibri": 5119,
      "uce": 5120,
      "Ġinvolving": 5121,
      "plicated": 5122,
      "andid": 5123,
      "seud": 5124,
      "Ġjud": 5125,
      "Ġìĭ": 5126,
      "bl": 5127,
      "Ġolder": 5128,
      "estinal": 5129,
      "ĠAND": 5130,
      "anes": 5131,
      "ora": 5132,
      "retion": 5133,
      "Ġcentury": 5134,
      "Ġeconomy": 5135,
      "ĠIII": 5136,
      "Ġultras": 5137,
      "Ġproportion": 5138,
      "tered": 5139,
      "Ġresponsible": 5140,
      "æĮ": 5141,
      "plicit": 5142,
      "Over": 5143,
      "Ġatmosp": 5144,
      "Ġstem": 5145,
      "ches": 5146,
      "Ġexposed": 5147,
      "care": 5148,
      "Ġanalytical": 5149,
      "ilos": 5150,
      "Ġprevention": 5151,
      "Ġcrop": 5152,
      "lier": 5153,
      "aine": 5154,
      "nel": 5155,
      "ocr": 5156,
      "STRA": 5157,
      "NS": 5158,
      "íķĺëĬĶ": 5159,
      "æ¯": 5160,
      "US": 5161,
      "Ġcolle": 5162,
      "Ġsurfaces": 5163,
      "Patients": 5164,
      "39": 5165,
      "Ġserious": 5166,
      "Ġgreen": 5167,
      "lin": 5168,
      "Ġsteel": 5169,
      "Ġvit": 5170,
      "Ġexhibited": 5171,
      "Ġped": 5172,
      "Ġliving": 5173,
      "Re": 5174,
      "aut": 5175,
      "DL": 5176,
      "íĺ": 5177,
      "Ġdatabase": 5178,
      "Ġcarcinoma": 5179,
      "uman": 5180,
      "iology": 5181,
      "Ġproperty": 5182,
      "wide": 5183,
      "ä¸»": 5184,
      "Ġalways": 5185,
      "Ġsmaller": 5186,
      "Ġarchitecture": 5187,
      "Ġinsulin": 5188,
      "Ġhistorical": 5189,
      "Ġintra": 5190,
      "ĠAustr": 5191,
      "Ġwords": 5192,
      "Ġmethyl": 5193,
      "çł": 5194,
      "Ġ2010": 5195,
      "oman": 5196,
      "umm": 5197,
      "Ġcruc": 5198,
      "Ġsignaling": 5199,
      "Ġcomplexes": 5200,
      "band": 5201,
      "CONCLUSIONS": 5202,
      "irus": 5203,
      "isa": 5204,
      "å·¥": 5205,
      "Ġeiner": 5206,
      "aruh": 5207,
      "Ð²Ð°": 5208,
      "Ħì": 5209,
      "Ġ48": 5210,
      "Ġglass": 5211,
      "Ġuntil": 5212,
      "Ġaspect": 5213,
      "Ġconfirm": 5214,
      "Ġartif": 5215,
      "Ġrural": 5216,
      "ception": 5217,
      "Ïĥ": 5218,
      "ĠPl": 5219,
      "OD": 5220,
      "Ġpharmac": 5221,
      "icians": 5222,
      "Ġfall": 5223,
      "Ġappe": 5224,
      "Ġheight": 5225,
      "inical": 5226,
      "posed": 5227,
      "Ġconv": 5228,
      "Ġreviewed": 5229,
      "elines": 5230,
      "Ġresearchers": 5231,
      "ends": 5232,
      "68": 5233,
      "Ġmeaning": 5234,
      "take": 5235,
      "Ġadded": 5236,
      "ĠØ³": 5237,
      "æĸ°": 5238,
      "Ġapparent": 5239,
      "ëĭ": 5240,
      "ĠIm": 5241,
      "JECT": 5242,
      "rosis": 5243,
      "Ġmis": 5244,
      "osity": 5245,
      "ĠCr": 5246,
      "Ġindicating": 5247,
      "ĠBl": 5248,
      "Ġpulmonary": 5249,
      "Ġcode": 5250,
      "Ġefforts": 5251,
      "Ġsupple": 5252,
      "otypes": 5253,
      "Of": 5254,
      "Ġsusceptib": 5255,
      "Ar": 5256,
      "math": 5257,
      "Ġtemporal": 5258,
      "Anal": 5259,
      "Ġmarg": 5260,
      "å±ķ": 5261,
      "ÐµÑĢ": 5262,
      "Ġcounter": 5263,
      "ìĸ´": 5264,
      "Ġmanner": 5265,
      "Ġpod": 5266,
      "Ġintroduc": 5267,
      "zen": 5268,
      "imento": 5269,
      "Ġcond": 5270,
      "Ġexperiences": 5271,
      "jection": 5272,
      "rich": 5273,
      "Ġproliferation": 5274,
      "eta": 5275,
      "DM": 5276,
      "çĹ": 5277,
      "Ġdop": 5278,
      "antes": 5279,
      "è¡¨": 5280,
      "Ġwel": 5281,
      "Ġdefinition": 5282,
      "Ġfed": 5283,
      "Ĥĺ": 5284,
      "64": 5285,
      "Ġsynthesized": 5286,
      "Ġcontains": 5287,
      "Ġpolicies": 5288,
      "ç¤": 5289,
      "ĠAm": 5290,
      "Îµ": 5291,
      "Ġfung": 5292,
      "Ġretros": 5293,
      "ĠâĪ": 5294,
      "Ġfuel": 5295,
      "Ġcollabor": 5296,
      "Ġstabil": 5297,
      "Ġnanopartic": 5298,
      "ĠDes": 5299,
      "Ġadoles": 5300,
      "Ġanalisis": 5301,
      "Ġsteps": 5302,
      "ENT": 5303,
      "Ġfill": 5304,
      "ano": 5305,
      "Ġcool": 5306,
      "Ġ29": 5307,
      "ilibrium": 5308,
      "Ġart": 5309,
      "Fe": 5310,
      "Ġtrig": 5311,
      "Ġaware": 5312,
      "Ġpig": 5313,
      "Ġprincipal": 5314,
      "Ġforward": 5315,
      "son": 5316,
      "ahan": 5317,
      "åŁº": 5318,
      "CE": 5319,
      "aten": 5320,
      "Ġworks": 5321,
      "gu": 5322,
      "ç«": 5323,
      "Ġmiddle": 5324,
      "çĻ": 5325,
      "Ð¾Ð²Ð°": 5326,
      "chem": 5327,
      "ç´": 5328,
      "carb": 5329,
      "Ġdraw": 5330,
      "Ġexplain": 5331,
      "Ġcamp": 5332,
      "Ġsle": 5333,
      "Ġfertil": 5334,
      "Ġbrief": 5335,
      "rene": 5336,
      "Les": 5337,
      "Ġtransl": 5338,
      "Ġorth": 5339,
      "Ġdilakukan": 5340,
      "Ġvector": 5341,
      "ÏĤ": 5342,
      "odynamic": 5343,
      "Ġattack": 5344,
      "overed": 5345,
      "isp": 5346,
      "tenance": 5347,
      "ache": 5348,
      "Ġdependence": 5349,
      "Ġreform": 5350,
      "Ġmove": 5351,
      "Ġspread": 5352,
      "ç®": 5353,
      "ley": 5354,
      "Ġreproduc": 5355,
      "Ġadverse": 5356,
      "55": 5357,
      "Ġsexual": 5358,
      "ç³": 5359,
      "Ġcardio": 5360,
      "ç»ı": 5361,
      "Ġpersist": 5362,
      "ĠDepartment": 5363,
      "urg": 5364,
      "vis": 5365,
      "imer": 5366,
      "Ġcalcium": 5367,
      "å®ļ": 5368,
      "control": 5369,
      "Ġalpha": 5370,
      "mented": 5371,
      "Ġseparation": 5372,
      "Ġ197": 5373,
      "Ø®": 5374,
      "ĠUS": 5375,
      "Ġadvantage": 5376,
      "etah": 5377,
      "NO": 5378,
      "Ġitself": 5379,
      "ĠNO": 5380,
      "Ġcu": 5381,
      "42": 5382,
      "Addition": 5383,
      "Ġavec": 5384,
      "Ġinfections": 5385,
      "Ġpositi": 5386,
      "Ġcandid": 5387,
      "Ġpromo": 5388,
      "Ġuniform": 5389,
      "acing": 5390,
      "Ġremain": 5391,
      "Ġmedian": 5392,
      "exp": 5393,
      "æĥ": 5394,
      "ĠEduc": 5395,
      "ulating": 5396,
      "Ġconstruct": 5397,
      "ĠIndones": 5398,
      "Ġfinding": 5399,
      "Ġsubs": 5400,
      "Ġkid": 5401,
      "Ġunknown": 5402,
      "Ġspecimens": 5403,
      "Ġcity": 5404,
      "Ġpopular": 5405,
      "Ġstimulation": 5406,
      "Ġdiagnosed": 5407,
      "infor": 5408,
      "ĠGen": 5409,
      "Ġslight": 5410,
      "ĠÂ«": 5411,
      "ĠÙģ": 5412,
      "FT": 5413,
      "herent": 5414,
      "Ġcreate": 5415,
      "Ġconstitu": 5416,
      "with": 5417,
      "IG": 5418,
      "Ġìķ": 5419,
      "Ġcommunities": 5420,
      "Ac": 5421,
      "Ġmoderate": 5422,
      "Ġker": 5423,
      "Ġbalance": 5424,
      "47": 5425,
      "Ġdiscusses": 5426,
      "Ġtraffic": 5427,
      "Ġestimates": 5428,
      "Ġutiliz": 5429,
      "Ġfemales": 5430,
      "Ġirradi": 5431,
      "Ġgap": 5432,
      "Ġjust": 5433,
      "Ġnamely": 5434,
      "åħ¶": 5435,
      "åĬ¨": 5436,
      "Ġtidak": 5437,
      "ori": 5438,
      "Pre": 5439,
      "Ġphenomenon": 5440,
      "Ġpip": 5441,
      "Ġpregnancy": 5442,
      "raction": 5443,
      "¡°": 5444,
      "Ġenvironments": 5445,
      "hood": 5446,
      "Ġsystematic": 5447,
      "Ġtel": 5448,
      "HR": 5449,
      "Ġmeasuring": 5450,
      "ÃĹ": 5451,
      "def": 5452,
      "etic": 5453,
      "íĻĶ": 5454,
      "Ġdescription": 5455,
      "Ð¼Ð¸": 5456,
      "Ġplays": 5457,
      "Ġrais": 5458,
      "Ġhyd": 5459,
      "Ġcoupling": 5460,
      "Ġaden": 5461,
      "Ġpem": 5462,
      "ocyte": 5463,
      "Ġspin": 5464,
      "49": 5465,
      "ided": 5466,
      "Ġvideo": 5467,
      "Ġoperations": 5468,
      "ota": 5469,
      "66": 5470,
      "Ġsodium": 5471,
      "Ġalcohol": 5472,
      "function": 5473,
      "æ¸": 5474,
      "nic": 5475,
      "Ġmodes": 5476,
      "Ġtro": 5477,
      "57": 5478,
      "Ġdiv": 5479,
      "Ġworkers": 5480,
      "iotic": 5481,
      "ondr": 5482,
      "point": 5483,
      "tosis": 5484,
      "Ġequal": 5485,
      "Ġmi": 5486,
      "Ġcomplet": 5487,
      "Ġprinciples": 5488,
      "Ġvac": 5489,
      "Ġcoupled": 5490,
      "ilm": 5491,
      "Ġdigunakan": 5492,
      "ĠDec": 5493,
      "éĩı": 5494,
      "Ġlatter": 5495,
      "Ġlibr": 5496,
      "Ġmetabolic": 5497,
      "Ġbeta": 5498,
      "JECTIV": 5499,
      "ãģ§": 5500,
      "Ġconstructed": 5501,
      "apa": 5502,
      "III": 5503,
      "ujuan": 5504,
      "ĠÐ¿ÑĢ": 5505,
      "troduction": 5506,
      "Ġspectral": 5507,
      "Ġcreated": 5508,
      "Ġconcrete": 5509,
      "Ġpathways": 5510,
      "Ġradical": 5511,
      "MT": 5512,
      "íĸ": 5513,
      "Ġ2000": 5514,
      "Ġrapidly": 5515,
      "Ġproved": 5516,
      "ĠPar": 5517,
      "Ġdepression": 5518,
      "Ġcoating": 5519,
      "Ġthesis": 5520,
      "Ġdifferentiation": 5521,
      "Ġconversion": 5522,
      "which": 5523,
      "³Øª": 5524,
      "Ġconcluded": 5525,
      "PT": 5526,
      "ethyl": 5527,
      "Ġcomprises": 5528,
      "Ġexpansion": 5529,
      "Ġanalysed": 5530,
      "Ġmanifest": 5531,
      "Ġdial": 5532,
      "Ġbag": 5533,
      "Ġtasks": 5534,
      "Ġreliable": 5535,
      "Ġgenerate": 5536,
      "Ġcomputational": 5537,
      "Ġprogression": 5538,
      "Ġmedicine": 5539,
      "inations": 5540,
      "Ġobje": 5541,
      "ulum": 5542,
      "Ġseems": 5543,
      "Ġtens": 5544,
      "Ġinflammatory": 5545,
      "ĠØ¹": 5546,
      "section": 5547,
      "Ġbed": 5548,
      "éģ": 5549,
      "Ġwhite": 5550,
      "Ġphases": 5551,
      "Ð»Ðµ": 5552,
      "Ġobjects": 5553,
      "igure": 5554,
      "Ð½Ðµ": 5555,
      "enous": 5556,
      "Ġreading": 5557,
      "ĠIg": 5558,
      "Ġbelie": 5559,
      "ls": 5560,
      "rs": 5561,
      "acial": 5562,
      "Ġdetermining": 5563,
      "oud": 5564,
      "è¿Ļ": 5565,
      "à¤": 5566,
      "Ġtrade": 5567,
      "elt": 5568,
      "Also": 5569,
      "Ġ2013": 5570,
      "Ġantic": 5571,
      "Ġfilter": 5572,
      "RD": 5573,
      "abel": 5574,
      "Ġrise": 5575,
      "Ġattemp": 5576,
      "Ġdip": 5577,
      "Ġbahwa": 5578,
      "Ġbacterial": 5579,
      "ĠMe": 5580,
      "Ġpref": 5581,
      "Ġinterventions": 5582,
      "Ġventric": 5583,
      "Ġeasily": 5584,
      "chools": 5585,
      "Ġdimensions": 5586,
      "ĠGerm": 5587,
      "Ġsense": 5588,
      "Ġcompl": 5589,
      "erative": 5590,
      "scill": 5591,
      "Ġdegrees": 5592,
      "Ġinstitutions": 5593,
      "Ĭ¤": 5594,
      "Ġlipid": 5595,
      "tingu": 5596,
      "Ġresonance": 5597,
      "Ġthought": 5598,
      "used": 5599,
      "Ġcompanies": 5600,
      "Ġprofession": 5601,
      "imen": 5602,
      "ĠAnal": 5603,
      "nik": 5604,
      "riers": 5605,
      "Me": 5606,
      "iger": 5607,
      "leg": 5608,
      "æ´": 5609,
      "tiz": 5610,
      "ingkat": 5611,
      "yroid": 5612,
      "Ġimmedi": 5613,
      "Ġcoronary": 5614,
      "Ġmales": 5615,
      "AA": 5616,
      "ĠTrans": 5617,
      "Ġindepend": 5618,
      "sts": 5619,
      "Ġdatas": 5620,
      "So": 5621,
      "Ġaged": 5622,
      "Ġsupported": 5623,
      "Ġ2012": 5624,
      "Ġcolumn": 5625,
      "Ġprecip": 5626,
      "Ġhabit": 5627,
      "unj": 5628,
      "ĠOF": 5629,
      "ops": 5630,
      "ĠRep": 5631,
      "ards": 5632,
      "Ġmixture": 5633,
      "ĠZn": 5634,
      "85": 5635,
      "Ġshift": 5636,
      "estic": 5637,
      "ĠØ¨Ùĩ": 5638,
      "Ġvar": 5639,
      "Ġexpect": 5640,
      "ìĤ¬": 5641,
      "ĠCom": 5642,
      "Ġmigration": 5643,
      "ĠSi": 5644,
      "ogenous": 5645,
      "test": 5646,
      "Ġinfluenced": 5647,
      "Ġratios": 5648,
      "Ġantibody": 5649,
      "VID": 5650,
      "Ġpromote": 5651,
      "éĿ¢": 5652,
      "Ġcurve": 5653,
      "Ġequipment": 5654,
      "Ġfracture": 5655,
      "æĿ¥": 5656,
      "jet": 5657,
      "inn": 5658,
      "ancer": 5659,
      "DNA": 5660,
      "è½": 5661,
      "Ġrights": 5662,
      "Ġstream": 5663,
      "ble": 5664,
      "å¤ļ": 5665,
      "etal": 5666,
      "ulti": 5667,
      "Ġsummar": 5668,
      "Ġoxidation": 5669,
      "Pr": 5670,
      "Ġgives": 5671,
      "Stud": 5672,
      "Ġinduction": 5673,
      "ĠIV": 5674,
      "Ġsee": 5675,
      "Ġpreserv": 5676,
      "Ġsymmet": 5677,
      "stream": 5678,
      "Ġexcess": 5679,
      "ĠTe": 5680,
      "Ġbei": 5681,
      "etry": 5682,
      "Ġsatisfaction": 5683,
      "flow": 5684,
      "Ġmetabolism": 5685,
      "Ġ32": 5686,
      "Ġrepresentation": 5687,
      "Ġgest": 5688,
      "ABSTRA": 5689,
      "And": 5690,
      "Ġeconom": 5691,
      "ani": 5692,
      "åĬĽ": 5693,
      "Ġfeedback": 5694,
      "activity": 5695,
      "attering": 5696,
      "Ġpredom": 5697,
      "Sub": 5698,
      "ynt": 5699,
      "Ġexamines": 5700,
      "Ġspl": 5701,
      "ala": 5702,
      "Ġreceptors": 5703,
      "Ġpure": 5704,
      "Ġerrors": 5705,
      "Ġ31": 5706,
      "Ġmutations": 5707,
      "ÙĪØ±": 5708,
      "ready": 5709,
      "Ġprinciple": 5710,
      "Ġ2014": 5711,
      "inder": 5712,
      "ĠPT": 5713,
      "Ġversion": 5714,
      "Ġ2015": 5715,
      "PR": 5716,
      "Ġ2011": 5717,
      "ëĲĺ": 5718,
      "Ġmorphology": 5719,
      "Ġsound": 5720,
      "alled": 5721,
      "Ġinhibitor": 5722,
      "{\\": 5723,
      "BS": 5724,
      "Ġcommunic": 5725,
      "ighted": 5726,
      "Ġwild": 5727,
      "Such": 5728,
      "Ġinfer": 5729,
      "Ġstro": 5730,
      "è¿ĩ": 5731,
      "Ġpotentially": 5732,
      "inin": 5733,
      "Ġvul": 5734,
      "åĲĮ": 5735,
      "tik": 5736,
      "ï¿": 5737,
      "ait": 5738,
      "Ġmaintenance": 5739,
      "elajaran": 5740,
      "anto": 5741,
      "éĺ": 5742,
      "ajar": 5743,
      "//": 5744,
      "Ġcontents": 5745,
      "Ġmother": 5746,
      "Ġvariability": 5747,
      "Ġdimension": 5748,
      "chron": 5749,
      "ìĻ": 5750,
      "Ġconcl": 5751,
      "Ġprofiles": 5752,
      "Three": 5753,
      "Ġwird": 5754,
      "Ġ36": 5755,
      "ilai": 5756,
      "Ġìłľ": 5757,
      "43": 5758,
      "bre": 5759,
      "Ġextensive": 5760,
      "02": 5761,
      "Ġembry": 5762,
      "Ġcrucial": 5763,
      "Ġseem": 5764,
      "à¸£à¸": 5765,
      "Si": 5766,
      "Ġshel": 5767,
      "unk": 5768,
      "ĠÐ°": 5769,
      "uge": 5770,
      "neum": 5771,
      "46": 5772,
      "ĠCar": 5773,
      "Ġelect": 5774,
      "ä¸ĭ": 5775,
      "Ġperipheral": 5776,
      "Ġconsidering": 5777,
      "ativa": 5778,
      "Ġpay": 5779,
      "ograf": 5780,
      "ips": 5781,
      "Ġpostoperative": 5782,
      "phase": 5783,
      "Ġdistingu": 5784,
      "ìłľ": 5785,
      "Ġring": 5786,
      "åĪ¶": 5787,
      "then": 5788,
      "Ġrespiratory": 5789,
      "Ġdiscr": 5790,
      "ĠCan": 5791,
      "Ġcalculations": 5792,
      "ï¿½": 5793,
      "Ġpal": 5794,
      "PV": 5795,
      "Ġmarkers": 5796,
      "):": 5797,
      "atics": 5798,
      "Ġcalculation": 5799,
      "Ġvor": 5800,
      "ĠMethod": 5801,
      "ecause": 5802,
      "Ġadhes": 5803,
      "Ġvertical": 5804,
      "ca": 5805,
      "iral": 5806,
      "Ġdecisions": 5807,
      "Ġelevated": 5808,
      "æ±": 5809,
      "ãģ¦": 5810,
      "Ġdominant": 5811,
      "Ġclasses": 5812,
      "Ġexpand": 5813,
      "Ġ37": 5814,
      "Ġcarry": 5815,
      "Ġclaim": 5816,
      "Ġdisturb": 5817,
      "Ġ2008": 5818,
      "Ġster": 5819,
      "iction": 5820,
      "ÅĻ": 5821,
      "Ġsediment": 5822,
      "Ġparad": 5823,
      "uation": 5824,
      "CV": 5825,
      "Ġcreat": 5826,
      "å»": 5827,
      "Ġdepends": 5828,
      "asan": 5829,
      "Ġphysiological": 5830,
      "Ġsmo": 5831,
      "anya": 5832,
      "çľ": 5833,
      "Ġspecifically": 5834,
      "Ġeight": 5835,
      "Ġneurons": 5836,
      "Ġoccurrence": 5837,
      "Ġtour": 5838,
      "Ġsemi": 5839,
      "UND": 5840,
      "ontin": 5841,
      "Ġaccumulation": 5842,
      "éĥ¨": 5843,
      "Ġreasons": 5844,
      "Ġchanging": 5845,
      "ometr": 5846,
      "Ġadopted": 5847,
      "Ġsocio": 5848,
      "Ġrecur": 5849,
      "Ġcapable": 5850,
      "Ġterr": 5851,
      "ĠNorth": 5852,
      "umen": 5853,
      "Penelitian": 5854,
      "ancre": 5855,
      "Ġesta": 5856,
      "Ġpresente": 5857,
      "Ġperiods": 5858,
      "Ġreflect": 5859,
      "éħ": 5860,
      "Ġcrack": 5861,
      "ĠAustral": 5862,
      "Ġcompletely": 5863,
      "idine": 5864,
      "Ġmais": 5865,
      "KG": 5866,
      "Ġantibodies": 5867,
      "CF": 5868,
      "Ġjob": 5869,
      "Ġvaried": 5870,
      "Ġword": 5871,
      "ìĥģ": 5872,
      "OBJECTIV": 5873,
      "Ġalready": 5874,
      "Ġcapture": 5875,
      "icul": 5876,
      "ynam": 5877,
      "ML": 5878,
      "jadi": 5879,
      "Ġcommit": 5880,
      "Ġ2009": 5881,
      "Ġshowing": 5882,
      "Ġparent": 5883,
      "Ġoscill": 5884,
      "Ġgrade": 5885,
      "Ġsched": 5886,
      "Ġintroduction": 5887,
      "çĤ": 5888,
      "Ġroom": 5889,
      "Ġbreak": 5890,
      "phal": 5891,
      "æıĲ": 5892,
      "ss": 5893,
      "Î³": 5894,
      "Ġadsorption": 5895,
      "æĪĳ": 5896,
      "ochondr": 5897,
      "Ġhoriz": 5898,
      "Ġces": 5899,
      "pen": 5900,
      "Ġba": 5901,
      "acional": 5902,
      "Ġdurch": 5903,
      "Ġseek": 5904,
      "âĢ²": 5905,
      "Ġê¸°": 5906,
      "Ġnerve": 5907,
      "Ġangi": 5908,
      "Ġidentity": 5909,
      "ÑģÑĤÐ¸": 5910,
      "Ġinterv": 5911,
      "Ġdischarge": 5912,
      "onia": 5913,
      "Ġ75": 5914,
      "Ġinhibited": 5915,
      "Ġroles": 5916,
      "Ġminor": 5917,
      "ÛĮÙĨ": 5918,
      "Ġconstraints": 5919,
      "osen": 5920,
      "icients": 5921,
      "resents": 5922,
      "rep": 5923,
      "åı¯": 5924,
      "Ġlateral": 5925,
      "tivated": 5926,
      "Ġtraum": 5927,
      "à¸Ń": 5928,
      "Ġreceiving": 5929,
      "Ġuns": 5930,
      "Ġwur": 5931,
      "Ġadjust": 5932,
      "ĠMo": 5933,
      "Ġmouse": 5934,
      "åħ³": 5935,
      "Ġseven": 5936,
      "ping": 5937,
      "Ġdoses": 5938,
      "Ġfamilies": 5939,
      "Ġthreshold": 5940,
      "ancing": 5941,
      "acoes": 5942,
      "Ġelectrode": 5943,
      "thal": 5944,
      "íķĺìĹ¬": 5945,
      "Ġsimulated": 5946,
      "Ġgrain": 5947,
      "Ġprivate": 5948,
      "yes": 5949,
      "97": 5950,
      "ete": 5951,
      "Ġincreasingly": 5952,
      "Ġexplo": 5953,
      "bor": 5954,
      "Ġpi": 5955,
      "Ġmineral": 5956,
      "Ġonset": 5957,
      "ĠGroup": 5958,
      "Ġlook": 5959,
      "amma": 5960,
      "Ġultim": 5961,
      "ĠComp": 5962,
      "ĠJan": 5963,
      "ivil": 5964,
      "Ġcohort": 5965,
      "Ġantigen": 5966,
      "Ġfocuses": 5967,
      "Ġmuc": 5968,
      "Ġrecommended": 5969,
      "Ġpsychological": 5970,
      "Ġcompens": 5971,
      "Ġsolve": 5972,
      "Ġaqu": 5973,
      "Ġidea": 5974,
      "pol": 5975,
      "Ġrevers": 5976,
      "Ġforeign": 5977,
      "Ġseverity": 5978,
      "olester": 5979,
      "Ġalle": 5980,
      "ĠEm": 5981,
      "Ġíķ": 5982,
      "Ġleuk": 5983,
      "Ġclassical": 5984,
      "aciÃ³n": 5985,
      "Ġbelong": 5986,
      "Ġrepair": 5987,
      "Ġhier": 5988,
      "Ġcompleted": 5989,
      "Ġcomplement": 5990,
      "Ġinvolvement": 5991,
      "acet": 5992,
      "æĺİ": 5993,
      "atitis": 5994,
      "Ġanten": 5995,
      "Ġearlier": 5996,
      "Ġcluster": 5997,
      "Ġstandards": 5998,
      "lik": 5999,
      "Ġnext": 6000,
      "vas": 6001,
      "ãģĮ": 6002,
      "ectomy": 6003,
      "Spec": 6004,
      "Ġmagnitude": 6005,
      "åĲİ": 6006,
      "Ġplane": 6007,
      "Ġschools": 6008,
      "henyl": 6009,
      "Ġbirth": 6010,
      "Ġforest": 6011,
      "Ġconsiderable": 6012,
      "ĠTechn": 6013,
      "nis": 6014,
      "GA": 6015,
      "ariate": 6016,
      "Ġvess": 6017,
      "41": 6018,
      "omers": 6019,
      "Ġdeposition": 6020,
      "ologia": 6021,
      "Ġlib": 6022,
      "Ġnodes": 6023,
      "ingu": 6024,
      "Ġapoptosis": 6025,
      "DA": 6026,
      "Ġroad": 6027,
      "Ġfur": 6028,
      "Ġnos": 6029,
      "Ġextracted": 6030,
      "fort": 6031,
      "Ġpac": 6032,
      "ken": 6033,
      "PO": 6034,
      "cast": 6035,
      "Ġentr": 6036,
      "Ġconcerning": 6037,
      "Ġchannels": 6038,
      "ĠAL": 6039,
      "Ġuptake": 6040,
      "Ġmathematical": 6041,
      "inate": 6042,
      "96": 6043,
      "Ġcardiovascular": 6044,
      "ĠNi": 6045,
      "ady": 6046,
      "can": 6047,
      "Ġprojects": 6048,
      "Ġfoi": 6049,
      "fol": 6050,
      "Ġdecom": 6051,
      "Ġcoefficients": 6052,
      "ben": 6053,
      "hydr": 6054,
      "çī©": 6055,
      "Ġded": 6056,
      "Ġones": 6057,
      "Ġfre": 6058,
      "Ġoffers": 6059,
      "Ġheavy": 6060,
      "Ġthromb": 6061,
      "Ġcaracter": 6062,
      "perm": 6063,
      "Ġrules": 6064,
      "Ġsebagai": 6065,
      "Ġreinfor": 6066,
      "Ġensure": 6067,
      "Ġexperienced": 6068,
      "Ġembed": 6069,
      "acr": 6070,
      "icos": 6071,
      "Ġrig": 6072,
      "Ġscanning": 6073,
      "ĠÃ©": 6074,
      "Ġfavor": 6075,
      "Ġinterpretation": 6076,
      "ĠìĤ¬": 6077,
      "Ġhot": 6078,
      "itos": 6079,
      "åĪ°": 6080,
      "ĠMS": 6081,
      "Ġchromat": 6082,
      "Ġelastic": 6083,
      "Ġbecomes": 6084,
      "Ġrepresents": 6085,
      "uest": 6086,
      "Ġretr": 6087,
      "Ġpulse": 6088,
      "va": 6089,
      "BC": 6090,
      "éķ": 6091,
      "empt": 6092,
      "Ġub": 6093,
      "ester": 6094,
      "Â»": 6095,
      "Ġclearly": 6096,
      "ept": 6097,
      "Ġchromos": 6098,
      "tration": 6099,
      "Ġintellig": 6100,
      "à¹Ģ": 6101,
      "Ð»Ð°": 6102,
      "tides": 6103,
      "Ġdiverse": 6104,
      "taining": 6105,
      "Ġdual": 6106,
      "ì²": 6107,
      "heric": 6108,
      "Ġcomparing": 6109,
      "Ġnanoparticles": 6110,
      "Despite": 6111,
      "atch": 6112,
      "Ġjo": 6113,
      "itud": 6114,
      "astro": 6115,
      "dis": 6116,
      "çłĶ": 6117,
      "Ġansw": 6118,
      "Ġeffort": 6119,
      "LE": 6120,
      "Ġsurround": 6121,
      "ilosoph": 6122,
      "åħ¨": 6123,
      "ĠNo": 6124,
      "ë§": 6125,
      "Ġmetod": 6126,
      "Ġleaf": 6127,
      "Ġprimarily": 6128,
      "Ġwr": 6129,
      "Ġshock": 6130,
      "ãģĦ": 6131,
      "ĠHospital": 6132,
      "Ġconfidence": 6133,
      "Ġactions": 6134,
      "Per": 6135,
      "ende": 6136,
      "wise": 6137,
      "Ġlargely": 6138,
      "wave": 6139,
      "asa": 6140,
      "duk": 6141,
      "Many": 6142,
      "Ġperceived": 6143,
      "Ġmol": 6144,
      "ummary": 6145,
      "Ġmanufacturing": 6146,
      "ï¼İ": 6147,
      "Ġconsequences": 6148,
      "Ġpump": 6149,
      "Ġmodule": 6150,
      "çĸ": 6151,
      "Ġmess": 6152,
      "everal": 6153,
      "Ġoleh": 6154,
      "eed": 6155,
      "UT": 6156,
      "Ġexplained": 6157,
      "Ġguide": 6158,
      "Ġblack": 6159,
      "ĠØ§Ø²": 6160,
      "Ġmonth": 6161,
      "ulo": 6162,
      "Ġsimultaneously": 6163,
      "ç¨ĭ": 6164,
      "Ġca": 6165,
      "Ġparticipation": 6166,
      "Ġstat": 6167,
      "Ġhypertension": 6168,
      "Ġstroke": 6169,
      "88": 6170,
      "ociation": 6171,
      "Ġcheck": 6172,
      "arth": 6173,
      "ĠIndonesia": 6174,
      "Ġ2007": 6175,
      "56": 6176,
      "ifying": 6177,
      "Ġdib": 6178,
      "ç³»": 6179,
      "Ġpresentation": 6180,
      "actic": 6181,
      "Is": 6182,
      "£¼": 6183,
      "Because": 6184,
      "ĠâĢĶ": 6185,
      "ophil": 6186,
      "-(": 6187,
      "æŀľ": 6188,
      "Ġparents": 6189,
      "ĠLa": 6190,
      "BAC": 6191,
      "·¸": 6192,
      "gence": 6193,
      "irec": 6194,
      "Ġmetode": 6195,
      "Ġincome": 6196,
      "Ġ2016": 6197,
      "Ġshear": 6198,
      "ught": 6199,
      "Ġunderst": 6200,
      "Ġarray": 6201,
      "Ġplastic": 6202,
      "methyl": 6203,
      "TA": 6204,
      "idos": 6205,
      "ĠPA": 6206,
      "Ġfrequent": 6207,
      "Ġchanged": 6208,
      "yond": 6209,
      "Ġadaptive": 6210,
      "Ġfault": 6211,
      "ectors": 6212,
      "Ġforces": 6213,
      "Ġcontempor": 6214,
      "Ġinner": 6215,
      "Ġamoun": 6216,
      "Ġequivalent": 6217,
      "bit": 6218,
      "Ġsleep": 6219,
      "Ä±": 6220,
      "Ġsubstan": 6221,
      "Ġaf": 6222,
      "Ġrout": 6223,
      "fall": 6224,
      "Ġmyocard": 6225,
      "aire": 6226,
      "ĠLA": 6227,
      "ĠGu": 6228,
      "Ġtoo": 6229,
      "ĠÑĢÐ°": 6230,
      "Ġstock": 6231,
      "uits": 6232,
      "ports": 6233,
      "ĠBo": 6234,
      "Ġsimpl": 6235,
      "ABSTRACT": 6236,
      "Ġvarying": 6237,
      "ä¹ĭ": 6238,
      "åĨħ": 6239,
      "Ġkidney": 6240,
      "Ġcam": 6241,
      "xiety": 6242,
      "Ġmap": 6243,
      "Ġadjus": 6244,
      "Ġstation": 6245,
      "ortex": 6246,
      "Ġprice": 6247,
      "Ġcircum": 6248,
      "rogen": 6249,
      "ĨĮ": 6250,
      "ycl": 6251,
      "Ġprobably": 6252,
      "Second": 6253,
      "Ġloading": 6254,
      "Ġequilibrium": 6255,
      "Ġlimitations": 6256,
      "illary": 6257,
      "å¢": 6258,
      "tir": 6259,
      "ĠÏĦ": 6260,
      "ìĺĢ": 6261,
      "ĠEl": 6262,
      "ë²": 6263,
      "ĠìĹ°": 6264,
      "ĠEurope": 6265,
      "ema": 6266,
      "wenty": 6267,
      "Ġguidelines": 6268,
      "Ġimpacts": 6269,
      "Ġmamm": 6270,
      "Ġtree": 6271,
      "Ġbehaviors": 6272,
      "acent": 6273,
      "Ġemphas": 6274,
      "Ð½ÑĭÑħ": 6275,
      "Ġexact": 6276,
      "Ġsafe": 6277,
      "isition": 6278,
      "iki": 6279,
      "Ġorientation": 6280,
      "Ġdefects": 6281,
      "Ġintermediate": 6282,
      "ediatric": 6283,
      "Ġlinked": 6284,
      "Ġendot": 6285,
      "¤ĳ": 6286,
      "vest": 6287,
      "Ġarticles": 6288,
      "Ġdeformation": 6289,
      "times": 6290,
      "ei": 6291,
      "ortic": 6292,
      "Ġmitochondr": 6293,
      "ecutive": 6294,
      "Ġinser": 6295,
      "Ġexhibit": 6296,
      "Ġsections": 6297,
      "Ġcomposed": 6298,
      "Ġbeyond": 6299,
      "Ïħ": 6300,
      "Ġatr": 6301,
      "èī": 6302,
      "ëŁ": 6303,
      "Ġearth": 6304,
      "íĥ": 6305,
      "rought": 6306,
      "ROUND": 6307,
      "ostic": 6308,
      "otal": 6309,
      "Ġrandomized": 6310,
      "economic": 6311,
      "Under": 6312,
      "aken": 6313,
      "Ġextension": 6314,
      "Ġselective": 6315,
      "Ġdistributions": 6316,
      "ĠRuss": 6317,
      "down": 6318,
      "das": 6319,
      "Ġresidual": 6320,
      "ĠIndia": 6321,
      "PE": 6322,
      "ME": 6323,
      "ĠInstitute": 6324,
      "words": 6325,
      "erated": 6326,
      "apor": 6327,
      "Ġexplored": 6328,
      "elves": 6329,
      "Ġnode": 6330,
      "Ġinside": 6331,
      "ientes": 6332,
      "Ġvirtual": 6333,
      "Ġenf": 6334,
      "Ġpurpos": 6335,
      "åºĶ": 6336,
      "Ġinhibitors": 6337,
      "ĠSD": 6338,
      "èĢĮ": 6339,
      "________": 6340,
      "Ġdiffraction": 6341,
      "Î»": 6342,
      "Ġchemotherapy": 6343,
      "Ġthreat": 6344,
      "Ġcharacterization": 6345,
      "03": 6346,
      "Ġthor": 6347,
      "(-": 6348,
      "KGROUND": 6349,
      "58": 6350,
      "Ġsand": 6351,
      "Ġcontrolling": 6352,
      "Ġtargets": 6353,
      "ĠMon": 6354,
      "Ġdespite": 6355,
      "Ġdecreases": 6356,
      "Ġatten": 6357,
      "Ġpancre": 6358,
      "Ġtranscription": 6359,
      "osystem": 6360,
      "63": 6361,
      "Ġtable": 6362,
      "Ġremained": 6363,
      "ĠØ¢": 6364,
      "amide": 6365,
      "Ġsystemic": 6366,
      "Ġaccomp": 6367,
      "çĽ¸": 6368,
      "ĠØ§Ø³Øª": 6369,
      "ç©¶": 6370,
      "Ġscattering": 6371,
      "queous": 6372,
      "Ġtet": 6373,
      "69": 6374,
      "ĠSup": 6375,
      "ĠInter": 6376,
      "ĠMal": 6377,
      "ãĢĬ": 6378,
      "Ġcloud": 6379,
      "Ġbud": 6380,
      "Ġtransf": 6381,
      "Ġstaff": 6382,
      "Ġapplying": 6383,
      "Ġconfiguration": 6384,
      "esar": 6385,
      "Ġcontex": 6386,
      "Ġble": 6387,
      "chemical": 6388,
      "ĠÐ±": 6389,
      "ãĢĭ": 6390,
      "Ġorganizations": 6391,
      "Ġete": 6392,
      "ĠÙ¾": 6393,
      "Ġtek": 6394,
      "cut": 6395,
      "RF": 6396,
      "Ġplaced": 6397,
      "Ġao": 6398,
      "Ġsecara": 6399,
      "Ġtube": 6400,
      "MC": 6401,
      "ogram": 6402,
      "OC": 6403,
      "Ġallowed": 6404,
      "Ġkinase": 6405,
      "Several": 6406,
      "Ã©s": 6407,
      "Ġnoted": 6408,
      "Ġnor": 6409,
      "éļ": 6410,
      "--------": 6411,
      "Ġshare": 6412,
      "èĩª": 6413,
      "ÙĩØ§ÛĮ": 6414,
      "uate": 6415,
      "ische": 6416,
      "ajo": 6417,
      "Ġadministered": 6418,
      "Ġedge": 6419,
      "sebut": 6420,
      "ì¹": 6421,
      "Ġframe": 6422,
      "Ġpp": 6423,
      "Ġpossess": 6424,
      "Ġconnection": 6425,
      "atig": 6426,
      "ignific": 6427,
      "Ð»Ñı": 6428,
      "ÑģÑı": 6429,
      "ëª": 6430,
      "ows": 6431,
      "Ġdate": 6432,
      "mediated": 6433,
      "Ġsmooth": 6434,
      "Ġbuilt": 6435,
      "ëĿ": 6436,
      "Ġ38": 6437,
      "Ġtri": 6438,
      "ĠState": 6439,
      "Ġtrends": 6440,
      "Hasil": 6441,
      "Ġappeared": 6442,
      "Ġ2005": 6443,
      "Ð½Ð¾Ð³Ð¾": 6444,
      "åŃĲ": 6445,
      "rown": 6446,
      "Ġ33": 6447,
      "cre": 6448,
      "Ġrisks": 6449,
      "ĠUnivers": 6450,
      "Ġpembelajaran": 6451,
      "Ġagricultural": 6452,
      "Os": 6453,
      "ohn": 6454,
      "Ġintake": 6455,
      "Ġcomparable": 6456,
      "æľ¯": 6457,
      "Ġ2006": 6458,
      "vo": 6459,
      "Ġfollows": 6460,
      "Ġinterviews": 6461,
      "flu": 6462,
      "arkan": 6463,
      "iere": 6464,
      "ba": 6465,
      "Ġshap": 6466,
      "Ġbecame": 6467,
      "ÏĢ": 6468,
      "Ġindicators": 6469,
      "Ġischem": 6470,
      "ï¼Ĥ": 6471,
      "Ġvisc": 6472,
      "Ġenterpr": 6473,
      "ĠEL": 6474,
      "Ġinflammation": 6475,
      "olid": 6476,
      "ieties": 6477,
      "IA": 6478,
      "akt": 6479,
      "da": 6480,
      "Ġdepending": 6481,
      "Ġ~": 6482,
      "ç§į": 6483,
      "iri": 6484,
      "ĠInternational": 6485,
      "Ġze": 6486,
      "73": 6487,
      "VA": 6488,
      "Ġdecades": 6489,
      "Ġclosely": 6490,
      "ĠÃĹ": 6491,
      "Ġprove": 6492,
      "Ġdiscipl": 6493,
      "Ġanat": 6494,
      "Ġinteresting": 6495,
      "obic": 6496,
      "Ġìĺ": 6497,
      "Ġcorpor": 6498,
      "Ġsoc": 6499,
      "Ġfrequencies": 6500,
      "Ġeasy": 6501,
      "Ġsind": 6502,
      "BACKGROUND": 6503,
      "ÑģÑĤÐ²": 6504,
      "Ġperme": 6505,
      "ees": 6506,
      "Ġapply": 6507,
      "Ġavailability": 6508,
      "lands": 6509,
      "ĠSw": 6510,
      "att": 6511,
      "äº§": 6512,
      "Ġconceptual": 6513,
      "Ġinvestment": 6514,
      "Ġelimin": 6515,
      "Ġattempt": 6516,
      "Ġregulatory": 6517,
      "62": 6518,
      "Ġtoxicity": 6519,
      "Ġweb": 6520,
      "ĠCons": 6521,
      "Ġrandomly": 6522,
      "idge": 6523,
      "Ġrecords": 6524,
      "Ġperception": 6525,
      "Ġwaves": 6526,
      "igation": 6527,
      "ĠAT": 6528,
      "è°": 6529,
      "å»º": 6530,
      "ng": 6531,
      "ĠBi": 6532,
      "Ps": 6533,
      "Ġtakes": 6534,
      "arrow": 6535,
      "ĠProgr": 6536,
      "Ġcompany": 6537,
      "Ġanterior": 6538,
      "Ġinnovation": 6539,
      "Ð½Ñı": 6540,
      "Ġlet": 6541,
      "ĠCal": 6542,
      "mol": 6543,
      "oming": 6544,
      "uous": 6545,
      "Ġtersebut": 6546,
      "chang": 6547,
      "ĠRec": 6548,
      "oglob": 6549,
      "Ġserve": 6550,
      "akes": 6551,
      "valu": 6552,
      "iones": 6553,
      "Ġclosed": 6554,
      "Ġdomains": 6555,
      "Ġtradition": 6556,
      "Ġdefine": 6557,
      "Ġlimits": 6558,
      "Ġmild": 6559,
      "Ġing": 6560,
      "urance": 6561,
      "Ġinvolves": 6562,
      "Ġrecr": 6563,
      "Ġfusion": 6564,
      "Ġcultures": 6565,
      "æĭ": 6566,
      "etahui": 6567,
      "ĠØ¨Ø±": 6568,
      "Ġsaid": 6569,
      "Ġmodul": 6570,
      "Ġpolymorph": 6571,
      "Ġcontroller": 6572,
      "ĠÐ³": 6573,
      "iring": 6574,
      "Ġconcerns": 6575,
      "ĠPC": 6576,
      "Ġobvious": 6577,
      "upakan": 6578,
      "Ġdrop": 6579,
      "Ġmutation": 6580,
      "sens": 6581,
      "ser": 6582,
      "ergic": 6583,
      "Ġshif": 6584,
      "Ġrelax": 6585,
      "Ġcontained": 6586,
      "Ġpneum": 6587,
      "Ġaffects": 6588,
      "olesterol": 6589,
      "Ġproposes": 6590,
      "Ġgerm": 6591,
      "ritis": 6592,
      "char": 6593,
      "Ġpartir": 6594,
      "Ġanomal": 6595,
      "lichen": 6596,
      "Ġfresh": 6597,
      "ÑĩÐµÑģÐº": 6598,
      "å®¶": 6599,
      "Ġê²ĥ": 6600,
      "Ġbis": 6601,
      "Ġteam": 6602,
      "perimental": 6603,
      "rog": 6604,
      "Ġfluorescence": 6605,
      "Ġimpair": 6606,
      "Ġrich": 6607,
      "Ġhaz": 6608,
      "Ġactivated": 6609,
      "ww": 6610,
      "åĢ": 6611,
      "ĠCS": 6612,
      "Ġure": 6613,
      "ç¬": 6614,
      "éĽ": 6615,
      "Ġmanip": 6616,
      "han": 6617,
      "Ġspeech": 6618,
      "ifications": 6619,
      "Ġconsideration": 6620,
      "Ġgreatly": 6621,
      "Ġheating": 6622,
      "Ġutility": 6623,
      "ÃŁ": 6624,
      "keit": 6625,
      "uel": 6626,
      "Ġbott": 6627,
      "77": 6628,
      "disc": 6629,
      "HD": 6630,
      "uries": 6631,
      "çķ": 6632,
      "Ġ{": 6633,
      "ä»£": 6634,
      "ollow": 6635,
      "Ġportion": 6636,
      "Ġunderstood": 6637,
      "imination": 6638,
      "ociated": 6639,
      "Ġsea": 6640,
      "Ġwet": 6641,
      "Ġauto": 6642,
      "lus": 6643,
      "Ġspecificity": 6644,
      "iding": 6645,
      "PI": 6646,
      "ëĵ¤": 6647,
      "Ġnarr": 6648,
      "Ġprefer": 6649,
      "Ġopportunities": 6650,
      "Ġrational": 6651,
      "Ġnicht": 6652,
      "Ġzur": 6653,
      "ÑĢÑĥ": 6654,
      "ĠScience": 6655,
      "Ġrain": 6656,
      "Ġreconstruction": 6657,
      "range": 6658,
      "Ġutilized": 6659,
      "itting": 6660,
      "ìĻĢ": 6661,
      "GE": 6662,
      "Ġconsisting": 6663,
      "Ġsynthetic": 6664,
      "obacter": 6665,
      "Ġnumerous": 6666,
      "ĠCOVID": 6667,
      "Ġcomputing": 6668,
      "Ġtheories": 6669,
      "ĠInternet": 6670,
      "Ġproxim": 6671,
      "Ð¾Ðº": 6672,
      "Ġren": 6673,
      "Ġisolates": 6674,
      "Ġideas": 6675,
      "HT": 6676,
      "åĽł": 6677,
      "Ġexec": 6678,
      "ysts": 6679,
      "Ġintens": 6680,
      "ÙĨØ¯": 6681,
      "Ġsustainable": 6682,
      "61": 6683,
      "Ġconclude": 6684,
      "Ġses": 6685,
      "Ġrecomb": 6686,
      "æ°´": 6687,
      "Ġutilization": 6688,
      "Ġ65": 6689,
      "Ġtrue": 6690,
      "Ñį": 6691,
      "çŁ": 6692,
      "Ġobjectives": 6693,
      "Ġpredictive": 6694,
      "ecting": 6695,
      "Ġcategories": 6696,
      "Ġuncertainty": 6697,
      "lecular": 6698,
      "mL": 6699,
      "ĠUV": 6700,
      "bed": 6701,
      "velopment": 6702,
      "Ġimplant": 6703,
      "Ġamounts": 6704,
      "tors": 6705,
      "itig": 6706,
      "Ġreached": 6707,
      "Ġintroduce": 6708,
      "ê³Ħ": 6709,
      "emper": 6710,
      "Ġsensors": 6711,
      "Ġinterpre": 6712,
      "Ġideal": 6713,
      "ë¶Ģ": 6714,
      "amination": 6715,
      "Through": 6716,
      "Ġfluct": 6717,
      "orbidity": 6718,
      "BA": 6719,
      "Ġseparate": 6720,
      "Ġhighlight": 6721,
      "Ġsalt": 6722,
      "Cons": 6723,
      "outhern": 6724,
      "Ġcytok": 6725,
      "æĻ": 6726,
      "Ġcomputed": 6727,
      "Ġkem": 6728,
      "Ġmerupakan": 6729,
      "PU": 6730,
      "onc": 6731,
      "operation": 6732,
      "ysical": 6733,
      "ypt": 6734,
      "Ġdog": 6735,
      "Ġencour": 6736,
      "Ð¾Ð·": 6737,
      "Ġsek": 6738,
      "Ġdiffer": 6739,
      "íķĺìĺĢ": 6740,
      "lets": 6741,
      "ëĿ¼": 6742,
      "Ġrecognized": 6743,
      "Ġleaves": 6744,
      "Ġexplan": 6745,
      "Ġambient": 6746,
      "BL": 6747,
      "Ġsubstantial": 6748,
      "Ġsatur": 6749,
      "è®º": 6750,
      "}$": 6751,
      "92": 6752,
      "Ġgradient": 6753,
      "Ġnitr": 6754,
      "Ġneigh": 6755,
      "bar": 6756,
      "ĠíĻ": 6757,
      "Ġneutral": 6758,
      "err": 6759,
      "Ġreach": 6760,
      "Ġimpl": 6761,
      "04": 6762,
      "arp": 6763,
      "Ġphoto": 6764,
      "Ġamplitude": 6765,
      "Ġvalidity": 6766,
      "ĠÂ°": 6767,
      "Ġantioxid": 6768,
      "field": 6769,
      "Ġdens": 6770,
      "entes": 6771,
      "Ġcurves": 6772,
      "çŃī": 6773,
      "Ġpuls": 6774,
      "Ġdecl": 6775,
      "ÙĪØ¯": 6776,
      "Ġarb": 6777,
      "ians": 6778,
      "Ġfine": 6779,
      "Ġbulk": 6780,
      "ismo": 6781,
      "Ġmetall": 6782,
      "izer": 6783,
      "Ġaqueous": 6784,
      "Ġenzymes": 6785,
      "Ġtoday": 6786,
      "93": 6787,
      "ĠÑģÑĤ": 6788,
      "Ġalloy": 6789,
      "Ġestr": 6790,
      "Ġcycles": 6791,
      "Ġoutside": 6792,
      "Ġuniversity": 6793,
      "Ġvision": 6794,
      "Ġyields": 6795,
      "Ġarth": 6796,
      "Ġtah": 6797,
      "SH": 6798,
      "itt": 6799,
      "ãĤĮ": 6800,
      "Ġteacher": 6801,
      "Ġrefr": 6802,
      "Ġtrabal": 6803,
      "Ġ;": 6804,
      "Ġquite": 6805,
      "Ġdomestic": 6806,
      "åŀ": 6807,
      "Ġfirms": 6808,
      "Ġacquisition": 6809,
      "Ġtransient": 6810,
      "Ġaffecting": 6811,
      "PCR": 6812,
      "Ġ2017": 6813,
      "Ġtravel": 6814,
      "Ġthems": 6815,
      "derly": 6816,
      "Ġremark": 6817,
      "Ġesp": 6818,
      "Ĩµ": 6819,
      "Ġni": 6820,
      "istration": 6821,
      "Ø§Ø¨": 6822,
      "Ġthemselves": 6823,
      "Ġclar": 6824,
      "itudinal": 6825,
      "Ġbias": 6826,
      "Ġenerg": 6827,
      "çłĶç©¶": 6828,
      "Ġeye": 6829,
      "tures": 6830,
      "94": 6831,
      "ÛĮØ±": 6832,
      "Ġforam": 6833,
      "Ġauch": 6834,
      "Ġcome": 6835,
      "Ġrecommendations": 6836,
      "ider": 6837,
      "Ġminimal": 6838,
      "amiento": 6839,
      "dominal": 6840,
      "Ġemerging": 6841,
      "Ġhumans": 6842,
      "Ġinfras": 6843,
      "ING": 6844,
      "Ġcerebral": 6845,
      "CG": 6846,
      "Ġdriving": 6847,
      "Ġclassified": 6848,
      "ava": 6849,
      "Ġmenunj": 6850,
      "cean": 6851,
      "Ġsen": 6852,
      "Ġsent": 6853,
      "íķĺê³ł": 6854,
      "Ġresultados": 6855,
      "Ġ2004": 6856,
      "Ġcerv": 6857,
      "iers": 6858,
      "Ġrepresented": 6859,
      "Ġtec": 6860,
      "ĠLi": 6861,
      "undred": 6862,
      "Ġcomparative": 6863,
      "Ġschol": 6864,
      "ÐµÐ½Ð¸Ñı": 6865,
      "Ġoptimum": 6866,
      "Ġglut": 6867,
      "æķ°": 6868,
      "Each": 6869,
      "lip": 6870,
      "Ġzero": 6871,
      "Ġobjetivo": 6872,
      "ä¾ĭ": 6873,
      "ÐºÐ¸": 6874,
      "Ġcompression": 6875,
      "Ġanth": 6876,
      "Ġrecip": 6877,
      "FA": 6878,
      "Ġmilk": 6879,
      "ĠWestern": 6880,
      "orthern": 6881,
      "Ġtoxic": 6882,
      "ande": 6883,
      "Ġaxis": 6884,
      "orter": 6885,
      "Ġperspec": 6886,
      "cons": 6887,
      "kin": 6888,
      "gent": 6889,
      "Ġannual": 6890,
      "agog": 6891,
      "çī¹": 6892,
      "Ġtract": 6893,
      "atigue": 6894,
      "åıĳå±ķ": 6895,
      "ĠProf": 6896,
      "Ġinteract": 6897,
      "nen": 6898,
      "Ġcyl": 6899,
      "ĠCA": 6900,
      "inted": 6901,
      "acer": 6902,
      "Ġcontro": 6903,
      "Ġviral": 6904,
      "ÐºÐ°": 6905,
      "alan": 6906,
      "ĠAfrica": 6907,
      "EE": 6908,
      "</": 6909,
      "Ġfal": 6910,
      "Ġ34": 6911,
      "éĢļ": 6912,
      "Ġwhy": 6913,
      "oys": 6914,
      "Ġextens": 6915,
      "Ġê°Ģ": 6916,
      "Ġranging": 6917,
      "Ġanalyzing": 6918,
      "Ġcopper": 6919,
      "esity": 6920,
      "romagnetic": 6921,
      "Ġprecision": 6922,
      "HA": 6923,
      "Ġevol": 6924,
      "Ġinvestigations": 6925,
      "Ġnerv": 6926,
      "Ġposterior": 6927,
      "Ġfatty": 6928,
      "çĽ®": 6929,
      "Med": 6930,
      "urpose": 6931,
      "Ġmorphological": 6932,
      "Ġwavel": 6933,
      "ush": 6934,
      "Ġwireless": 6935,
      "ĠIN": 6936,
      "Ġinduce": 6937,
      "Ġanxiety": 6938,
      "Ġkinds": 6939,
      "tre": 6940,
      "ëĲľ": 6941,
      "52": 6942,
      "ontaneous": 6943,
      "iance": 6944,
      "Ġarm": 6945,
      "Ġlesion": 6946,
      "Ġgrown": 6947,
      "Ġgeometry": 6948,
      "åĿ": 6949,
      "ĠÙĦ": 6950,
      "Ġfacilitate": 6951,
      "Additionally": 6952,
      "BD": 6953,
      "uly": 6954,
      "åĬł": 6955,
      "Ġadequate": 6956,
      "Diff": 6957,
      "Ġterminal": 6958,
      "Ġproductivity": 6959,
      "ĠSO": 6960,
      "Ġflexible": 6961,
      "Ġexplicit": 6962,
      "://": 6963,
      "Ġconform": 6964,
      "ãģª": 6965,
      "Ġdemonstrates": 6966,
      "Ġprost": 6967,
      "ira": 6968,
      "Ġcapability": 6969,
      "ĠMin": 6970,
      "Ġenhancement": 6971,
      "Ġminutes": 6972,
      "Ġnilai": 6973,
      "72": 6974,
      "Ġcooling": 6975,
      "Ġthereby": 6976,
      "Ġartificial": 6977,
      "Ã¼r": 6978,
      "Ġcatalyst": 6979,
      "Ġecological": 6980,
      "Ġrank": 6981,
      "yc": 6982,
      "Ġconductivity": 6983,
      "Ð¾Ð¿": 6984,
      "Ġinclusion": 6985,
      "UN": 6986,
      "Ġpseud": 6987,
      "kt": 6988,
      "ĠMg": 6989,
      "rared": 6990,
      "mia": 6991,
      "Ġlowest": 6992,
      "roc": 6993,
      "ÑĹ": 6994,
      "è·": 6995,
      "aron": 6996,
      "ĠJanuary": 6997,
      "treated": 6998,
      "Ġkes": 6999,
      "Ġvaluable": 7000,
      "Ġmodification": 7001,
      "91": 7002,
      "Ġsituations": 7003,
      "Ø§Ùĩ": 7004,
      "Ġventricular": 7005,
      "MO": 7006,
      "elles": 7007,
      "Ġpeptide": 7008,
      "ulan": 7009,
      "ometer": 7010,
      "Ġfruit": 7011,
      "Ġinfected": 7012,
      "aters": 7013,
      "Ġvalidated": 7014,
      "ç¾": 7015,
      "orrh": 7016,
      "bih": 7017,
      "Ġreduces": 7018,
      "Ġchosen": 7019,
      "ĠStr": 7020,
      "tition": 7021,
      "ultural": 7022,
      "apse": 7023,
      "ochem": 7024,
      "Ġslightly": 7025,
      "Ġwriting": 7026,
      "ĨĴ": 7027,
      "Ġidentifying": 7028,
      "Ġnursing": 7029,
      "ador": 7030,
      "aper": 7031,
      "arse": 7032,
      "à¸ĩ": 7033,
      "Mean": 7034,
      "ĠCR": 7035,
      "Ġphilosoph": 7036,
      "Ġfeeding": 7037,
      "Ġpowder": 7038,
      "Ġ...": 7039,
      "aired": 7040,
      "Ġvas": 7041,
      "eterm": 7042,
      "Introduction": 7043,
      "new": 7044,
      "Ġimag": 7045,
      "Ġ................................................................": 7046,
      "ames": 7047,
      "Ġformula": 7048,
      "Ġtail": 7049,
      "Ġawareness": 7050,
      "ena": 7051,
      "Ġwritten": 7052,
      "Ġquad": 7053,
      "Ġrepeated": 7054,
      "54": 7055,
      "lectric": 7056,
      "ĠAfrican": 7057,
      "å¸Ĥ": 7058,
      "imiento": 7059,
      "Ġdisclos": 7060,
      "å¿ĥ": 7061,
      "Ġìĥģ": 7062,
      "oustic": 7063,
      "Ġlar": 7064,
      "ìĪĺ": 7065,
      "Ġstatic": 7066,
      "Ġsupporting": 7067,
      "ĠKore": 7068,
      "87": 7069,
      "Ġformulation": 7070,
      "Ġdysfunction": 7071,
      "herence": 7072,
      "Ġanne": 7073,
      "Ġgenome": 7074,
      "Ġmapping": 7075,
      "Ġfirm": 7076,
      "Ġcurric": 7077,
      "ola": 7078,
      "Ġabsol": 7079,
      "Ġdynam": 7080,
      "cor": 7081,
      "âĢĬ": 7082,
      "ista": 7083,
      "opsy": 7084,
      "á»": 7085,
      "Ġinfluences": 7086,
      "Ġbiomass": 7087,
      "Ġmolecule": 7088,
      "razil": 7089,
      "Ġrule": 7090,
      "Ag": 7091,
      "arian": 7092,
      "Ġbeginning": 7093,
      "Ġmostly": 7094,
      "Ġconduct": 7095,
      "una": 7096,
      "Ġonce": 7097,
      "Ġspectrom": 7098,
      "à¸¥": 7099,
      "ĠÃł": 7100,
      "ç¡": 7101,
      "èģ": 7102,
      "æ²»": 7103,
      "Ġnearly": 7104,
      "ll": 7105,
      "aterials": 7106,
      "Ġcomprising": 7107,
      "ÐµÐ¼": 7108,
      "igm": 7109,
      "illing": 7110,
      "Ġhouseh": 7111,
      "ÑĤÑĮ": 7112,
      "Ġgoals": 7113,
      "Ġfis": 7114,
      "Ġinfants": 7115,
      "åīį": 7116,
      "Ġenable": 7117,
      "Ġphenomena": 7118,
      "Ġcoal": 7119,
      "ÑĢÐµÐ´": 7120,
      "Ġseman": 7121,
      "Ġclusters": 7122,
      "Ġmultiv": 7123,
      "Ġvulner": 7124,
      "Ġpropagation": 7125,
      "Ġnet": 7126,
      "Ġnach": 7127,
      "oz": 7128,
      "Ġsubjected": 7129,
      "Ġelderly": 7130,
      "Ġexcept": 7131,
      "wid": 7132,
      "Ġpartially": 7133,
      "Ġinstead": 7134,
      "Ġexists": 7135,
      "ĠSoci": 7136,
      "Ġparas": 7137,
      "BM": 7138,
      "ĠÐ·Ð°": 7139,
      "Ġsensing": 7140,
      "Ġcours": 7141,
      "ĠĠĠĠĠĠĠĠ": 7142,
      "ceptions": 7143,
      "86": 7144,
      "part": 7145,
      "Ġgrid": 7146,
      "Ġfibr": 7147,
      "inda": 7148,
      "å¼ı": 7149,
      "Ġchallenging": 7150,
      "Ġforming": 7151,
      "CN": 7152,
      "Ġcoli": 7153,
      "teen": 7154,
      "Ġprolong": 7155,
      "Ġpredominant": 7156,
      "Ġcold": 7157,
      "Ġpil": 7158,
      "osynt": 7159,
      "Ġindirect": 7160,
      "Ġcred": 7161,
      "Ġrock": 7162,
      "Ġopin": 7163,
      "Ġlocations": 7164,
      "Ġscal": 7165,
      "Ġhundred": 7166,
      "ĠMedic": 7167,
      "oor": 7168,
      "Ġprospective": 7169,
      "arrol": 7170,
      "umer": 7171,
      "Ġstart": 7172,
      "Ġstarting": 7173,
      "Ġemissions": 7174,
      "FS": 7175,
      "requency": 7176,
      "ologists": 7177,
      "ĠPL": 7178,
      "Ġmotiv": 7179,
      "æľº": 7180,
      "Ġtent": 7181,
      "ĠWh": 7182,
      "ukkan": 7183,
      "ç½": 7184,
      "iler": 7185,
      "Ġfuz": 7186,
      "OBJECTIVE": 7187,
      "Ġlith": 7188,
      "Ġsess": 7189,
      "orous": 7190,
      "ratic": 7191,
      "opathy": 7192,
      "eme": 7193,
      "Ġquick": 7194,
      "ĠWorld": 7195,
      "Ġkeep": 7196,
      "Ġrhe": 7197,
      "Ġregen": 7198,
      "Ġfront": 7199,
      "æĽ": 7200,
      "Ġclinic": 7201,
      "Ġretrie": 7202,
      "51": 7203,
      "reen": 7204,
      "Ġ2003": 7205,
      "Ġ300": 7206,
      "Ġenough": 7207,
      "dep": 7208,
      "Ġalign": 7209,
      "Ġformer": 7210,
      "pression": 7211,
      "âī": 7212,
      "Ġgastric": 7213,
      "Ġupd": 7214,
      "Ġpositions": 7215,
      "åŀĭ": 7216,
      "Ġattributed": 7217,
      "opol": 7218,
      "TE": 7219,
      "ĠPCR": 7220,
      "ellen": 7221,
      "ikasi": 7222,
      "Em": 7223,
      "urch": 7224,
      "rane": 7225,
      "phosph": 7226,
      "ĠIC": 7227,
      "Ġenab": 7228,
      "Ġgal": 7229,
      "ped": 7230,
      "âĢĿ,": 7231,
      "Ġ42": 7232,
      "Ġenrol": 7233,
      "gel": 7234,
      "ĠER": 7235,
      "Ġsigns": 7236,
      "å°ı": 7237,
      "yz": 7238,
      "Ġpositively": 7239,
      "Ġvic": 7240,
      "Ġmobility": 7241,
      "ellite": 7242,
      "ĠMic": 7243,
      "ignificant": 7244,
      "Ġfluor": 7245,
      "æ¶": 7246,
      "æľŁ": 7247,
      "Ġcharacterize": 7248,
      "ns": 7249,
      "ogeneity": 7250,
      "ĠÐ¾Ð±": 7251,
      "Ġsilicon": 7252,
      "Ġemergency": 7253,
      "Ġprognosis": 7254,
      "Ġsymb": 7255,
      "mas": 7256,
      "Ġextremely": 7257,
      "Ġbig": 7258,
      "Ġphosphory": 7259,
      "Ġple": 7260,
      "otropic": 7261,
      "positive": 7262,
      "cepted": 7263,
      "Ġhosp": 7264,
      "anj": 7265,
      "Ġtypically": 7266,
      "à¸¡": 7267,
      "Ġegg": 7268,
      "ĠDis": 7269,
      "Ġmillion": 7270,
      "Ġ500": 7271,
      "rological": 7272,
      "Ã¨": 7273,
      "Ġitems": 7274,
      "ìĽ": 7275,
      "while": 7276,
      "nm": 7277,
      "ìĬ¤": 7278,
      "ahr": 7279,
      "angkan": 7280,
      "cluding": 7281,
      "Ġproducing": 7282,
      "iert": 7283,
      "Ġrotation": 7284,
      "Ġìĭľ": 7285,
      "cribed": 7286,
      "iculties": 7287,
      "inger": 7288,
      "Ġbatter": 7289,
      "uhan": 7290,
      "Ġintrav": 7291,
      "ĠÑĤ": 7292,
      "Ġhierarch": 7293,
      "Ġesc": 7294,
      "Ġemotional": 7295,
      "Ġstatistics": 7296,
      "ĠMar": 7297,
      "uer": 7298,
      "ĠSci": 7299,
      "Ĥ´": 7300,
      "Ġcette": 7301,
      "Ġcompetition": 7302,
      "¹Ħ": 7303,
      "å½¢": 7304,
      "Ġoptimized": 7305,
      "associated": 7306,
      "Ġoverview": 7307,
      "Ġdisp": 7308,
      "Ġcrisis": 7309,
      "Ġreveals": 7310,
      "urally": 7311,
      "Ġderivatives": 7312,
      "Ġmyocardial": 7313,
      "Ð¾ÑģÑĤ": 7314,
      "Ġantagon": 7315,
      "Ġíĺ": 7316,
      "eur": 7317,
      "link": 7318,
      "Ġcreation": 7319,
      "PM": 7320,
      "ille": 7321,
      "Ġdit": 7322,
      "lah": 7323,
      "Ġtolerance": 7324,
      "perform": 7325,
      "ìŀ¥": 7326,
      "hyth": 7327,
      "Ġoverl": 7328,
      "Ġlogistic": 7329,
      "å¹¶": 7330,
      "89": 7331,
      "Ġperman": 7332,
      "Ġspontaneous": 7333,
      "iar": 7334,
      "Ġmetric": 7335,
      "Ġintegral": 7336,
      "electric": 7337,
      "Ġarterial": 7338,
      "oti": 7339,
      "èĦ": 7340,
      "Ġcavity": 7341,
      "Ġrelates": 7342,
      "Ind": 7343,
      "treatment": 7344,
      "Ð½Ð¾Ð¹": 7345,
      "å¾Ĺ": 7346,
      "cers": 7347,
      "ifier": 7348,
      "aktor": 7349,
      "pass": 7350,
      "oxyl": 7351,
      "Ġdescriptive": 7352,
      "Ġcontributions": 7353,
      "Ġhealthcare": 7354,
      "ĠServ": 7355,
      "reme": 7356,
      "æīĢ": 7357,
      "76": 7358,
      "standing": 7359,
      "Ġbelajar": 7360,
      "Ġcour": 7361,
      "è¶": 7362,
      "Ø«": 7363,
      "Ġsubstanti": 7364,
      "Ġallowing": 7365,
      "Ġresistant": 7366,
      "82": 7367,
      "ilan": 7368,
      "Ġcivil": 7369,
      "æķĪ": 7370,
      "Ġatoms": 7371,
      ")(": 7372,
      "Ġwound": 7373,
      "ister": 7374,
      "Ġasympt": 7375,
      "Ġlongitudinal": 7376,
      "iaz": 7377,
      "Ġtur": 7378,
      "Ġfatigue": 7379,
      "ĠDi": 7380,
      "Ġattitudes": 7381,
      "Ġlegis": 7382,
      "entially": 7383,
      "SE": 7384,
      "Ġbehavioral": 7385,
      "MM": 7386,
      "Ġcomputation": 7387,
      "Ġask": 7388,
      "ãĥ¼": 7389,
      "Ġfuzzy": 7390,
      "Summary": 7391,
      "Ġrespondents": 7392,
      "Ġcoast": 7393,
      "Ġarranged": 7394,
      "yth": 7395,
      "Ġorganizational": 7396,
      "anch": 7397,
      "Ġreservoir": 7398,
      "Ġhold": 7399,
      "Ġecosystem": 7400,
      "rot": 7401,
      "Ġëª": 7402,
      "Ġtrat": 7403,
      "é¡": 7404,
      "fe": 7405,
      "Ġregime": 7406,
      "à¸§": 7407,
      "Ġasymmet": 7408,
      "Ġìłķ": 7409,
      "Ġsynchron": 7410,
      "Ġpapers": 7411,
      "ãģĻ": 7412,
      "cles": 7413,
      "Ġtechnological": 7414,
      "idas": 7415,
      "Ġscales": 7416,
      "oved": 7417,
      "71": 7418,
      "Ġti": 7419,
      "Ġ55": 7420,
      "æĦı": 7421,
      "habil": 7422,
      "Ġrecurrence": 7423,
      "Ġrough": 7424,
      "Ġdeal": 7425,
      "Ġatau": 7426,
      "Ġmoving": 7427,
      "Ġbenz": 7428,
      "Ġincub": 7429,
      "Ġhip": 7430,
      "ĠìľĦ": 7431,
      "istor": 7432,
      "uti": 7433,
      "Ġju": 7434,
      "Ġtraj": 7435,
      "Ġov": 7436,
      "Ġges": 7437,
      "esthes": 7438,
      "Ġirradiation": 7439,
      "Ġconservation": 7440,
      "ĠBrazil": 7441,
      "74": 7442,
      "83": 7443,
      "Ġrice": 7444,
      "Ġprogramming": 7445,
      "Ġouter": 7446,
      "Ġnever": 7447,
      "factory": 7448,
      "Ġopportunity": 7449,
      "encias": 7450,
      "eck": 7451,
      "Ġbasal": 7452,
      "ĠMedical": 7453,
      "Ca": 7454,
      "Ġenables": 7455,
      "head": 7456,
      "Ġcorrelations": 7457,
      "Ġfacilities": 7458,
      "Ġâī¥": 7459,
      "ĠCoun": 7460,
      "Ø§Ø³": 7461,
      "Ġë§": 7462,
      "Ġsho": 7463,
      "Ġappearance": 7464,
      "Ġextra": 7465,
      "Ġoccurring": 7466,
      "ç²": 7467,
      "work": 7468,
      "Ġovercome": 7469,
      "Ġinsights": 7470,
      "é¢ĺ": 7471,
      "Four": 7472,
      "ĥĿ": 7473,
      "Ġalb": 7474,
      "uran": 7475,
      "Ġgastro": 7476,
      "Ġgeneralized": 7477,
      "Ġassociations": 7478,
      "Ġnarrow": 7479,
      "å¼Ģ": 7480,
      "itors": 7481,
      "ëıĻ": 7482,
      "çĿ": 7483,
      "¯¸": 7484,
      "Ġlive": 7485,
      "è®¾": 7486,
      "Or": 7487,
      "Ġseason": 7488,
      "HC": 7489,
      "Ġtrip": 7490,
      "Ġfeasibility": 7491,
      "æ´»": 7492,
      "ĠCF": 7493,
      "Ġtracking": 7494,
      "Ġprobe": 7495,
      "High": 7496,
      "Ġglyc": 7497,
      "anth": 7498,
      "Ġnur": 7499,
      "Ġnewly": 7500,
      "Ġdifficulties": 7501,
      "Ġinstitutional": 7502,
      "tur": 7503,
      "Ġsolving": 7504,
      "Ġmilit": 7505,
      "HS": 7506,
      "Ġmind": 7507,
      "Ġimprovements": 7508,
      "Ġconven": 7509,
      "Gen": 7510,
      "ece": 7511,
      "Ġterd": 7512,
      "Ġ2018": 7513,
      "Ġsegment": 7514,
      "Ġmiss": 7515,
      "ucid": 7516,
      "Keywords": 7517,
      "Ġchromatography": 7518,
      "UD": 7519,
      "anz": 7520,
      "avail": 7521,
      "éĹ´": 7522,
      "amber": 7523,
      "anyak": 7524,
      "Ġinterference": 7525,
      "Ġhormone": 7526,
      "Ġsettings": 7527,
      "orient": 7528,
      "inflamm": 7529,
      "ĠForm": 7530,
      "Ġaddressed": 7531,
      "Ġdiper": 7532,
      "Ġlargest": 7533,
      "Ġhepat": 7534,
      "illed": 7535,
      "Ġneon": 7536,
      "ëĮĢ": 7537,
      "Ġê´Ģ": 7538,
      "Ġ1990": 7539,
      "Ġsti": 7540,
      "Ġvalve": 7541,
      "Ġmacro": 7542,
      "Partic": 7543,
      "Ġacquired": 7544,
      "Ġaplic": 7545,
      "Ġ2002": 7546,
      "ĠMay": 7547,
      "Ġreviews": 7548,
      "Ġwidth": 7549,
      "ĠAmerica": 7550,
      "mean": 7551,
      "posite": 7552,
      "ibli": 7553,
      "æ¬": 7554,
      "Ġevaluating": 7555,
      "ĠQu": 7556,
      "insic": 7557,
      "Ġdri": 7558,
      "Ġdesarrol": 7559,
      "Ġcholesterol": 7560,
      "tious": 7561,
      "vey": 7562,
      "Ġpyr": 7563,
      "itals": 7564,
      "Ġcoverage": 7565,
      "Ġdiscrete": 7566,
      "Ġprelim": 7567,
      "ply": 7568,
      "Ġappar": 7569,
      "Ġìļ": 7570,
      "oped": 7571,
      "Ġoperational": 7572,
      "Ġsuperv": 7573,
      "Ġcount": 7574,
      "Ġvariance": 7575,
      "Ġps": 7576,
      "Ġcategor": 7577,
      "æŁ": 7578,
      "ĠEducation": 7579,
      "Ġì§Ģ": 7580,
      "UR": 7581,
      "Ġëı": 7582,
      "ether": 7583,
      "Ġforma": 7584,
      "Ġsubstrates": 7585,
      "Ġdecomposition": 7586,
      "Ġcontemporary": 7587,
      "Ġtransplantation": 7588,
      "ima": 7589,
      "Recent": 7590,
      "Ġbeneficial": 7591,
      "ç®¡": 7592,
      "ĠCenter": 7593,
      "Ġdeux": 7594,
      "å¹³": 7595,
      "Ġfibers": 7596,
      "ä»İ": 7597,
      "unicip": 7598,
      "cents": 7599,
      "Ġpolyp": 7600,
      "Ġconsisted": 7601,
      "84": 7602,
      "Ġreactive": 7603,
      "ĠUK": 7604,
      "ĠMark": 7605,
      "ishing": 7606,
      "59": 7607,
      "Ġsebesar": 7608,
      "ĠChr": 7609,
      "Ġexpon": 7610,
      "ercul": 7611,
      "Ġscenarios": 7612,
      "istir": 7613,
      "Ġwear": 7614,
      "Ġmembranes": 7615,
      "Ġtopic": 7616,
      "Ġkelas": 7617,
      "Ġclean": 7618,
      "Ġalumin": 7619,
      "Ġproces": 7620,
      "mi": 7621,
      "%;": 7622,
      "making": 7623,
      "ĠPa": 7624,
      "rosion": 7625,
      "ä»¬": 7626,
      "Ġlandsc": 7627,
      "è§£": 7628,
      "Ġschemes": 7629,
      "Ġpollution": 7630,
      "Ġdecline": 7631,
      "Ġapproximation": 7632,
      "Ø³Øª": 7633,
      "Sur": 7634,
      "ĠTHE": 7635,
      "Cu": 7636,
      "ãĥ³": 7637,
      "ĠTur": 7638,
      "Äħ": 7639,
      "Pa": 7640,
      "Ġsizes": 7641,
      "heter": 7642,
      "Ġillness": 7643,
      "Ġ2001": 7644,
      "DP": 7645,
      "Ġflows": 7646,
      "à¸ļ": 7647,
      "Ġbelief": 7648,
      "Ġoxidative": 7649,
      "Compared": 7650,
      "serv": 7651,
      "Ġcompetitive": 7652,
      "Ġtranslation": 7653,
      "Ġpanel": 7654,
      "regulated": 7655,
      "Ġmalignant": 7656,
      "Ġretrospective": 7657,
      "VI": 7658,
      "ëĤĺ": 7659,
      "Ġpenetr": 7660,
      "Ġcultiv": 7661,
      "Ġillustrate": 7662,
      "79": 7663,
      "anned": 7664,
      "resist": 7665,
      "çĶµ": 7666,
      "Ġmagnet": 7667,
      "Ġbuff": 7668,
      "unctional": 7669,
      "aline": 7670,
      "éª": 7671,
      "Ġmaternal": 7672,
      "Ð´Ð°": 7673,
      "Ġgrup": 7674,
      "ober": 7675,
      "cement": 7676,
      "Br": 7677,
      "Ġlact": 7678,
      "Ġconflict": 7679,
      "Ġmengetahui": 7680,
      "Ġstrengthen": 7681,
      "Ġnative": 7682,
      "Ð·Ð°": 7683,
      "Ġut": 7684,
      "Ġendothelial": 7685,
      "Ġlingu": 7686,
      "Ãª": 7687,
      "Ġtransmit": 7688,
      "Ġembedded": 7689,
      "ellar": 7690,
      "Ġbring": 7691,
      "Ġbaik": 7692,
      "room": 7693,
      "ĠOrgan": 7694,
      "ĠÏĢ": 7695,
      "ĠJohn": 7696,
      "Ġdefect": 7697,
      "Ġantim": 7698,
      "grade": 7699,
      "Ġml": 7700,
      "sen": 7701,
      "Ġhemat": 7702,
      "Ġadaptation": 7703,
      "Ġextracts": 7704,
      "nee": 7705,
      "Ġtraits": 7706,
      "Ġmention": 7707,
      "ĠZe": 7708,
      "Ġsud": 7709,
      "ymer": 7710,
      "Ġbarrier": 7711,
      "iatric": 7712,
      "ì¹ĺ": 7713,
      "Ġassumed": 7714,
      "ĠÚ¯": 7715,
      "ostr": 7716,
      "çĹħ": 7717,
      "Ġusage": 7718,
      "Ġprecurs": 7719,
      "Ġsolvent": 7720,
      "Ġana": 7721,
      "ĠItal": 7722,
      "Ġvitamin": 7723,
      "æĸ¹æ³ķ": 7724,
      "Ġmaintained": 7725,
      "amil": 7726,
      "Ġneurop": 7727,
      "ë³¸": 7728,
      "Ġë°ı": 7729,
      "ortion": 7730,
      "Ð¼Ð°": 7731,
      "Ġdecreasing": 7732,
      "EA": 7733,
      "Ġstudying": 7734,
      "oline": 7735,
      "Ġclinically": 7736,
      "ony": 7737,
      "iliki": 7738,
      "Ġobesity": 7739,
      "Ġaccurately": 7740,
      "Ġdispos": 7741,
      "tained": 7742,
      "Ġpreliminary": 7743,
      "anan": 7744,
      "Ġinsight": 7745,
      "Ġautomatic": 7746,
      "ĠSm": 7747,
      "Ġperturb": 7748,
      "ensus": 7749,
      "Ġlibrary": 7750,
      "Due": 7751,
      "Ġremaining": 7752,
      "Ġgave": 7753,
      "Ġmultic": 7754,
      "æ·": 7755,
      "ancies": 7756,
      "Ð¸Ñħ": 7757,
      "Ġspinal": 7758,
      "Ġfoot": 7759,
      "imethyl": 7760,
      "Ġepis": 7761,
      "Ġhim": 7762,
      "Ġremote": 7763,
      "Ġobst": 7764,
      "Ġundert": 7765,
      "ĠEd": 7766,
      "Ġventi": 7767,
      "Ġevid": 7768,
      "berg": 7769,
      "Ġmediated": 7770,
      "tiva": 7771,
      "è¿Ľè¡Į": 7772,
      "gal": 7773,
      "ĠAug": 7774,
      "jo": 7775,
      "Ġsperm": 7776,
      "Ġmodulation": 7777,
      "DR": 7778,
      "âĢĺ": 7779,
      "Ġultrasound": 7780,
      "Ġisot": 7781,
      "Ġranged": 7782,
      "ÙĦÛĮ": 7783,
      "Ġheterogeneous": 7784,
      "Ġsugges": 7785,
      "Ġdiabetic": 7786,
      "Ġexperimentally": 7787,
      "Ġsurrounding": 7788,
      "Ġlogic": 7789,
      "Ġkm": 7790,
      "ĠÑį": 7791,
      "ĠÏĥ": 7792,
      "ä½į": 7793,
      "Ġmoist": 7794,
      "Ġcervical": 7795,
      "eno": 7796,
      "Ġmyel": 7797,
      "discipl": 7798,
      "Ġassembly": 7799,
      "uling": 7800,
      "alities": 7801,
      "çĤ¹": 7802,
      "Ġoptions": 7803,
      "isons": 7804,
      "ç»Ł": 7805,
      "yarak": 7806,
      "Ġindices": 7807,
      "Ġdiag": 7808,
      "Ġpurposes": 7809,
      "Mo": 7810,
      "ç¤¾": 7811,
      "EF": 7812,
      "opic": 7813,
      "ylene": 7814,
      "è´¨": 7815,
      "ĠÙħÛĮ": 7816,
      "Ġpowerful": 7817,
      "ihood": 7818,
      "weight": 7819,
      "Ġsteady": 7820,
      "Ġanalyse": 7821,
      "hene": 7822,
      "Ġshall": 7823,
      "BT": 7824,
      "Ġremoved": 7825,
      "è¨": 7826,
      "Ġundergoing": 7827,
      "ococc": 7828,
      "Ġmand": 7829,
      "Ġinhibitory": 7830,
      "Ġng": 7831,
      "Ġabsorb": 7832,
      "-,": 7833,
      "Ġdiver": 7834,
      "Ġpersons": 7835,
      "itz": 7836,
      "Ġtor": 7837,
      "amos": 7838,
      "ĠMat": 7839,
      "Ġemphasis": 7840,
      "Be": 7841,
      "Ġmorbidity": 7842,
      "Ġlebih": 7843,
      "oleh": 7844,
      "Ġdeficiency": 7845,
      "Ġmoun": 7846,
      "Ġmor": 7847,
      "+)": 7848,
      "ĠFor": 7849,
      "tility": 7850,
      "Ġwherein": 7851,
      "Ġepidem": 7852,
      "Ġefficiently": 7853,
      "Ġprotective": 7854,
      "Ġmacroph": 7855,
      "Ġfire": 7856,
      "itus": 7857,
      "Ġdik": 7858,
      "system": 7859,
      "Ġreferred": 7860,
      "inite": 7861,
      "èĤ²": 7862,
      "ĠWeb": 7863,
      "Ġprecipitation": 7864,
      "Ġmenunjukkan": 7865,
      "Ġmarketing": 7866,
      "Ġseism": 7867,
      "Ġaug": 7868,
      "Ġmixing": 7869,
      "abs": 7870,
      "81": 7871,
      "iol": 7872,
      "Ġestudio": 7873,
      "Ġsmoking": 7874,
      "åħ¥": 7875,
      "Ġdar": 7876,
      "æŀĲ": 7877,
      "wer": 7878,
      "Ġrend": 7879,
      "neg": 7880,
      "Ġmetals": 7881,
      "Ġlosses": 7882,
      "Ġhepatic": 7883,
      "Ġexplores": 7884,
      "\",": 7885,
      "æį": 7886,
      "Ġrab": 7887,
      "sectional": 7888,
      "Ġlens": 7889,
      "Ġabdominal": 7890,
      "chlor": 7891,
      "Ġmarker": 7892,
      "ë³´": 7893,
      "book": 7894,
      "width": 7895,
      "ĠSchool": 7896,
      "Ġdriven": 7897,
      "ographical": 7898,
      "imes": 7899,
      "Ġoder": 7900,
      "iro": 7901,
      "ĠÑĦ": 7902,
      "Ġ72": 7903,
      "Ġgame": 7904,
      "Ġinfec": 7905,
      "Ġseparated": 7906,
      "åģ": 7907,
      "uctive": 7908,
      "vant": 7909,
      "Ġadvance": 7910,
      "erge": 7911,
      "æĹ¥": 7912,
      "Ġmenjadi": 7913,
      "ĠEst": 7914,
      "pert": 7915,
      "Ġpairs": 7916,
      "Ġverte": 7917,
      "à¸Ķ": 7918,
      "Ġinterf": 7919,
      "Ġthinking": 7920,
      "Ġdietary": 7921,
      "Ġrequirement": 7922,
      "struct": 7923,
      "Ġcatalytic": 7924,
      "Ġsom": 7925,
      "Ġtrabalho": 7926,
      "Ġpet": 7927,
      "ĠED": 7928,
      "plas": 7929,
      "Ġproven": 7930,
      "ĠìĹ°êµ¬": 7931,
      "ĠBay": 7932,
      "emperature": 7933,
      "Mod": 7934,
      "Ġantenna": 7935,
      "Ġobserve": 7936,
      "kele": 7937,
      "stage": 7938,
      "Ġcontinue": 7939,
      "empl": 7940,
      "Ġpesqu": 7941,
      "emble": 7942,
      "Ġdetails": 7943,
      "Ġaid": 7944,
      "Ġdisrup": 7945,
      "Ġpermet": 7946,
      "nce": 7947,
      "ologie": 7948,
      "Ġrib": 7949,
      "Ġsecretion": 7950,
      "Ġdim": 7951,
      "Ġbodies": 7952,
      "Ġign": 7953,
      "Ġresol": 7954,
      "Ġdispersion": 7955,
      "Ġepithelial": 7956,
      "ingly": 7957,
      "itary": 7958,
      "Ġapresent": 7959,
      "acted": 7960,
      "æ¨": 7961,
      "Ĥ£": 7962,
      "heres": 7963,
      "à¸¢": 7964,
      "agem": 7965,
      "umes": 7966,
      "New": 7967,
      "lysis": 7968,
      "derived": 7969,
      "ĠSM": 7970,
      "Ġpredictions": 7971,
      "Ġmodelling": 7972,
      "Ġreceive": 7973,
      "Ġcorrection": 7974,
      "arante": 7975,
      "Ġbottom": 7976,
      "Ġintensive": 7977,
      "ÙĬØ©": 7978,
      "Overall": 7979,
      "Ġgold": 7980,
      "ĠØ§ÛĮ": 7981,
      "ading": 7982,
      "Ġspaces": 7983,
      "Ġraw": 7984,
      "adder": 7985,
      "Ġiden": 7986,
      "Ġ2019": 7987,
      "Ġsusceptibility": 7988,
      "omple": 7989,
      "Ġprecise": 7990,
      "Ġolig": 7991,
      "ĠÑĢÐµ": 7992,
      "ki": 7993,
      "Ġìľł": 7994,
      "Ġnous": 7995,
      "íļ": 7996,
      "ĠMRI": 7997,
      "yarakat": 7998,
      "ĠØ§ÙĦÙħ": 7999,
      "gly": 8000,
      "Ġmusic": 8001,
      "Ġhorizontal": 8002,
      "Ġwood": 8003,
      "Ġcenters": 8004,
      "BI": 8005,
      "ĠIF": 8006,
      "Ġattempts": 8007,
      "sim": 8008,
      "Ġdrive": 8009,
      "text": 8010,
      "cing": 8011,
      "Ġpic": 8012,
      "Ġshared": 8013,
      "Ġfair": 8014,
      "Ġvibration": 8015,
      "Sp": 8016,
      "Ġtargeted": 8017,
      "Ġhaem": 8018,
      "Ġdeploy": 8019,
      "Ġbert": 8020,
      "Ġinfrastructure": 8021,
      "æ°ĳ": 8022,
      "OT": 8023,
      "éķ¿": 8024,
      "Ġintracellular": 8025,
      "ĠCON": 8026,
      "æ¯Ķ": 8027,
      "Ġassigned": 8028,
      "ĠÎ³": 8029,
      "ĠCd": 8030,
      "ĠAR": 8031,
      "Ġaz": 8032,
      "Ġtomography": 8033,
      "Ġintervals": 8034,
      "tique": 8035,
      "Ġconcerned": 8036,
      "Ġreplacement": 8037,
      "ĠÐ¿ÑĢÐ¸": 8038,
      "aceu": 8039,
      "alpha": 8040,
      "ext": 8041,
      "ompl": 8042,
      "ĠMT": 8043,
      "Ġconvergence": 8044,
      "engaruh": 8045,
      "ige": 8046,
      "Ġadjacent": 8047,
      "axis": 8048,
      "oked": 8049,
      "Ġci": 8050,
      "Ġaltered": 8051,
      "has": 8052,
      "Ġanaliz": 8053,
      "iotics": 8054,
      "icrob": 8055,
      "dehy": 8056,
      "acchar": 8057,
      "chen": 8058,
      "exist": 8059,
      "icion": 8060,
      "ĠRT": 8061,
      "Ġethanol": 8062,
      "Ġsupports": 8063,
      "ĠTi": 8064,
      "Ġ150": 8065,
      "tico": 8066,
      "Ġsoils": 8067,
      "hold": 8068,
      "å¦": 8069,
      "ticas": 8070,
      "Ġdevelopments": 8071,
      "oney": 8072,
      "Ġball": 8073,
      "ĠEN": 8074,
      "ĠSub": 8075,
      "icas": 8076,
      "asure": 8077,
      "arn": 8078,
      "ĠØŃ": 8079,
      "Ġthyroid": 8080,
      "Ġroutine": 8081,
      "Their": 8082,
      "Ġcalculate": 8083,
      "atu": 8084,
      "Ð²Ð¸": 8085,
      "06": 8086,
      "Ġmutant": 8087,
      "Te": 8088,
      "AF": 8089,
      "ĠPM": 8090,
      "ATION": 8091,
      "Ġtrauma": 8092,
      "iste": 8093,
      "Ġnine": 8094,
      "SR": 8095,
      "Ġaccompan": 8096,
      "Ġcombining": 8097,
      "Ġmarkets": 8098,
      "íķĺìĺĢëĭ¤": 8099,
      "iner": 8100,
      "Ġelucid": 8101,
      "ĠIR": 8102,
      "Ġsquare": 8103,
      "ĠOb": 8104,
      "Ġnanoc": 8105,
      "ensis": 8106,
      "ulator": 8107,
      "Ġtension": 8108,
      "ĠPR": 8109,
      "Ġë¬": 8110,
      "ì¡°": 8111,
      "Ġphysic": 8112,
      "keletal": 8113,
      "Ġworldwide": 8114,
      "Cr": 8115,
      "Ġdefic": 8116,
      "oll": 8117,
      "VD": 8118,
      "ĠSal": 8119,
      "ested": 8120,
      "Ġpron": 8121,
      "Ġheld": 8122,
      "Ġtrop": 8123,
      "Ġnod": 8124,
      "Ġassays": 8125,
      "ĠModel": 8126,
      "ÑģÑģ": 8127,
      "Ġrh": 8128,
      "Its": 8129,
      "beit": 8130,
      "Ġtrait": 8131,
      "ami": 8132,
      "Inter": 8133,
      "sche": 8134,
      "ë²ķ": 8135,
      "Ġtan": 8136,
      "æĺ¾": 8137,
      "Ġpand": 8138,
      "Ġakan": 8139,
      "Ġadvances": 8140,
      "Ġdistric": 8141,
      "jek": 8142,
      "æº": 8143,
      "itan": 8144,
      "âĢĿ.": 8145,
      "enden": 8146,
      "ÂłÂł": 8147,
      "Î¯": 8148,
      "Ġarbitr": 8149,
      "Ġhat": 8150,
      "Ġconsult": 8151,
      "Ġbor": 8152,
      "ï¼ļ": 8153,
      "ĠSociety": 8154,
      "Ġhapp": 8155,
      "Ġcentr": 8156,
      "ĠPre": 8157,
      "Ġnav": 8158,
      "Ġcast": 8159,
      "ulty": 8160,
      "Ġinnovative": 8161,
      "Ġurinary": 8162,
      "Ġ39": 8163,
      "Ġdro": 8164,
      "Ġresidues": 8165,
      "Ġdisplacement": 8166,
      "oidal": 8167,
      "ĠAnd": 8168,
      "Å¯": 8169,
      "Ġresection": 8170,
      "Ġinfrared": 8171,
      "Ġserta": 8172,
      "ĠDecember": 8173,
      "åĵģ": 8174,
      "Vari": 8175,
      "Ġket": 8176,
      "wing": 8177,
      "Ġcarrier": 8178,
      "Trans": 8179,
      "Ġconclusions": 8180,
      "Ġtes": 8181,
      "ê²Į": 8182,
      "atically": 8183,
      "Ġprofessionals": 8184,
      "Ġintestinal": 8185,
      "Ġrobot": 8186,
      "Ġlattice": 8187,
      "æľĢ": 8188,
      "Ġpartn": 8189,
      "LC": 8190,
      "ë¬¸": 8191,
      "Ġgir": 8192,
      "ĠSP": 8193,
      "Ġcareful": 8194,
      "Ġsuppress": 8195,
      "Ġhardware": 8196,
      "ulture": 8197,
      "otide": 8198,
      "Ġhid": 8199,
      "uis": 8200,
      "è®¡": 8201,
      "Ġargue": 8202,
      "ĠìŀĪëĭ¤": 8203,
      "Ġantioxidant": 8204,
      "itone": 8205,
      "Ġdirections": 8206,
      "ĠIT": 8207,
      "Ġvalidation": 8208,
      "Ġfocusing": 8209,
      "Ġbiochemical": 8210,
      "Ġsignif": 8211,
      "omorph": 8212,
      "è¡Ģ": 8213,
      "Ġcategory": 8214,
      "OP": 8215,
      "ncia": 8216,
      "Ġinvasive": 8217,
      "Ġsmart": 8218,
      "Ġsimilarity": 8219,
      "Ġkinetics": 8220,
      "Ġreverse": 8221,
      "ĠCM": 8222,
      "Ġprogressive": 8223,
      "ĠInt": 8224,
      "Ġjug": 8225,
      "Ïī": 8226,
      "Ġì¤ĳ": 8227,
      "Ġmeningkat": 8228,
      "ÙĪÙĨ": 8229,
      "Ġmitochondrial": 8230,
      "Ġcontamin": 8231,
      "adores": 8232,
      "Ġapparatus": 8233,
      "enh": 8234,
      "********": 8235,
      "Ġscholars": 8236,
      "ĠCent": 8237,
      "íĬ": 8238,
      "ëħ": 8239,
      "anger": 8240,
      "à¸Ħ": 8241,
      "ĠSocial": 8242,
      "Ġelabor": 8243,
      "ĠUSA": 8244,
      "Ġsep": 8245,
      "inflammatory": 8246,
      "angi": 8247,
      "08": 8248,
      "ä¸ŃåĽ½": 8249,
      "Ġlie": 8250,
      "regulation": 8251,
      "Ġrelacion": 8252,
      "Ġdocuments": 8253,
      "Ġanos": 8254,
      "hydroxy": 8255,
      "ç¬¬": 8256,
      "Ġmining": 8257,
      "Ġmatching": 8258,
      "ococcus": 8259,
      "Ġimproves": 8260,
      "Ġadolescents": 8261,
      "Ġasth": 8262,
      "çİĩ": 8263,
      "Ġbiomark": 8264,
      "BV": 8265,
      "ĠMn": 8266,
      "Ġmaps": 8267,
      "ona": 8268,
      "oted": 8269,
      "Ġcomplicated": 8270,
      "ĠØ¬": 8271,
      "Ġretention": 8272,
      "Ġves": 8273,
      "Ġligand": 8274,
      "Ġvaccine": 8275,
      "Ġdetecting": 8276,
      "Ġcircul": 8277,
      "Ġbiopsy": 8278,
      "Ġdevelopmental": 8279,
      "Ġ44": 8280,
      "Ġih": 8281,
      "inos": 8282,
      "))": 8283,
      "Ùĥ": 8284,
      "Ġmelan": 8285,
      "Ġtrabajo": 8286,
      "Ġinstruments": 8287,
      "iliar": 8288,
      "Ġdeform": 8289,
      "patient": 8290,
      "åıĺ": 8291,
      "Ġwor": 8292,
      "ĠDC": 8293,
      "Ġrehabil": 8294,
      "Ġobstr": 8295,
      "Ġemployment": 8296,
      "Ġvariants": 8297,
      "ocl": 8298,
      "Ġkinetic": 8299,
      "aterial": 8300,
      "onucle": 8301,
      "Ġ43": 8302,
      "uru": 8303,
      "Ġorg": 8304,
      "Ġisolation": 8305,
      "Ġemployees": 8306,
      "Ġguarante": 8307,
      "Ġindependently": 8308,
      "Ġice": 8309,
      "yg": 8310,
      "Ġdesired": 8311,
      "Ġatomic": 8312,
      "Ġeyes": 8313,
      "Ġmitig": 8314,
      "este": 8315,
      "Ġswitching": 8316,
      "Ġassessing": 8317,
      "What": 8318,
      "Ġmarine": 8319,
      "NN": 8320,
      "Ġabsolute": 8321,
      "ĠÐ½Ðµ": 8322,
      "Ġstrategic": 8323,
      "Ġperforming": 8324,
      "ustion": 8325,
      "rest": 8326,
      "Ġrod": 8327,
      "ĠOn": 8328,
      "Ġ41": 8329,
      "AI": 8330,
      "Ġmovements": 8331,
      "Ġvacu": 8332,
      "Ġcum": 8333,
      "ëŀ": 8334,
      "Ġabundance": 8335,
      "Ø°": 8336,
      "Purpose": 8337,
      "Ġinequ": 8338,
      "Ġnotion": 8339,
      "osion": 8340,
      "Ùī": 8341,
      "orus": 8342,
      "Ġprostate": 8343,
      "alian": 8344,
      "Ġacoustic": 8345,
      "Ġmotivation": 8346,
      "aÃ§Ã£o": 8347,
      "å½±": 8348,
      "Ġvital": 8349,
      "ç´ł": 8350,
      "Ġreflex": 8351,
      "ä¹ī": 8352,
      "Other": 8353,
      "íĦ": 8354,
      "UC": 8355,
      "ensi": 8356,
      "Ġcontinued": 8357,
      "ifer": 8358,
      "etric": 8359,
      "Ġdimin": 8360,
      "Ġfluctu": 8361,
      "Ġhospitals": 8362,
      "fa": 8363,
      "Ġdele": 8364,
      "Ġextend": 8365,
      "åĮº": 8366,
      "Ġfailed": 8367,
      "Ġsurge": 8368,
      "Ġmend": 8369,
      "Ġmoral": 8370,
      "Ġgenerating": 8371,
      "à¸ª": 8372,
      "frequency": 8373,
      "Ġexcitation": 8374,
      "tee": 8375,
      "Ġleadership": 8376,
      "try": 8377,
      "Ġaccepted": 8378,
      "Ġdental": 8379,
      "Ġdiscovery": 8380,
      "Ġpractition": 8381,
      "Ġlocalization": 8382,
      "ĠìłĦ": 8383,
      "Ġcapabilities": 8384,
      "ì²´": 8385,
      "çĿĢ": 8386,
      "Ġaging": 8387,
      "Ġnurses": 8388,
      "insi": 8389,
      "Ġreligious": 8390,
      "ĠFour": 8391,
      "Ġimped": 8392,
      "0001": 8393,
      "Ġcorrosion": 8394,
      "íķĻ": 8395,
      "Ġmeta": 8396,
      "Ġmere": 8397,
      "Ġcomme": 8398,
      "Ġcompati": 8399,
      "ahl": 8400,
      "benz": 8401,
      "æķĻåŃ¦": 8402,
      "Ġile": 8403,
      "ĠAI": 8404,
      "liche": 8405,
      "Ġidentical": 8406,
      "ĠÙħÙĨ": 8407,
      "Ġtrees": 8408,
      "ĠMR": 8409,
      "iling": 8410,
      "Ġwestern": 8411,
      "rawn": 8412,
      "Ġkn": 8413,
      "Ġstere": 8414,
      "esthesia": 8415,
      "inine": 8416,
      "Ø¯Ùĩ": 8417,
      "eli": 8418,
      "Ġcrystals": 8419,
      "dasarkan": 8420,
      "Ġty": 8421,
      "icin": 8422,
      "Ġinsuff": 8423,
      "press": 8424,
      "generation": 8425,
      "Ġpathological": 8426,
      "Only": 8427,
      "OM": 8428,
      "Ġpossibly": 8429,
      "Ġcreating": 8430,
      "rench": 8431,
      "å¤ĸ": 8432,
      "Ġmag": 8433,
      "ductor": 8434,
      "Ġgrap": 8435,
      "usah": 8436,
      "Ġdielectric": 8437,
      "ativo": 8438,
      "ĠApr": 8439,
      "Ø£": 8440,
      "ĠKr": 8441,
      "inting": 8442,
      "irr": 8443,
      "Ġturbul": 8444,
      "Hence": 8445,
      "Ġinjuries": 8446,
      "Ġflav": 8447,
      "ĠEU": 8448,
      "Ġ2020": 8449,
      "Ġplacebo": 8450,
      "Ġpolarization": 8451,
      "Ġfric": 8452,
      "lege": 8453,
      "Ġstiff": 8454,
      "Ġfeasible": 8455,
      "Ġbarriers": 8456,
      "Ġmemiliki": 8457,
      "ads": 8458,
      "Ġjustif": 8459,
      "cious": 8460,
      "Ġvisible": 8461,
      "Ġtook": 8462,
      "ĠJune": 8463,
      "Ġverified": 8464,
      "Sh": 8465,
      "Ġrelevance": 8466,
      "lect": 8467,
      "enth": 8468,
      "Ġrepresentative": 8469,
      "âĢ¢": 8470,
      "class": 8471,
      "etz": 8472,
      "Ġloop": 8473,
      "ĠGa": 8474,
      "Ġvill": 8475,
      "Ġrelaxation": 8476,
      "Ġtourism": 8477,
      "Ġ85": 8478,
      "week": 8479,
      "ochastic": 8480,
      "aram": 8481,
      "Ġcompact": 8482,
      "Ġcortex": 8483,
      "Ġflat": 8484,
      "heses": 8485,
      "ĠHy": 8486,
      "Ġproduk": 8487,
      "Ġexpressions": 8488,
      "Ġharvest": 8489,
      "Ġflood": 8490,
      "Ġjur": 8491,
      "Ġconsumer": 8492,
      "Ġcomposites": 8493,
      "Ġsie": 8494,
      "Ġbecoming": 8495,
      "Ġ46": 8496,
      "Ġbron": 8497,
      "Ġ*": 8498,
      "ĠAustralia": 8499,
      "ĠÛĮ": 8500,
      "produc": 8501,
      "Ġhydroph": 8502,
      "Ġburden": 8503,
      "Ġvag": 8504,
      "Ġsul": 8505,
      "Ġcod": 8506,
      "ĠâĢŀ": 8507,
      "Ġanis": 8508,
      "Ġcord": 8509,
      "opyr": 8510,
      "Ġmoisture": 8511,
      "Ġcitiz": 8512,
      "Ġoffered": 8513,
      "ìĹĪ": 8514,
      "ĠBas": 8515,
      "ophag": 8516,
      "ĠRF": 8517,
      "gebra": 8518,
      "Ġammon": 8519,
      "Ġë³´": 8520,
      "ĠÎ´": 8521,
      "Ġonto": 8522,
      "rical": 8523,
      "Ġgraf": 8524,
      "xyl": 8525,
      "Ġprognostic": 8526,
      "ĠAF": 8527,
      "umines": 8528,
      "Ġconsecutive": 8529,
      "_{": 8530,
      "ĠAll": 8531,
      "ĠìĿ¸": 8532,
      "envol": 8533,
      "Ġrecurrent": 8534,
      "Ġprotocols": 8535,
      "auss": 8536,
      "Ġaccompanied": 8537,
      "ĠWest": 8538,
      "Current": 8539,
      "Ġsatu": 8540,
      "Ġmu": 8541,
      "Ġchloride": 8542,
      "Ġmicrobial": 8543,
      "ĠIt": 8544,
      "years": 8545,
      "DI": 8546,
      "Ġchamber": 8547,
      "Ġtamb": 8548,
      "Ġspir": 8549,
      "Ġcandidate": 8550,
      "oria": 8551,
      "sur": 8552,
      "Ġpresenting": 8553,
      "uses": 8554,
      "cks": 8555,
      "Ġ120": 8556,
      "life": 8557,
      "Ġlabel": 8558,
      "ohist": 8559,
      "ä¸ī": 8560,
      "atiz": 8561,
      "Ġpathogenesis": 8562,
      "Compar": 8563,
      "Ġdent": 8564,
      ".âĢĿ": 8565,
      "Ġantara": 8566,
      "Est": 8567,
      "EGF": 8568,
      "ĠHR": 8569,
      "Ġinterfer": 8570,
      "Ġelectroph": 8571,
      "à¸Ĺ": 8572,
      "Ġnanos": 8573,
      "ulas": 8574,
      "åħ¬": 8575,
      "Ġnano": 8576,
      "Ġtransp": 8577,
      "onin": 8578,
      "Ġpediatric": 8579,
      "bi": 8580,
      "erentes": 8581,
      "Ġperh": 8582,
      "Ġeti": 8583,
      "AG": 8584,
      "Ġek": 8585,
      "erior": 8586,
      "Bu": 8587,
      "ĠÎ¼g": 8588,
      "Ġfractures": 8589,
      "Ġwavelength": 8590,
      "lie": 8591,
      "Ġger": 8592,
      "Ġanc": 8593,
      "Ġquantity": 8594,
      "Ġinver": 8595,
      "ãĤī": 8596,
      "Ġbinary": 8597,
      "Par": 8598,
      "Ġdeviation": 8599,
      "ÙĩØ§": 8600,
      "Ġapplicable": 8601,
      "Ġstarted": 8602,
      "Ġconsumers": 8603,
      "æĶ¿": 8604,
      "Ġurine": 8605,
      "LR": 8606,
      "Ĥ°": 8607,
      "Ġzones": 8608,
      "ogenetic": 8609,
      "Ġnation": 8610,
      "Ġattitude": 8611,
      "Ġdecade": 8612,
      "unit": 8613,
      "âĢ¦": 8614,
      "Ġstaining": 8615,
      "ĠAnalysis": 8616,
      "aceutical": 8617,
      "Ġestudo": 8618,
      "Ġ?": 8619,
      "èĬ": 8620,
      "Ø§Ùģ": 8621,
      "oscopic": 8622,
      "Ġaccounting": 8623,
      "oon": 8624,
      "osin": 8625,
      "Ġaudit": 8626,
      "theless": 8627,
      "07": 8628,
      "Ġadhesion": 8629,
      "Ġdecay": 8630,
      "ttp": 8631,
      "Ġimper": 8632,
      "usamm": 8633,
      "ë©´": 8634,
      "Ġpedagog": 8635,
      "Ġdonor": 8636,
      "Ġom": 8637,
      "arena": 8638,
      "Ġdrain": 8639,
      "Ġreality": 8640,
      "ç§ĳ": 8641,
      "ky": 8642,
      "Ġdeals": 8643,
      "Ġfaster": 8644,
      "Ġtal": 8645,
      "king": 8646,
      "Ġq": 8647,
      "Ġreflection": 8648,
      "irty": 8649,
      "Ġsequencing": 8650,
      "yse": 8651,
      "ĠØ¨Ø§": 8652,
      "Ġviews": 8653,
      "troph": 8654,
      "Ġoperator": 8655,
      "Ġmaintaining": 8656,
      "Experimental": 8657,
      "ĠPen": 8658,
      "ìĦĿ": 8659,
      "Ġatom": 8660,
      "èħ": 8661,
      "Ġ1999": 8662,
      "Ġiso": 8663,
      "Ġtransplant": 8664,
      "Ġdemands": 8665,
      "Ġabnormalities": 8666,
      "Ġdoub": 8667,
      "Ġmasyarakat": 8668,
      "æľĪ": 8669,
      "ĠBer": 8670,
      "Ġfetal": 8671,
      "Ġera": 8672,
      "ë£": 8673,
      "ĠInc": 8674,
      "Ġcontract": 8675,
      "haus": 8676,
      "Ġguidance": 8677,
      "Ġfabricated": 8678,
      "Â©": 8679,
      "Ġkur": 8680,
      "Di": 8681,
      "Ġcytotox": 8682,
      "adian": 8683,
      "Ġphosphate": 8684,
      "Ġconsequence": 8685,
      "ÑĨÑĸ": 8686,
      "Recently": 8687,
      "ĠSer": 8688,
      "sten": 8689,
      "ĠØ®": 8690,
      "ĠOR": 8691,
      "ĠEast": 8692,
      "Ġbit": 8693,
      "ĠFed": 8694,
      "Ġphysicians": 8695,
      "Ġ52": 8696,
      "pre": 8697,
      "Ġsolved": 8698,
      "Ġpore": 8699,
      "Ġvibr": 8700,
      "Ġ400": 8701,
      "Ġintended": 8702,
      "ØªØ±": 8703,
      "Ġbearing": 8704,
      "Para": 8705,
      "ogens": 8706,
      "Ġcities": 8707,
      "Int": 8708,
      "Ġtreating": 8709,
      "apped": 8710,
      "Ġsemicon": 8711,
      "uality": 8712,
      "ÑĩÐ°": 8713,
      "Ġfri": 8714,
      "ĠIndian": 8715,
      "Ġopening": 8716,
      "Ġsav": 8717,
      "ilarly": 8718,
      "Ġhousing": 8719,
      "analysis": 8720,
      "Ġcollege": 8721,
      "Ġderm": 8722,
      "Ġdesigns": 8723,
      "Ġcada": 8724,
      "ĠMarch": 8725,
      "Ġvehicles": 8726,
      "ĠNetwork": 8727,
      "Ġtres": 8728,
      "cutaneous": 8729,
      "ochemistry": 8730,
      "Ġinitially": 8731,
      "Ġscenario": 8732,
      "pel": 8733,
      "çĦ": 8734,
      "Ġentit": 8735,
      "orte": 8736,
      "ä¹Ł": 8737,
      "Ġpromin": 8738,
      "eni": 8739,
      "Ġroute": 8740,
      "ìłĦ": 8741,
      "Ġcancers": 8742,
      "ĠArab": 8743,
      "Ġë¶Ħ": 8744,
      "Ġeinem": 8745,
      "Ġsow": 8746,
      "ÐĴ": 8747,
      "Reg": 8748,
      "Ġbleeding": 8749,
      "illance": 8750,
      "Ġêµ¬": 8751,
      "Ġspring": 8752,
      "Ġhence": 8753,
      "AV": 8754,
      "Ġhole": 8755,
      "ordance": 8756,
      "Ne": 8757,
      "Ġintel": 8758,
      "Ġwarm": 8759,
      "eptember": 8760,
      "Ġsubsequently": 8761,
      "Ġcausing": 8762,
      "ĠRiver": 8763,
      "Ġmunicip": 8764,
      "inde": 8765,
      "Ġstay": 8766,
      "oprotein": 8767,
      "è¾¾": 8768,
      "vi": 8769,
      "Ġpredicting": 8770,
      "aped": 8771,
      "process": 8772,
      "Ġmilitary": 8773,
      "ë©°": 8774,
      "lectual": 8775,
      "Ġalterations": 8776,
      "Na": 8777,
      "Este": 8778,
      "Ġimpairment": 8779,
      "Ġstop": 8780,
      "Ġinfil": 8781,
      "itability": 8782,
      "ĠCor": 8783,
      "Ġvolati": 8784,
      "LD": 8785,
      "Ġatmospheric": 8786,
      "ĠPV": 8787,
      "Ġplasm": 8788,
      "Ġcyclic": 8789,
      "Ġundertaken": 8790,
      "icular": 8791,
      ".\"": 8792,
      "aque": 8793,
      "war": 8794,
      "diff": 8795,
      "LS": 8796,
      "Ġjournal": 8797,
      "ï¼Ľ": 8798,
      "uration": 8799,
      "ĠVol": 8800,
      "Ġmicroscop": 8801,
      "Ġemerged": 8802,
      "ĠMD": 8803,
      "naires": 8804,
      "Ġcustomer": 8805,
      "mes": 8806,
      "ĠìŀĲ": 8807,
      "Ġreproductive": 8808,
      "Ġparadigm": 8809,
      "Ġoption": 8810,
      "Ġorganisms": 8811,
      "Ġdebate": 8812,
      "vered": 8813,
      "Ġmetastasis": 8814,
      "illus": 8815,
      "clear": 8816,
      "ĠOct": 8817,
      "ãģĻãĤĭ": 8818,
      "Ġcollis": 8819,
      "Ġinstruction": 8820,
      "Ġstyle": 8821,
      "Ġexclus": 8822,
      "Ø§Ø²": 8823,
      "Ġovari": 8824,
      "Ġbands": 8825,
      "Ġzinc": 8826,
      "Ġcirculation": 8827,
      "Ġperceptions": 8828,
      "Ġrecon": 8829,
      "æĢĿ": 8830,
      "Ġfinally": 8831,
      "Ġcutting": 8832,
      "ÐºÑĤ": 8833,
      "Ġdomin": 8834,
      "LP": 8835,
      "conn": 8836,
      "Ġcoordination": 8837,
      "carbon": 8838,
      "light": 8839,
      "íķł": 8840,
      "Ġbind": 8841,
      "Ġdetector": 8842,
      "Ġcurren": 8843,
      "pread": 8844,
      "Ġdataset": 8845,
      "Ġwaters": 8846,
      "Ġada": 8847,
      "Ġcollagen": 8848,
      "hand": 8849,
      "imb": 8850,
      "åĪĨæŀĲ": 8851,
      "hol": 8852,
      "Ġdark": 8853,
      "angs": 8854,
      "Ġnao": 8855,
      "jections": 8856,
      "Ġmerc": 8857,
      "illi": 8858,
      "Ð¾Ð²Ð°Ð½Ð¸": 8859,
      "ker": 8860,
      "olip": 8861,
      "Ġorganis": 8862,
      "where": 8863,
      "ĠÑĢ": 8864,
      "åħ·": 8865,
      "idal": 8866,
      "Bl": 8867,
      "Ġperspectives": 8868,
      "Ġê²½": 8869,
      "edom": 8870,
      "beta": 8871,
      "Ġanalyzes": 8872,
      "Ġwie": 8873,
      "Ġproses": 8874,
      "Ġrestricted": 8875,
      "Ġtherapies": 8876,
      "Ġroots": 8877,
      "OF": 8878,
      "unci": 8879,
      "pat": 8880,
      "ĠInformation": 8881,
      "Ġrespective": 8882,
      "Ġ$\\": 8883,
      "æĶ¹": 8884,
      "æŃ£": 8885,
      "cycl": 8886,
      "HP": 8887,
      "Ġargument": 8888,
      "Ġrub": 8889,
      "Ġplural": 8890,
      "ytes": 8891,
      "ĠManagement": 8892,
      "Ġfoundation": 8893,
      "Ġcontributes": 8894,
      "}}": 8895,
      "Î´": 8896,
      "under": 8897,
      "Ġtubercul": 8898,
      "ika": 8899,
      "Ġassumption": 8900,
      "Ġraised": 8901,
      "idespread": 8902,
      "Ġintrinsic": 8903,
      "ineering": 8904,
      "Ġìĸ": 8905,
      "ĠíĨµ": 8906,
      "Ġrobo": 8907,
      "elihood": 8908,
      "Ġaccompl": 8909,
      "Ġconsiders": 8910,
      "akers": 8911,
      "itions": 8912,
      "ĠMa": 8913,
      "umptions": 8914,
      "omial": 8915,
      "Ġexceed": 8916,
      "Ġinitiation": 8917,
      "Ġdifficulty": 8918,
      "anium": 8919,
      "Ġleur": 8920,
      "ìĨĮ": 8921,
      "Ġ47": 8922,
      "Ġdelayed": 8923,
      "ket": 8924,
      "Ġinfarc": 8925,
      "ĠPers": 8926,
      "Ġsegments": 8927,
      "Ġreasonable": 8928,
      "Ġatmosphere": 8929,
      "mat": 8930,
      "Ġblue": 8931,
      "ardi": 8932,
      "Ġcoding": 8933,
      "Ġtrace": 8934,
      "Ġmultim": 8935,
      "Ġderive": 8936,
      "ì¶": 8937,
      "Ġdepartment": 8938,
      "ĠSte": 8939,
      "Ġho": 8940,
      "ĠSE": 8941,
      "Ġlandscape": 8942,
      "being": 8943,
      "Ġgamma": 8944,
      "Ġ56": 8945,
      "anted": 8946,
      "pi": 8947,
      "ĠMex": 8948,
      "Ġdisplayed": 8949,
      "Bes": 8950,
      "Ġrepresenting": 8951,
      "åİŁ": 8952,
      "Ġproof": 8953,
      "Ġparte": 8954,
      "Ġreporting": 8955,
      "achment": 8956,
      "à¸ģà¸²à¸": 8957,
      "risk": 8958,
      "amily": 8959,
      "Ġpublication": 8960,
      "onde": 8961,
      "Ġinstability": 8962,
      "Ġviolence": 8963,
      "tructural": 8964,
      "å¸¸": 8965,
      "èĭ": 8966,
      "å°±": 8967,
      "Ġcriterion": 8968,
      "ç¼": 8969,
      "Ġadjustment": 8970,
      "Ġcultured": 8971,
      "ç»Ĩ": 8972,
      "å¯¼": 8973,
      "alui": 8974,
      "Ġclustering": 8975,
      "schen": 8976,
      "Ġsometimes": 8977,
      "Ġaffinity": 8978,
      "Ġsummer": 8979,
      "usions": 8980,
      "Ġcourses": 8981,
      "Ġdiges": 8982,
      "Ġcad": 8983,
      "Ġsurveys": 8984,
      "Ġmanagers": 8985,
      "Ġseismic": 8986,
      "æĥħ": 8987,
      "yel": 8988,
      "ĠCP": 8989,
      "Ġcurriculum": 8990,
      "Ġintravenous": 8991,
      "aga": 8992,
      "Ġsatellite": 8993,
      "uro": 8994,
      "ĠStudy": 8995,
      "Ġcement": 8996,
      "Ġextracellular": 8997,
      "Ġblocks": 8998,
      "athy": 8999,
      "Ġsubstantially": 9000,
      "ĠDevelopment": 9001,
      "äºĭ": 9002,
      "Ġphenotype": 9003,
      "Ġstochastic": 9004,
      "Ġexploration": 9005,
      "Ġquasi": 9006,
      "Ġretro": 9007,
      "atz": 9008,
      "ĠData": 9009,
      "arin": 9010,
      "Ġshell": 9011,
      "íķľëĭ¤": 9012,
      "elled": 9013,
      "Ġprodu": 9014,
      "negative": 9015,
      "GS": 9016,
      "Ġrealized": 9017,
      "Ġ64": 9018,
      "Ġdesenvol": 9019,
      "pler": 9020,
      "Ġcombustion": 9021,
      "Ġriver": 9022,
      "ãĤĪ": 9023,
      "ĠÙĤ": 9024,
      "ĠÑĤÐ°": 9025,
      "raul": 9026,
      "transfer": 9027,
      "Ġfractions": 9028,
      "Ġwoman": 9029,
      "auf": 9030,
      "aker": 9031,
      "Ġforecast": 9032,
      "Ġpool": 9033,
      "Ġíı": 9034,
      "Ġchemistry": 9035,
      "Ġinherent": 9036,
      "Ġ99": 9037,
      "Ġgraft": 9038,
      "Ġwalk": 9039,
      "Ġimpaired": 9040,
      "Ġenrolled": 9041,
      "Ġwheat": 9042,
      "ualit": 9043,
      "Ġslope": 9044,
      "Ġscope": 9045,
      "BR": 9046,
      "ĠBP": 9047,
      "Ġleak": 9048,
      "onas": 9049,
      "ÑĩÐ¸": 9050,
      "ĠmiR": 9051,
      "Ġintroduces": 9052,
      "Ġneck": 9053,
      "æĬĢ": 9054,
      "Ġtransportation": 9055,
      "del": 9056,
      "Ġmonit": 9057,
      "Ġunclear": 9058,
      "Ġcharacters": 9059,
      "íĦ°": 9060,
      "ä»ĸ": 9061,
      "los": 9062,
      "iber": 9063,
      "echanical": 9064,
      "idikan": 9065,
      "ĠTNF": 9066,
      "Ġsensory": 9067,
      "anda": 9068,
      "Ġpermit": 9069,
      "Ġbrought": 9070,
      "ĠMus": 9071,
      "annya": 9072,
      "isch": 9073,
      "Ġenergies": 9074,
      "Ġtecn": 9075,
      "iliary": 9076,
      "ĠFrance": 9077,
      "êµĲ": 9078,
      "09": 9079,
      "Follow": 9080,
      "Ġfunctioning": 9081,
      "Ġanthrop": 9082,
      "Ġstored": 9083,
      "Ġarom": 9084,
      "Ġcondens": 9085,
      "Ġoutl": 9086,
      "Ġ1998": 9087,
      "ĠScale": 9088,
      "Ġlocalized": 9089,
      "Ġwidespread": 9090,
      "Ġextreme": 9091,
      "oli": 9092,
      "Ġsubstance": 9093,
      "Ġsharing": 9094,
      "ĠÎ¼m": 9095,
      "ĠfÃ¼r": 9096,
      "Ga": 9097,
      "Ġtahun": 9098,
      "Ġlost": 9099,
      ",âĢĿ": 9100,
      "Ġcircular": 9101,
      "umlah": 9102,
      "Ġwhom": 9103,
      "Ġsay": 9104,
      "Ġcalibration": 9105,
      "Ġprolonged": 9106,
      "oxic": 9107,
      "iente": 9108,
      "ĠControl": 9109,
      "Ġgiving": 9110,
      "Ġchains": 9111,
      "Ġyour": 9112,
      "ÑģÐ¿": 9113,
      "Ġchildhood": 9114,
      "Ġachieving": 9115,
      "Ġlaws": 9116,
      "éĹ®": 9117,
      "Ġincorporated": 9118,
      "ĠApril": 9119,
      "Ġevident": 9120,
      "Ġhet": 9121,
      "Ġnegatively": 9122,
      "blem": 9123,
      "Il": 9124,
      "Ġtopics": 9125,
      "Ġcovered": 9126,
      "Ġimmediately": 9127,
      "umber": 9128,
      "Ġadip": 9129,
      "ĠAus": 9130,
      "indings": 9131,
      "ëį": 9132,
      "oglobin": 9133,
      "åŃ¦çĶŁ": 9134,
      "Ġassumptions": 9135,
      "icrobial": 9136,
      "ĠProv": 9137,
      "Ġaxial": 9138,
      "Ġgradually": 9139,
      "Ġboard": 9140,
      "oke": 9141,
      "Ġthink": 9142,
      "well": 9143,
      "èį": 9144,
      "æµĭ": 9145,
      "Ġdisk": 9146,
      "estr": 9147,
      "Ġbilateral": 9148,
      "æŀĦ": 9149,
      "Ġbehind": 9150,
      "é£": 9151,
      "etary": 9152,
      "UE": 9153,
      "ĠÙĬ": 9154,
      "Ġnom": 9155,
      "usahaan": 9156,
      "ĠDM": 9157,
      "Ġscreen": 9158,
      "Ġinoc": 9159,
      "Ġleng": 9160,
      "ĠPb": 9161,
      "Ġvegetation": 9162,
      "Ġconjug": 9163,
      "Ġprogramme": 9164,
      "Ġcooperation": 9165,
      "ĠTechnology": 9166,
      "Analysis": 9167,
      "Ġproduces": 9168,
      "Ġongoing": 9169,
      "Ġorang": 9170,
      "Ġsik": 9171,
      "Â®": 9172,
      "Ġnucleus": 9173,
      "Ġsubstances": 9174,
      "ãģĵ": 9175,
      "house": 9176,
      "ĠGes": 9177,
      "olytic": 9178,
      "ĠIndex": 9179,
      "Ġech": 9180,
      "erential": 9181,
      "orec": 9182,
      "Ġbench": 9183,
      "æ¨¡": 9184,
      "Ġsubgroup": 9185,
      "opes": 9186,
      "ĠJuly": 9187,
      "ĠJapanese": 9188,
      "Ġhex": 9189,
      "ĠSim": 9190,
      "Ø¶": 9191,
      "Ġprotect": 9192,
      "ĠAut": 9193,
      "Ġradial": 9194,
      "organic": 9195,
      "Ġlob": 9196,
      "Ġresin": 9197,
      "Ġinvestigates": 9198,
      "âĦ": 9199,
      "Ġrehabilitation": 9200,
      "otes": 9201,
      "amping": 9202,
      "Ġpoorly": 9203,
      "Ġcaps": 9204,
      "astern": 9205,
      "ĠCanada": 9206,
      "Ġot": 9207,
      "iat": 9208,
      "Ġë°©": 9209,
      "Ġphosphorylation": 9210,
      "Ġpurified": 9211,
      "Ġcombinations": 9212,
      "Ġchick": 9213,
      "Ð¾Ð¶": 9214,
      "Ġasthma": 9215,
      "igu": 9216,
      "Ġ54": 9217,
      "Ġ1000": 9218,
      "Los": 9219,
      "Ġdistal": 9220,
      "Ġadjusted": 9221,
      "nes": 9222,
      "Previous": 9223,
      "ucion": 9224,
      "Ġhomogeneous": 9225,
      "ĠPP": 9226,
      "Ġbird": 9227,
      "Ġsouth": 9228,
      "chied": 9229,
      "edia": 9230,
      "ĠUN": 9231,
      "Ġpancreatic": 9232,
      "Ġstake": 9233,
      "icao": 9234,
      "umor": 9235,
      "Ġutilizing": 9236,
      "Ġê·¸": 9237,
      "Ġaortic": 9238,
      "Ġnorth": 9239,
      "Ġwurde": 9240,
      "assium": 9241,
      "Ġmedication": 9242,
      "Ãº": 9243,
      "ä½¿": 9244,
      "ĠÐ¿ÑĢÐ¾": 9245,
      "Ø±Ø¯": 9246,
      "Ġceramic": 9247,
      "pend": 9248,
      "Ġmanus": 9249,
      "prec": 9250,
      "dehyde": 9251,
      "step": 9252,
      "Ġboundaries": 9253,
      "Ġpassive": 9254,
      "Ġsoluble": 9255,
      "ĠLabor": 9256,
      "Ġattributes": 9257,
      "net": 9258,
      "Ġwinter": 9259,
      "ĠBa": 9260,
      "âĢĻ,": 9261,
      "from": 9262,
      "disciplinary": 9263,
      "Ġuniversal": 9264,
      "Ġmothers": 9265,
      "Da": 9266,
      "Ġexhibits": 9267,
      "ophys": 9268,
      "Ġstimuli": 9269,
      "ì°": 9270,
      "ĠNMR": 9271,
      "ĠWar": 9272,
      "nos": 9273,
      "intestinal": 9274,
      "Ġages": 9275,
      "Ġtargeting": 9276,
      "ĠATP": 9277,
      "ìĹħ": 9278,
      "èĥŀ": 9279,
      "hingga": 9280,
      "Ġreleased": 9281,
      "ĠHer": 9282,
      "stein": 9283,
      "çĥ": 9284,
      "Ġ1980": 9285,
      "Ġfig": 9286,
      "Ġpromoting": 9287,
      "erest": 9288,
      "ĠSU": 9289,
      "ĠAssociation": 9290,
      "rer": 9291,
      "Ġeryth": 9292,
      "ellow": 9293,
      "å§": 9294,
      "Ġsua": 9295,
      "Ġnutrient": 9296,
      "å¥½": 9297,
      "Ġentrep": 9298,
      "angk": 9299,
      "ãģĭ": 9300,
      "ĠPS": 9301,
      "prop": 9302,
      "activation": 9303,
      "Ġgenomic": 9304,
      "was": 9305,
      "Ġadding": 9306,
      ")/": 9307,
      "earning": 9308,
      "Ġdin": 9309,
      "Ġmonitored": 9310,
      "ĠâĪ¼": 9311,
      "ĠTest": 9312,
      "Ġmature": 9313,
      "ĠGermany": 9314,
      "obil": 9315,
      "Ġli": 9316,
      "month": 9317,
      "iveness": 9318,
      "Ġjour": 9319,
      "Ġemergence": 9320,
      "==": 9321,
      "Ġkarena": 9322,
      "Ġberb": 9323,
      "Ġnervous": 9324,
      "Ġdocumented": 9325,
      "Ġrenew": 9326,
      "Ġpacientes": 9327,
      "enetic": 9328,
      "Ġmultivariate": 9329,
      "Ġhighlights": 9330,
      "ĠJournal": 9331,
      "Ġallocation": 9332,
      "Ġcontrovers": 9333,
      "versely": 9334,
      "Ġresidents": 9335,
      "Ġtrust": 9336,
      "Ġpengaruh": 9337,
      "ĠRA": 9338,
      "Ser": 9339,
      "ëł¥": 9340,
      "Ġmarrow": 9341,
      "ç±": 9342,
      "Ġmixtures": 9343,
      "Ġdrawn": 9344,
      "aden": 9345,
      "ported": 9346,
[...]
